<|pad|>
<|bos|>
<|eos|>
<|unk|>
의/JKG
./SF
,/SP
하/XSV
다/EF
)/SSC
었/EP
에/JKB
년/NNB
ᆫ/ETM
을/JKO
이/VCP
는/JX
(/SSO
를/JKO
이/JKS
은/JX
는/ETM
되/XSV
어/EC
고/EC
에서/JKB
으로/JKB
가/JKS
월/NNB
▁(/SSO
로/JKB
어/EF
일/NNB
▁-/SO
ᆫ다/EF
과/JC
들/XSN
하/XSA
▁있/VX
▁하/VV
적/XSN
:/SP
은/ETM
기/ETN
와/JC
도/JX
▁:/SP
▁있/VA
▁1/SN
》/SSC
▁《/SSO
▁것/NNB
ᆯ/ETM
▁2/SN
▁되/VV
게/EC
▁3/SN
▁역/NNG
-/SO
며/EC
▁대한민국/NNP
▁선수/NNG
으며/EC
▁이/IC
▁영화/NNG
▁그/NP
▁수/NNB
▁제/XPN
▁4/SN
▁미국/NNP
지/EF
"/SSC
▁~/SO
던/ETM
▁사람/NNG
지/VX
▁축구/NNG
▁"/SSO
▁5/SN
▁등/NNB
▁그/IC
까지/JX
▁한/MM
▁대하/VV
에게/JKB
▁않/VX
▁외부/NNG
어서/EC
명/NNB
▁링크/NNG
▁10/SN
▁위하/VV
▁6/SN
▁이/NP
·/SP
▁일본/NNP
'/SSC
▁및/MAG
▁7/SN
▁보/VV
▁8/SN
지만/EC
▁'/SSO
▁각주/NNG
▁같/VA
▁9/SN
2/SN
부터/JX
ᆫ/JX
▁12/SN
▁사용/NNG
~/SO
▁때/NNG
▁중/NNB
▁이후/NNG
▁없/VA
하/VV
▁같이/MAG
▁배우/NNG
라고/EC
는데/EC
▁받/VV-R
개/NNB
▁11/SN
면/EC
면서/EC
성/XSN
▁|/SW
▁남자/NNG
▁다음/NNG
1/SN
▁의하/VV
//SP
회/NNB
대/NNB
▁다른/MM
라는/ETM
▁)/SSC
▁지역/NNG
을/ETM
▁후/NNG
▁말/NNG
번/NNB
세기/NNG
만/JX
으나/EC
ᆷ/ETN
▁더/MAG
다고/EC
▁시작/NNG
있/VX
▁작품/NNG
▁국가/NNG
과/JKB
▁따르/VV
화/XSN
▁출생/NNG
▁때문/NNB
세/NNB
▁두/MM
▁출신/NNG
▁함께/MAG
와/JKB
▁게임/NNG
▁살/VV
▁역사/NNG
▁20/SN
시키/XSV
▁경우/NNG
▁이/MM
▁또한/MAG
자/EC
▁많/VA
▁세계/NNG
▁자신/NNG
▁기록/NNG
%/SW
▁한국/NNP
▁있/VV
▁이름/NNG
▁통하/VV
▁또는/MAJ
▁가/VV
▁저/NP
▁감독/NNG
▁크/VA
▁여자/NNG
▁만들/VV
▁가장/MAG
▁음반/NNG
▁위치/NNG
▁아니/VCN
▁동문/NNG
라/EC
▁of/SL
▁나/NP
권/XSN
호/NNB
▁당시/NNG
다는/ETM
위/NNB
▁//SP
팀/NNG
▁시즌/NNG
〉/SSC
▁영국/NNP
▁프랑스/NNP
▁사망/NNG
▁활동/NNG
▁2010/SN
▁드라마/NNG
▁텔레비전/NNG
▁참가/NNG
=/SW
주/NNG
▁리그/NNG
▁중국/NNP
3/SN
계/XSN
▁설립/NNG
▁〈/SSO
▁포함/NNG
지/EC
차/NNB
▁보이/VV
▁등/NNG
▁대/XPN
어야/EC
▁그러나/MAJ
!/SF
▁그리고/MAJ
▁못/MAG
’/SSC
▁도시/NNG
▁첫/MM
▁프로그램/NNG
▁올림픽/NNG
나/JC
▁독일/NNP
>/SSC
▁하나/NR
▁2012/SN
▁수상/NNG
▁팀/NNG
▁2014/SN
▁일부/NNG
상/XSN
이나/JC
▁21/SN
▁사이/NNG
▁2008/SN
▁출연/NNG
▁2011/SN
▁인구/NNG
년대/NNB
▁‘/SSO
형/XSN
▁15/SN
▁2015/SN
▁음악/NNG
▁뒤/NNG
▁모든/MM
▁2013/SN
▁방송/NNG
▁김/NNP
▁인하/VV
▁2009/SN
▁the/SL
▁2016/SN
▁제작/NNG
는다/EF
▁30/SN
▁전쟁/NNG
주/VX
▁2017/SN
▁다시/MAG
만/NR
▁여러/MM
▁2007/SN
▁2018/SN
▁</SSO
▁공식/NNG
▁16/SN
로서/JKB
▁대회/NNG
씨/NNB
▁결과/NNG
▁발매/NNG
▁연구/NNG
▁알리/VV
▁참고/NNG
보다/JKB
▁이상/NNG
▁정부/NNG
상/NNG
▁처음/NNG
대표/NNG
▁시/NNG
▁가지/VV
▁오/VV
▁현재/MAG
▁학교/NNG
▁2006/SN
▁존재/NNG
▁우승/NNG
4/SN
▁사건/NNG
▁조선/NNP
]/SSC
▁뜻/NNG
m/SL
▁인물/NNG
▁일반/NNG
▁동안/NNG
째/XSN
▁2019/SN
▁노래/NNG
▁가능/NNG
▁설치/NNG
▁KBS/SL
시/NNB
▁||/SW
▁구성/NNG
▁서울/NNP
▁일/NNG
▁2020/SN
▁대표/NNG
▁약/NNG
▁모두/MAG
▁이용/NNG
▁개발/NNG
다가/EC
▁시대/NNG
▁사회/NNG
거나/EC
▁18/SN
▁목록/NNG
▁쓰/VV
▁2005/SN
▁관련/NNG
▁선거/NNG
위원회/NNG
▁2000/SN
▁13/SN
▁주요/NNG
▁14/SN
▁2004/SN
▁경기/NNG
▁가수/NNG
▁대통령/NNG
▁기준/NNG
▁국제/NNG
▁19/SN
▁아들/NNG
▁데/NNB
▁대학/NNG
▁문제/NNG
"/SSO
▁주장/NNG
▁17/SN
▁행정/NNG
▁이전/NNG
▁TV/SL
▁이탈리아/NNP
▁등장/NNG
▁발표/NNG
군/NNG
▁나오/VV
▁발견/NNG
▁25/SN
▁러시아/NNP
인/NNG
▁열리/VV
로부터/JKB
;/SP
▁높/VA
▁관계/NNG
▁주/NNG
▁이러/XR
도록/EC
▁FC/SL
▁위/NNG
▁새롭/VA-I
▁그녀/NP
▁유럽/NNP
▁.../SF
▁진행/NNG
▁정치/NNG
▁대학교/NNG
▁and/SL
▁참여/NNG
▁번째/NNB
▁지방/NNG
▁발생/NNG
▁A/SL
▁애니메이션/NNG
▁정도/NNG
▁최초/NNG
분/NNB
'/SS
▁하지만/MAJ
▁맡/VV
▁의미/NNG
▁주/VV
▁현재/NNG
▁MBC/SL
▁운영/NNG
▁2002/SN
km/SL
”/SSC
▁문화/NNG
▁졸업/NNG
▁총/NNG
▁부르/VV
▁24/SN
▁성/NNG
▁변경/NNG
▁소속/NNG
▁정보/NNG
▁그룹/NNG
▁군/NNG
▁외/NNB
▁명/NNB
▁2021/SN
▁기술/NNG
▁국회/NNG
현/NNG
▁The/SL
▁해당/NNG
▁곳/NNG
의원/NNG
▁교육/NNG
▁듣/VV-I
▁“/SSO
▁2003/SN
▁구조/NNG
▁또/MAG
▁곡/NNG
▁태어나/VV
▁아버지/NNG
▁세/MM
▁배경/NNG
▁[/SSO
▁불리/VV
」/SSC
▁노선/NNG
5/SN
▁재/XPN
▁시간/NNG
▁경제/NNG
기/NNG
ᆫ다는/ETM
▁기업/NNG
▁로마/NNP
자/EF
▁시리즈/NNG
▁생각/NNG
음/ETN
▁각/MM
▁관하/VV
▁28/SN
▁얻/VV-R
▁공격/NNG
▁영향/NNG
동/NNG
▁결정/NNG
시/NNG
▁23/SN
』/SSC
▁필요/NNG
▁22/SN
ᆷ/EF
▁경력/NNG
용/XSN
▁지원/NNG
▁속하/VV
▁부분/NNG
▁기타/NNG
▁2022/SN
▁자료/NNG
▁26/SN
▁전투/NNG
▁여성/NNG
중/NNB
▁2001/SN
▁형태/NNG
▁전/NNG
으로서/JKB
▁27/SN
▁특히/MAG
▁사랑/NNG
▁지정/NNG
▁좋/VA
▁철도/NNG
▁중요/NNG
▁중심/NNG
처럼/JKB
▁이것/NP
6/SN
▁죽/VV
과/NNG
론/XSN
생/XSN
▁가지/VX
사/NNG
▁다양/NNG
▁일어나/VV
▁독립/NNG
에/JKG
▁상태/NNG
▁제국/NNG
▁잘/MAG
▁두/VV
▁철도역/NNG
▁과정/NNG
▁세우/VV
▁,/SP
▁성우/NNP
▁평가/NNG
KBS/SL
▁–/SW
▁주로/MAG
▁작/VA
▁1999/SN
▁교수/NNG
▁모델/NNG
▁잉글랜드/NNP
▁폐지/NNG
▁이야기/NNG
▁1998/SN
제/XSN
▁진출/NNG
▁속/NNG
리그/NNG
▁상대/NNG
▁『/SSO
▁개/NNG
▁최고/NNG
▁전체/NNG
선/NNG
▁29/SN
▁아/IC
▁야구/NNG
▁끝/NNG
▁SBS/SL
▁내용/NNG
▁데뷔/NNG
▁제공/NNG
▁딸/NNG
▁비/XPN
▁즉/MAG
▁시절/NNG
ᆫ다고/EC
▁매우/MAG
▁계획/NNG
▁1996/SN
▁후보/NNG
학교/NNG
▁보내/VV
▁수도/NNG
▁자유/NNG
▁앨범/NNG
▁경기도/NNP
▁1990/SN
라고/JKQ
▁초기/NNG
▁스페인/NNP
자/XSN
호선/NNB
▁역할/NNG
▁시스템/NNG
▁이루어지/VV
받/VV-R
원/NNB
s/SL
부/NNG
▁「/SSO
▁성공/NNG
▁우리/NP
▁주연/NNG
▁개인/NNG
7/SN
전/NNG
▁31/SN
▁경기/NNP
식/NNB
▁추가/NNG
▁다/MAG
▁in/SL
▁운행/NNG
▁1995/SN
▁교통/NNG
▁생산/NNG
▁사실/NNG
▁밝히/VV
▁방식/NNG
▁월드컵/NNG
▁기능/NNG
▁조직/NNG
▁인간/NNG
▁왕/NNG
단/NNG
▁하계/NNG
▁방법/NNG
▁거주/NNG
▁이유/NNG
▁마지막/NNG
▁비디오/NNG
국/NNG
▁운동/NNG
▁1997/SN
▁출전/NNG
▁존/NNP
▁홈페이지/NNG
▁나타나/VV
8/SN
면/NNG
▁도로/NNG
▁소재/NNG
▁&/SW
▁점/NNG
–/SW
▁승리/NNG
▁차지/NNG
▁공개/NNG
곡/NNG
조/NNB
▁수/NNG
▁정치인/NNG
▁박/NNP
▁간/NNG
▁지구/NNG
▁남/VV
▁중앙/NNG
▁영어/NNP
▁100/SN
▁현/MM
▁구간/NNG
▁이루/VV
▁클럽/NNG
▁지내/VV
▁캐나다/NNP
▁문헌/NNG
▁연결/NNG
으로부터/JKB
▁모습/NNG
▁공동/NNG
▁대전/NNP
등/NNB
▁생애/NNG
▁회사/NNG
▁많이/MAG
리/NNG
▁거의/MAG
▁그것/NP
▁아래/NNG
▁역대/NNG
▁쓰이/VV
억/NR
ᆯ/JKO
▁산/NNG
▁출시/NNG
▁대상/NNG
▁시기/NNG
?/SF
▁웹/NNG
▁1994/SN
▁1993/SN
편/NNB
▁가족/NNG
▁1992/SN
▁번/NNB
대학/NNG
▁FIFA/SL
장/NNG
▁서울특별시/NNP
▁오르/VV
▁작가/NNG
학급/NNG
별/XSN
▁소설/NNG
▁알/VV
▁유명/NNG
으로써/JKB
▁따라서/MAJ
▁분류/NNG
▁떨어지/VV
▁날/NNG
▁밴드/NNG
▁집/NNG
▁불/XPN
▁발전/NNG
▁만나/VV
▁선/NNG
▁책/NNG
▁인정/NNG
하/VX
▁들어가/VV
▁건설/NNG
▁볼/NNG
▁개최/NNG
▁여기/NP
▁어머니/NNG
▁일/NR
역/NNG
경기/NNG
종/NNG
▁정의/NNG
▁나라/NNG
▁특징/NNG
▁관리/NNG
▁반대/NNG
▁지나/VV
▁군사/NNG
▁싱글/MAG
▁거치/VV
▁안/MAG
▁1980/SN
▁우주/NNG
▁1991/SN
▁결국/MAG
▁개요/NNG
▁국민/NNG
▁형성/NNG
▁상황/NNG
▁생활/NNG
▁스포츠/NNG
▁언어/NNG
▁가운데/NNG
▁대신/NNG
▁./SF
▁서비스/NNG
고/JKQ
군/NNB
부분/NNG
▁이론/NNG
▁동시/NNG
▁예/NNG
조/NNG
▁무/XPN
▁건물/NNG
▁개교/NNG
▁전국/NNG
▁주변/NNG
▁리/NNP
▁소련/NNP
▁특별/NNG
▁수록/NNG
▁작곡/NNG
▁신/XPN
법/NNG
▁오브/NNP
▁고려/NNP
▁육군/NNG
▁찾/VV
▁변화/NNG
▁과학/NNG
▁표현/NNG
▁도쿄/NNP
▁등장인물/NNG
▁가리키/VV
▁앞/NNG
▁1988/SN
▁K/SL
▁B/SL
▁라디오/NNG
▁최/XPN
▁자리/NNG
어도/EC
▁설명/NNG
되/VV
▁구역/NNG
TV/SL
겠/EP
▁결혼/NNG
The/SL
▁친구/NNG
▁과거/NNG
여/XSN
▁대부분/NNG
▁마을/NNG
▁취임/NNG
▁이르/VV-I
▁공간/NNG
▁기반/NNG
▁조사/NNG
▁공화국/NNG
서/JKB
야/EF
▁1989/SN
▁외국인/NNG
▁섬/NNG
▁선정/NNG
▁전기/NNG
층/NNG
▁의원/NNG
▁산업/NNG
▁편성/NNG
▁않/VV
▁임명/NNG
후/NNG
▁사업/NNG
▁짓/VV-I
▁1987/SN
▁인도/NNP
▁뉴욕/NNP
▁교회/NNG
▁공연/NNG
▁시설/NNG
▁안/NNG
내/VX
▁단체/NNG
▁유지/NNG
▁촬영/NNG
▁프로/NNG
▁실시/NNG
▁제외/NNG
▁기본/NNG
나/VV
▁종교/NNG
▁2023/SN
▁목적/NNG
▁연극/NNG
▁거리/NNG
▁제도/NNG
▁명칭/NNG
▁종/NNG
▁연기/NNG
▁고등학교/NNG
▁도입/NNG
▁연혁/NNG
▁물/NNG
수/NNG
▁통합/NNG
▁그리스/NNP
▁50/SN
부/NNB
당/NNG
▁본/MM
구/NNG
▁활약/NNG
10/SN
▁최대/NNG
▁준/XPN
▁최/NNP
▁기간/NNG
▁수행/NNG
▁손/NNG
왕/NNG
▁비판/NNG
▁학생/NNG
▁연방/NNG
▁환경/NNG
▁전하/VV
▁기원전/NNG
▁잇/VV-I
▁1970/SN
▁아시안/NNP
▁떠나/VV
파/NNG
▁황제/NNG
▁의/NNG
명/NNG
▁사진/NNG
▁뿐/NNB
▁U/SL
▁어떤/MM
|/SW
▁이어/MAG
▁일으키/VV
▁어리/VA
▁부문/NNG
▁미국인/NNG
▁올리/VV
권/NNB
▁계약/NNG
급/NNG
▁1985/SN
님/XSN
▁요구/NNG
||/SW
▁컴퓨터/NNG
므로/EC
이/XSN
려고/EC
▁행동/NNG
▁정/NNP
▁법/NNG
▁정책/NNG
▁1986/SN
▁이동/NNG
▁기존/NNG
▁라/NNG
위원/NNG
▁메달리스트/NNG
▁당/NNG
▁증가/NNG
▁승강장/NNG
▁몇/NR
▁멤버/NNG
9/SN
▁각각/MAG
▁그/MM
▁·/SP
오/VX
▁자연/NNG
▁직접/MAG
▁길/VA
▁나타내/VV
▁버전/NNG
▁담당/NNG
▁전통/NNG
▁개통/NNG
라/EF
▁1984/SN
▁적용/NNG
드라마/NNG
▁지금/NNG
▁차량/NNG
▁사고/NNG
▁달/NNG
▁역시/MAG
▁길이/NNG
▁없이/MAG
▁프로/NNB
▁남쪽/NNG
▁효과/NNG
▁상/NNG
▁확인/NNG
▁고대/NNG
라운드/NNG
▁폴란드/NNP
판/NNG
▁내리/VV
▁스위스/NNP
오/VV
▁내/NNB
▁연속/NNG
▁부산/NNP
▁구/NNG
▁능력/NNG
▁북쪽/NNG
간/XSN
▁프로젝트/NNG
▁몸/NNG
▁개념/NNG
▁강하/VA
▁형식/NNG
▁적/NNG
▁아시아/NNP
▁기독교/NNG
▁?/SF
니/EC
▁계속/MAG
▁시장/NNG
화/NNB
▁태양/NNG
▁→/SW
대회/NNG
&/SW
▁에/IC
▁획득/NNG
▁그렇/VA-I
▁이끌/VV
▁힘/NNG
▁비교/NNG
A/SL
▁아이/NNG
센터/NNG
▁회장/NNG
▁방영/NNG
시/EP
▁눈/NNG
▁추정/NNG
시대/NNG
▁네덜란드/NNP
▁윤/NNP
▁후/MAG
▁지지/NNG
▁내/VV
▁국제공항/NNG
▁레코드/NNG
▁아프리카/NNP
▁혹은/MAG
▁=/SW
▁걸치/VV
▁옮기/VV
▁공항/NNG
▁다르/VA
▁수상자/NNG
▁1983/SN
▁정당/NNG
▁역임/NNG
▁서로/MAG
▁브라질/NNP
▁최종/NNG
골/NNG
▁분야/NNG
▁선택/NNG
▁인기/NNG
▁경찰/NNG
▁유일/NNG
ᆫ데/EC
방송/NNG
▁용어/NNG
▁자체/NNG
▁초등학교/NNG
▁국도/NNG
2015/SN
▁돌아오/VV
▁네/IC
▁생기/VV
이/MM
▁C/SL
▁바로/MAG
승/NNG
▁만화/NNG
▁작업/NNG
▁맞/VV
▁경상남도/NNP
률/XSN
+/SW
우/NNG
▁일제/NNG
▁낮/VA
▁당하/VV
▁들/VV
▁밖/NNG
▁0/SN
▁반응/NNG
▁1982/SN
▁록/NNG
▁바꾸/VV
▁판매/NNG
제/XPN
▁해외/NNG
주의/NNG
▁디자인/NNG
▁마음/NNG
▁의사/NNG
기관/NNG
▁분리/NNG
▁이렇/VA-I
▁비슷/XR
▁소프트웨어/NNG
2013/SN
2011/SN
▁km/SL
▁설계/NNG
▁건축물/NNG
▁교장/NNG
▁어느/MM
▁군대/NNG
▁본선/NNG
▁성장/NNG
간/NNB
남/NNG
▁서쪽/NNG
▁해군/NNG
▁1981/SN
▁이어지/VV
▁오스트레일리아/NNP
▁조건/NNG
▁크기/NNG
▁40/SN
▁성적/NNG
컵/NNG
▁전자/NNG
가/VV
▁국내/NNG
▁먹/VV
▁방향/NNG
2012/SN
▁비롯하/VV
▁조/NNP
▁민족/NNG
▁배/NNG
▁스웨덴/NNP
▁달리/MAG
▁파리/NNP
▁확장/NNG
▁새/NNG
강/NNB
▁보호/NNG
▁동물/NNG
▁이미/MAG
▁데이터/NNG
으면/EC
・/SW
점/NNB
▁지속/NNG
19/SN
▁열차/NNG
가/VX
2009/SN
▁남부/NNG
▁왕국/NNG
▁이때/NNG
▁to/SL
▁거두/VV
▁실패/NNG
▁신/NNG
▁승격/NNG
MBC/SL
▁잡/VV-R
▁특정/NNG
▁경상북도/NNP
▁항공/NNG
20/SN
▁캐릭터/NNG
사이트/NNG
2008/SN
▁해/NNG
초/NNB
▁동일/NNG
▁강/NNP
▁지명/NNG
▁평균/NNG
진/NNG
▁그러/VV
2010/SN
▁동쪽/NNG
기/XSN
▁디지털/NNG
관/NNG
▁군인/NNG
▁여기/VV
▁사/VV
▁초대/NNG
▁촌/NNG
교육/NNG
▁관할/NNG
▁내부/NNG
▁자기/NP
▁1960/SN
▁비하/VV
▁기후/NNG
▁버스/NNG
▁예정/NNG
▁밤/NNG
2007/SN
▁북부/NNG
▁제한/NNG
어/NNG
▁규모/NNG
▁박사/NNG
▁선출/NNG
▁이런/MM
▁종류/NNG
▁종료/NNG
▁정규/NNG
▁녹음/NNG
▁언급/NNG
▁사상/NNG
▁적/VA
▁바탕/NNG
▁부족/NNG
▁겸/NNB
▁늘/VV
율/XSN
▁면적/NNG
2006/SN
▁타/VV
▁UEFA/SL
인/XSN
▁선발/NNG
2014/SN
지역/NNG
▁양/NNG
경/XSN
▁가깝/VA-I
▁별/NNG
▁나이/NNG
▁한국어/NNP
성/NNG
▁에너지/NNG
▁규정/NNG
▁작사/NNG
▁표준/NNG
▁치르/VV
▁가톨릭/NNG
마다/JX
천/NR
▁초/NNB
▁작전/NNG
▁갖/VV
▁의회/NNG
▁런던/NNP
▁형/NNG
▁지배/NNG
차전/NNB
▁현대/NNP
▁나누/VV
▁문서/NNG
▁합병/NNG
해/NNG
▁원래/MAG
▁삼성/NNP
▁1979/SN
▁1950/SN
스럽/XSA-I
▁만/NNB
▁style/SL
자/NNG
▁갖추/VV
영화/NNG
▁차이/NNG
▁넘/VV
▁편/NNB
▁한편/MAG
▁계속/NNG
▁은퇴/NNG
▁사/NR
▁넣/VV
▁모양/NNG
▁이적/NNG
▁투수/NNG
▁쉽/VA-I
▁요리/NNG
영/NR
▁전/MM
▁개시/NNG
▁베트남/NNP
▁위원/NNG
▁제품/NNG
▁de/SL
▁뉴스/NNG
2016/SN
▁뮤직/NNG
▁기관/NNG
▁차/NNG
롭/XSA-I
류/XSN
▁1945/SN
▁어렵/VA-I
▁분석/NNG
▁빠르/VA
▁주민/NNG
▁학력/NNG
▁다루/VV
▁부인/NNG
▁전문/NNG
12/SN
▁결합/NNG
[/SSO
▁주제/NNG
▁아일랜드/NNP
11/SN
▁아내/NNG
▁바뀌/VV
▁시민/NNG
▁음악가/NNG
가지/NNB
▁반/NNG
▁최근/NNG
▁a/SL
▁자/IC
▁자동차/NNG
▁향하/VV
▁코미디/NNG
▁비/NNG
▁옛/MM
▁도움/NNG
반/NNG
구역/NNG
ᆸ니다/EF
ᆫ지/EC
▁입단/NNG
▁알/NNB
▁1972/SN
▁높이/NNG
▁불교/NNG
▁명예/NNG
▁1973/SN
▁보통/MAG
align/SL
▁길/NNG
▁성격/NNG
）/SSC
▁엔진/NNG
▁목표/NNG
▁1968/SN
▁멕시코/NNP
▁남성/NNG
▁유래/NNG
운동/NNG
▁나가/VV
▁연합/NNG
▁달성/NNG
나/NP
▁!/SF
▁기사/NNG
▁요소/NNG
21/SN
▁개봉/NNG
일/NNG
▁선언/NNG
▁쇼/NNG
▁세력/NNG
는지/EC
▁결성/NNG
▁장/NNG
▁1978/SN
▁차트/NNG
관리/NNG
▁1974/SN
▁유사/NNG
▁조선민주주의인민공화국/NNP
개월/NNB
▁1971/SN
▁남기/VV
▁시도/NNG
희/NNG
▁땅/NNG
받/XSV
▁강/NNG
▁극장/NNG
SBS/SL
▁중화인민공화국/NNP
▁연주/NNG
▁오스트리아/NNP
▁이해/NNG
▁월드/NNG
▁프로듀서/NNG
▁개업/NNG
현/MM
▁시행/NNG
《/SSO
철도/NNG
▁대/NNG
▁예술/NNG
정보/NNG
▁편입/NNG
▁혁명/NNG
▁경험/NNG
▁예선/NNG
▁전라남도/NNP
▁통과/NNG
민/NNG
▁뮤지컬/NNG
▁원/NNG
석/NNG
▁특수/NNG
사회/NNG
▁경기장/NNG
▁소개/NNG
▁인터넷/NNG
문화/NNG
▁남/NNG
어라/EF
▁문학/NNG
씩/XSN
2005/SN
산/NNG
▁하나/NNG
mm/SL
다/EC
▁육상/NNG
층/XSN
▁세포/NNG
▁둘/NR
▁부상/NNG
▁나머지/NNG
▁지니/VV
지/NNG
▁지도자/NNG
▁머리/NNG
▁무대/NNG
▁수준/NNG
▁출판/NNG
▁처리/NNG
직/NNG
▁도/NNG
▁S/SL
▁생성/NNG
▁물질/NNG
▁1969/SN
▁1975/SN
▁송/NNP
▁1976/SN
▁북한/NNP
항/NNG
▁센터/NNG
▁구/NR
▁원인/NNG
▁중학교/NNG
정부/NNG
▁미술/NNG
특별/NNG
▁by/SL
▁성립/NNG
▁사용자/NNG
▁가공/NNG
▁철학/NNG
교/NNG
▁조약/NNG
봉/NNG
시즌/NNG
▁신설/NNG
▁작곡가/NNG
▁채널/NNG
▁장치/NNG
▁개칭/NNG
▁대중/NNG
▁중단/NNG
과학/NNG
보/VX
▁Single/SL
▁진/NNP
▁M/SL
▁논란/NNG
▁미치/VV
▁제임스/NNP
▁행위/NNG
▁가치/NNG
▁오늘날/NNG
▁제안/NNG
▁for/SL
▁바/NNG
▁충청남도/NNP
▁관심/NNG
▁기획/NNG
▁윈도우/NNG
▁스타/NNG
▁부대/NNG
도/NNB
▁노력/NNG
▁방문/NNG
병/NNG
학년/NNG
▁업무/NNG
▁코드/NNG
▁장군/NNG
▁마찬가지/NNG
▁미니/NNG
▁나무/NNG
▁국립/NNG
▁교황/NNG
▁키/NNG
▁주인공/NNG
▁준비/NNG
학/NNG
▁배치/NNG
（/SSO
대상/NNG
▁사이트/NNG
하고/JC
▁묘사/NNG
▁정신/NNG
▁종합/NNG
안/NNG
기술/NNG
▁협력/NNG
시리즈/NNG
▁헌법/NNG
회/NNG
▁경영/NNG
▁기초/NNG
▁현상/NNG
▁분포/NNG
▁공/NNG
▁입/VV-R
▁주도/NNG
실/NNG
▁문자/NNG
▁미상/NNG
▁투표/NNG
▁집단/NNG
당/XSN
▁on/SL
▁영역/NNG
▁X/SL
▁구분/NNG
▁그리/VV
▁1977/SN
▁스튜디오/NNG
▁위험/NNG
2017/SN
▁1963/SN
▁서부/NNG
cm/SL
▁대구/NNP
▁반면/NNG
▁완전히/MAG
나/EF
란/ETM
출연/NNG
규모/NNG
▁식물/NNG
▁영상/NNG
16/SN
▁현대/NNG
차/NNG
▁미래/NNG
▁선거구/NNG
▁아직/MAG
▁싶/VX
다면/EC
이라고/JKQ
▁장관/NNG
▁빠지/VV
▁앤/NNP
▁다니/VV
▁돌아가/VV
▁수학/NNG
집/NNB
▁붙이/VV
▁순위/NNG
▁정리/NNG
정/NNG
15/SN
▁금지/NNG
▁드/NNP
2004/SN
▁일정/NNG
우승/NNG
▁I/SL
▁왕조/NNG
▁장소/NNG
고자/EC
▁강화/NNG
▁실험/NNG
▁피해/NNG
▁연맹/NNG
대학교/NNG
▁더욱/MAG
▁기자/NNG
▁그림/NNG
▁상호/NNG
▁지키/VV
▁행사/NNG
▁죽이/VV
당하/VV
▁가문/NNG
▁가정/NNG
▁공사/NNG
▁양/MM
▁어/IC
▁포르투갈/NNP
대/NNG
▁경계/NNG
▁돈/NNG
▁요청/NNG
▁황/NNP
가능/NNG
▁인천/NNP
▁접근/NNG
▁영토/NNG
▁죽음/NNG
▁지/NP
の/SW
Digital/SL
▁점령/NNG
▁지리/NNG
▁총리/NNG
▁인식/NNG
▁해석/NNG
▁미/NNP
▁싱글/NNG
▁동계/NNG
▁비밀/NNG
▁홍콩/NNP
▁법률/NNG
▁축구단/NNG
려/EC
▁그대로/MAG
으므로/EC
▁명령/NNG
▁홍/NNP
었었/EP
▁빛/NNG
▁소유/NNG
▁제조/NNG
▁광주/NNP
▁다수/NNG
▁맺/VV
▁발달/NNG
▁광고/NNG
▁플레이어/NNG
길/NNG
▁치료/NNG
2018/SN
▁1967/SN
▁끝나/VV
▁패배/NNG
법인/NNG
▁아카데미/NNG
▁형사/NNG
▁함수/NNG
▁기여/NNG
▁스코틀랜드/NNP
：/SP
▁동생/NNG
▁실제로/MAG
▁발사/NNG
▁안전/NNG
▁근처/NNG
▁복귀/NNG
▁설정/NNG
▁속도/NNG
▁단계/NNG
▁조정/NNG
부문/NNG
▁나뉘/VV
▁체계/NNG
사업/NNG
▁조지/NNP
18/SN
배/NNG
▁신라/NNP
▁짧/VA
▁참조/NNG
▁60/SN
만/NNB
▁권리/NNG
▁당원/NNG
▁믿/VV-R
▁이듬해/NNG
족/NNG
▁1946/SN
▁경쟁/NNG
▁표시/NNG
▁지하철/NNG
주/NNB
▁지휘/NNG
비/NNG
▁협회/NNG
형/NNG
2000/SN
읍/NNG
▁느끼/VV
▁조연/NNG
▁기념/NNG
▁은/NNG
승/NNB
▁언론/NNG
드/NNG
▁문화재/NNG
▁삶/NNG
▁측/NNB
선거/NNG
▁행성/NNG
▁특성/NNG
▁파괴/NNG
17/SN
▁무기/NNG
▁현/NNP
도시/NNG
신/NNG
하/NNG
▁나서/VV
▁잃/VV
▁임시/NNG
▁놓/VV
▁작용/NNG
▁막/VV
▁문/NNG
▁엔터테인먼트/NNG
서/NNG
▁소/NNG
▁KBO/SL
▁년/NNB
▁전라북도/NNP
▁받아들이/VV
▁보유/NNG
▁어린이/NNG
▁이곳/NP
▁신문/NNG
▁주의/NNG
▁해체/NNG
▁훈련/NNG
▁부/NNG
▁제/MM
▁자주/MAG
▁구단/NNG
▁정식/NNG
▁탄생/NNG
▁1948/SN
▁개편/NNG
▁따른/MM
▁기재/NNG
▁연장/NNG
▁널리/MAG
▁1965/SN
▁여름/NNG
당하/XSV
습니다/EF
▁공립/NNG
▁입장/NNG
▁감소/NNG
▁나중/NNG
▁뛰어나/VA
▁초/XPN
▁통산/NNG
▁네트워크/NNG
▁살해/NNG
▁면/NNG
▁1962/SN
▁단/MAJ
▁후기/NNG
▁1964/SN
▁활용/NNG
세대/NNG
태/NNG
▁메이저/NNG
▁체제/NNG
▁상징/NNG
▁접하/VV
세계/NNG
때/NNG
▁누구/NP
본부/NNG
▁도착/NNG
▁팬/NNG
▁핀란드/NNP
미/NNG
▁제시/NNG
▁1966/SN
▁여행/NNG
▁200/SN
▁삼/VV
▁코/NNG
▁싸우/VV
관계/NNG
협회/NNG
▁먼저/MAG
▁↔/SW
▁건축/NNG
▁전략/NNG
14/SN
▁소리/NNG
▁후반/NNG
려는/ETM
▁평화/NNG
▁미디어/NNG
▁지적/NNG
령/NNG
▁글/NNG
▁모르/VV
▁신화/NNG
▁선생/NNG
▁완성/NNG
어요/EF
ᆫ가/EF
▁대체/NNG
▁군주/NNG
▁목/NNG
▁예/IC
▁넓/VA
▁다리/NNG
▁에피소드/NNG
▁회원/NNG
▁회의/NNG
지방/NNG
▁발행/NNG
▁일종/NNG
▁체결/NNG
▁부정/NNG
▁읽/VV
▁추진/NNG
▁차례/NNG
2002/SN
그/MM
나/JX
▁부여/NNG
▁전설/NNG
▁들어오/VV
▁보다/MAG
▁타이틀/NNG
▁궤도/NNG
▁모으/VV
▁성인/NNG
▁졸업식/NNG
▁그린/NNG
▁이집트/NNP
▁거부/NNG
▁권력/NNG
▁전환/NNG
▁홈/NNG
▁개혁/NNG
▁다만/MAG
▁단어/NNG
2001/SN
철/NNG
연구/NNG
▁오래/MAG
경/NNG
▁구하/VV
▁입/NNG
▁남편/NNG
▁서울대학교/NNP
▁세상/NNG
▁온라인/NNG
▁측정/NNG
아/NNG
ᆫ다면/EC
▁포유류/NNG
▁벌이/VV
것/NNB
▁민주당/NNP
▁유엔/NNP
▁겪/VV
▁at/SL
▁설/NNG
▁수많/VA
▁열/VV
▁저서/NNG
자료/NNG
▁걸리/VV
▁합류/NNG
▁안정/NNG
▁국왕/NNG
▁시험/NNG
▁공군/NNG
▁전달/NNG
▁덴마크/NNP
▁편곡/NNG
원/NNG
▁+/SW
▁개선/NNG
▁보도/NNG
▁아르헨티나/NNP
▁중간/NNG
▁확대/NNG
}/SSC
▁대학원/NNG
버리/VX
▁II/SL
▁천황/NNG
과정/NNG
▁기억/NNG
▁갖/VX
선수/NNG
활동/NNG
▁여객/NNG
▁해결/NNG
▁벨기에/NNP
▁완공/NNG
소/NNG
▁배우/VV
속/NNG
▁고/XPN
▁방어/NNG
▁제목/NNG
▁취하/VV
▁뛰/VV
▁명명/NNG
▁등록/NNG
▁쪽/NNB
▁우크라이나/NNP
▁정하/VV
▁꽃/NNG
▁오후/NNG
▁폴/NNP
▁1949/SN
▁부산광역시/NNP
▁표기/NNG
▁검사/NNG
게/EF
▁곧/MAG
▁소/XPN
▁E/SL
▁강력/NNG
▁지진/NNG
▁기계/NNG
▁코치/NNG
left/SL
▁근거/NNG
▁꿈/NNG
▁시인/NNG
▁충돌/NNG
단체/NNG
▁홍보/NNG
▁결승전/NNG
▁교체/NNG
▁하루/NNG
▁우수/NNG
▁입학/NNG
D/SL
▁1961/SN
▁계열/NNG
키/NNG
▁맞추/VV
▁범죄/NNG
▁실행/NNG
background/SL
화/NNG
▁82/SN
▁마이클/NNP
2019/SN
▁너/NP
▁원소/NNG
2003/SN
▁가사/NNG
▁OST/SL
▁신경/NNG
시간/NNB
▁돕/VV-I
▁로스앤젤레스/NNP
▁불구하/VV
▁와/IC
▁바다/NNG
▁사장/NNG
▁형제/NNG
가/NNG
주년/NNB
▁미사일/NNG
▁상업/NNG
한/MM
▁대사/NNG
▁아침/NNG
▁오픈/NNG
2020/SN
▁라이브/NNG
▁인접/NNG
▁챔피언/NNG
▁청소년/NNG
▁32/SN
▁득점/NNG
▁슈퍼/NNG
초등학교/NNG
회의/NNG
▁1955/SN
▁위원회/NNG
고등학교/NNG
▁지점/NNG
▁건강/NNG
▁종목/NNG
▁탈락/NNG
13/SN
▁번역/NNG
▁본인/NNG
▁흐르/VV
▁윌리엄/NNP
'/SSO
▁1954/SN
▁베를린/NNP
▁본관/NNG
▁브랜드/NNG
▁원작/NNG
▁조성/NNG
교회/NNG
▁G/SL
▁이사/NNG
▁카드/NNG
▁줄이/VV
의회/NNG
표/NNG
▁삼/NR
▁위기/NNG
▁박물관/NNG
▁정권/NNG
로써/JKB
▁온도/NNG
▁영업/NNG
기에/EC
▁화학/NNG
▁부임/NNG
▁인수/NNG
▁제거/NNG
▁로버트/NNP
▁시정촌/NNP
▁신인/NNG
▁소장/NNG
▁제정/NNG
우수/NNG
B/SL
▁거대/NNG
▁보존/NNG
▁유도/NNG
▁주어지/VV
▁체포/NNG
토/NNG
▁1956/SN
지원/NNG
▁음식/NNG
문/NNG
▁1947/SN
▁식민지/NNG
▁대응/NNG
▁집합/NNG
▁열/NR
트/VV
▁위성/NNG
▁LG/SL
▁낳/VV
▁음력/NNG
▁관측/NNG
▁사라지/VV
▁잡지/NNG
▁정상/NNG
「/SSO
▁번호/NNG
▁이스라엘/NNP
▁포/NNG
▁이/NR
▁치/VV
▁농구/NNG
▁동료/NNG
▁얼굴/NNG
▁단위/NNG
▁시청/NNG
▁장/NNP
▁하위/NNG
판/XSN
▁판단/NNG
▁공작/NNG
▁사례/NNG
▁액션/NNG
ㆍ/SW
▁젊/VA
▁방/NNG
▁항상/MAG
▁인근/NNG
▁직원/NNG
▁부모/NNG
▁N/SL
▁자동/NNG
살/NNB
▁CD/SL
▁소년/NNG
▁신학/NNG
▁제기/NNG
연대/NNG
▁유리/NNG
▁동맹/NNG
▁농업/NNG
강/NNG
보/NNG
▁D/SL
▁필리핀/NNP
▁기/NNG
▁아메리카/NNP
▁줄거리/NNG
▁종종/MAG
▁줄/NNG
▁폰/NNG
▁근무/NNG
▁유나이티드/NNP
대학원/NNG
산업/NNG
▁벌어지/VV
▁통일/NNG
▁워싱턴/NNP
물/NNG
▁만들/VX
▁헝가리/NNP
▁달리/VV
▁실제/MAG
▁권/NNP
▁대륙/NNG
▁오사카/NNP
강점기/NNG
조사/NNG
▁명단/NNG
▁주말/NNG
▁어떻/VA-I
▁자격/NNG
▁용/NNG
▁진화/NNG
▁태풍/NNG
▁파견/NNG
▁작성/NNG
、/SP
▁목소리/NNG
▁의견/NNG
▁포지션/NNG
개발/NNG
▁전사/NNG
▁충청북도/NNP
섬/NNG
시설/NNG
▁값/NNG
▁이란/NNP
▁증거/NNG
작/NNG
▁색/NNG
▁친/XPN
선/NNB
▁공급/NNG
▁동부/NNP
▁마치/VV
▁지위/NNG
▁통치/NNG
▁이미지/NNG
▁행하/VV
0/SN
▁1940/SN
▁고/MM
▁너무/MAG
▁신호/NNG
가/XSN
▁귀족/NNG
1999/SN
▁기원/NNG
▁붙/VV
▁인증/NNG
맨/NNG
▁발/NNG
▁좋아하/VV
▁병원/NNG
▁자라/VV
▁1958/SN
▁가입/NNG
▁버리/VV
▁참전/NNG
시간/NNG
▁반란/NNG
▁여전히/MAG
▁콘서트/NNG
▁환자/NNG
창/NNG
▁●/SW
▁본래/NNG
정책/NNG
▁위원장/NNG
▁을/NNG
▁직후/NNG
▁측면/NNG
▁올라가/VV
뿐/JX
▁단백질/NNG
▁앞두/VV
▁집중/NNG
▁1920/SN
▁펼치/VV
▁피/NNG
▁기구/NNG
▁경/NNG
▁즉위/NNG
더/MAG
▁교사/NNG
▁영화배우/NNG
집/NNG
▁시각/NNG
▁의식/NNG
▁유형/NNG
단지/NNG
대로/JX
체/NNG
▁1941/SN
1998/SN
▁500/SN
▁허용/NNG
연구소/NNG
으면서/EC
▁공포/NNG
▁뉴/NNG
▁걸/NNG
▁소수/NNG
▁임/NNP
▁채택/NNG
청/NNG
▁양자/NNG
▁대만/NNP
일/NR
▁노동/NNG
▁이하/NNG
▁통제/NNG
▁것/NP
▁통계/NNG
▁깊/VA
▁변호사/NNG
▁오/NNP
▁챔피언십/NNG
▁붕괴/NNG
규/NNG
▁골/NNG
▁핵/NNG
날/NNG
▁기회/NNG
▁논문/NNG
▁무장/NNG
졸업/NNG
▁1959/SN
▁달러/NNB
준/NNG
▁이슬람/NNG
▁정확/NNG
버스/NNG
▁간주/NNG
▁불/NNG
▁칼/NNG
▁달하/VV
▁사후/NNG
▁파일/NNG
▁서/NNP
.../SF
▁아이돌/NNP
▁지식/NNG
▁70/SN
▁태평양/NNP
▁하늘/NNG
리/NNB
▁80/SN
▁내각/NNG
▁로/NNG
▁사항/NNG
▁보컬/NNG
근/NNG
▁원/NNB
▁증명/NNG
호/NNG
▁상당/NNG
▁주목/NNG
▁교토/NNP
▁중세/NNG
▁V/SL
가수/NNG
▁유로/NNG
▁투어/NNG
러/EC
▁강조/NNG
▁도서관/NNG
▁동/NNG
법원/NNG
▁원칙/NNG
내/NNB
▁공장/NNG
▁아름답/VA-I
네/XSN
▁계기/NNG
▁병사/NNG
▁표면/NNG
나/EC
▁R/SL
▁손자/NNG
링/NNG
48/SN
▁시티/NNP
▁금메달/NNG
▁시드니/NNP
▁모스크바/NNP
▁해안/NNG
예술/NNG
▁지도/NNG
도/NNG
C/SL
▁병/NNG
▁여우/NNG
장관/NNG
▁담/VV
▁승인/NNG
▁학자/NNG
량/NNG
사랑/NNG
▁장면/NNG
▁출발/NNG
▁피터/NNP
▁말/VV
▁학사/NNG
경제/NNG
▁도중/NNG
▁따/VV
▁만약/MAG
카/NNG
1997/SN
네/EF
▁1952/SN
▁위협/NNG
▁트랙/NNG
▁노예/NNG
▁임무/NNG
#b0e0e6;"/W_HASHTAG
▁빈/NNP
▁인가/NNG
▁공유/NNG
▁각종/NNG
▁노르웨이/NNP
▁연출/NNG
▁플레이/NNG
점/NNG
▁F/SL
▁보수/NNG
▁원정/NNG
▁홈런/NNG
▁가격/NNG
▁건담/NNP
▁고려/NNG
▁장비/NNG
▁계산/NNG
▁전개/NNG
▁1957/SN
▁경연/NNG
▁그곳/NP
▁아나운서/NNG
▁올해/NNG
▁정/NNG
덕/NNG
▁남북/NNP
▁모이/VV
▁에도/NNP
▁University/SL
▁공부/NNG
▁패/NNG
▁무역/NNG
▁연구소/NNG
▁투자/NNG
손/NNG
주연/NNG
▁방송국/NNG
나라/NNG
▁갤럭시/NNP
▁책임/NNG
▁출장/NNG
회사/NNG
▁1944/SN
▁1953/SN
▁공공/NNG
▁국경/NNG
▁향상/NNG
▁반/XPN
▁태국/NNP
▁플랫폼/NNG
30/SN
▁1930/SN
▁겨울/NNG
▁리처드/NNP
▁범위/NNG
▁분자/NNG
▁소녀/NNG
▁배역/NNG
▁움직이/VV
▁스스로/MAG
▁이기/VV
▁몇몇/MM
▁고향/NNG
▁스페셜/NNP
사단/NNG
▁m/SL
▁당선/NNG
▁최소/NNG
▁외교/NNG
▁사운드/NNG
▁이번/NNG
▁전역/NNG
아/JKV
▁T/SL
▁공원/NNG
▁월/NNG
▁AFC/SL
▁마드리드/NNP
▁밀도/NNG
▁스토리/NNG
사건/NNG
▁—/SW
▁더불/VV
▁생명/NNG
▁암살/NNG
국가/NNG
▁소비에트/NNP
▁인터뷰/NNG
▁재산/NNG
▁숲/NNG
라/NNG
오/NR
▁금융/NNG
▁분쟁/NNG
▁중/NNG
▁피아노/NNG
▁양식/NNG
▁반복/NNG
▁확보/NNG
▁개정/NNG
▁뜻하/VV
▁재정/NNG
▁백/NR
▁수용/NNG
▁질량/NNG
스/VV
▁고구려/NNP
▁영의정/NNG
▁각본/NNG
▁준공/NNG
▁서/VV
▁시카고/NNP
▁혐의/NNG
▁새로/MAG
▁총선/NNG
▁1951/SN
▁수영/NNG
▁유/NNP
▁통신/NNG
▁전용/NNG
▁항공기/NNG
기업/NNG
이나/JX
현재/NNG
▁나/VV
▁코파/NNG
2021/SN
▁마련/NNG
M/SL
▁병력/NNG
다/MAG
▁90/SN
▁도쿄도/NNP
▁마리아/NNP
▁취급/NNG
1996/SN
▁나들목/NNG
▁모두/NNG
▁블랙/NNG
▁수사/NNG
▁엄마/NNG
▁단순/NNG
▁심하/VA
▁사회주의/NNG
▁왕자/NNG
▁홋카이도/NNP
1995/SN
▁비율/NNG
▁인사/NNG
이사/NNG
▁계승/NNG
▁은행/NNG
▁with/SL
마을/NNG
▁무렵/NNB
▁복잡/XR
▁수립/NNG
▁300/SN
▁You/SL
교수/NNG
▁편집/NNG
위원장/NNG
▁솔로/NNG
▁의료/NNG
▁고용/NNG
▁금/NNG
▁미드필더/NNG
▁재직/NNG
▁점차/MAG
▁지하/NNG
▁학문/NNG
외/NNB
▁침공/NNG
▁캘리포니아주/NNP
▁클래식/NNG
▁매년/MAG
▁스타일/NNG
▁채/NNG
▁회복/NNG
간/NNG
▁데이비드/NNP
▁변하/VV
동안/NNG
부대/NNG
▁폭발/NNG
감독/NNG
수/NNB
▁초반/NNG
▁토지/NNG
▁확정/NNG
▁개신교/NNG
▁*/SW
▁합치/VV
▁마이/NNP
▁저항/NNG
▁플레이오프/NNG
▁핵심/NNG
극장/NNG
▁바이러스/NNG
▁방면/NNG
▁봄/NNG
▁이외/NNG
</SSO
▁모드/NNG
▁훨씬/MAG
▁구성원/NNG
▁방출/NNG
▁수원/NNP
녀/NNG
소수자/NNG
▁루이스/NNP
▁사단/NNG
▁적극/NNG
▁관료/NNG
▁세리/NNP
▁잠시/MAG
▁호텔/NNG
식/NNG
이란/JX
일본/NNP
▁고정/NNG
1994/SN
▁근대/NNG
▁판타지/NNG
▁노동자/NNG
▁자/VV
▁전시/NNG
▁정착/NNG
에게서/JKB
▁대구광역시/NNP
단계/NNG
▁베스트/NNG
▁비용/NNG
▁소스/NNG
전쟁/NNG
▁감정/NNG
▁블루/NNG
▁판/NNG
▁1000/SN
▁그래서/MAJ
▁향/NNG
▁단일/NNG
▁대기/NNG
▁디/NNG
▁신체/NNG
▁탑재/NNG
대/XSN
석/NNB
▁구축/NNG
▁무게/NNG
▁재판/NNG
▁전력/NNG
▁훈장/NNG
▁35/SN
▁관찰/NNG
▁몽골/NNP
▁외국/NNG
쪽/NNB
▁다섯/NR
▁본사/NNG
▁예상/NNG
▁요/MM
▁중심지/NNG
▁청나라/NNP
시장/NNG
▁tvN/SL
▁논쟁/NNG
▁단편/NNG
▁현실/NNG
▁강제/NNG
▁연재/NNG
▁영향력/NNG
사령부/NNG
윤/NNG
천/NNG
▁1938/SN
▁이라크/NNP
▁1942/SN
▁수정/NNG
▁예산/NNG
▁죄/NNG
▁규칙/NNG
▁만/NR
▁장착/NNG
치/XSN
▁텍사스/NNP
▁비행/NNG
▁자녀/NNG
▁전주/NNP
▁창설/NNG
▁학위/NNG
▁그러/XR
▁해방/NNG
▁화물/NNG
끄/VV
▁SK/SL
▁밑/NNG
▁말기/NNG
▁전혀/MAG
▁지상/NNG
전/MM
대전/NNG
옥/NNG
▁권한/NNG
▁민주/NNG
▁요새/NNG
24/SN
▁게스트/NNG
▁백제/NNP
▁베이스/NNG
▁중부/NNG
복/NNG
▁조각/NNG
▁아이/IC
▁전차/NNG
▁호/NNG
▁인도네시아/NNP
▁합의/NNG
▁구체/NNG
▁보안/NNG
▁비례/NNG
▁성질/NNG
▁의도/NNG
그룹/NNG
▁기업인/NNG
▁표/NNG
늘/VV
▁대형/NNG
▁독자/NNG
▁숫자/NNG
▁팝/NNG
칸/NNG
▁New/SL
▁상품/NNG
▁은메달/NNG
▁전화/NNG
▁중반/NNG
▁판결/NNG
대사/NNG
▁수여/NNG
▁장기/NNG
▁모험/NNG
업/NNG
▁띠/VV
▁호수/NNG
▁인민/NNG
▁임의/NNG
▁경향/NNG
음악/NNG
투니버스/NNP
▁물론/MAG
▁영/NR
▁자살/NNG
▁지시/NNG
▁선수단/NNG
보/VV
위/NNG
▁멀/VA
▁밝/VA
▁1936/SN
▁중화민국/NNP
장/NNB
▁고문/NNG
▁공산당/NNP
▁석사/NNG
▁오/NR
▁완료/NNG
▁조치/NNG
▁편지/NNG
▁본격/NNG
▁불가리아/NNP
기획/NNG
▁NHK/SL
▁오페라/NNG
▁전후/NNG
▁투입/NNG
▁피하/VV
제도/NNG
▁from/SL
▁관광/NNG
▁1943/SN
▁보고/NNG
▁제어/NNG
▁이주/NNG
르/NNG
티/NNG
2022/SN
▁1914/SN
▁J./SL
▁도달/NNG
▁산하/NNG
▁우의정/NNP
▁일대/NNG
▁회전/NNG
▁서식/NNG
▁성과/NNG
▁나치/NNP
▁연관/NNG
개국/NNB
한국/NNP
1993/SN
▁노/NNP
▁수입/NNG
▁울산/NNP
▁천체/NNG
▁청년/NNG
23/SN
▁닌텐도/NNP
▁선의/NNG
▁약하/VA
▁직업/NNG
25/SN
▁파워/NNG
▁하/NNG
력/XSN
▁교차로/NNG
▁유전자/NNG
같/VA
더라도/EC
라면/EC
▁약속/NNG
▁36/SN
▁경로/NNG
▁철학자/NNG
▁헨리/NNP
방/NNG
통신/NNG
▁개관/NNG
▁논의/NNG
▁관점/NNG
▁린/NNP
▁의학/NNG
▁항성/NNG
▁현역/NNG
。/SF
▁경주/NNP
▁1939/SN
▁베이스볼/NNP
▁선고/NNG
▁시리아/NNP
▁흔히/MAG
행위/NNG
▁고전/NNG
▁상하이/NNP
▁인천광역시/NNP
▁재단/NNG
▁45/SN
▁레이/NNP
▁정차/NNG
▁좌의정/NNG
▁부하/NNG
▁브라운/NNP
▁체코/NNP
연합/NNG
▁루마니아/NNP
▁인권/NNG
▁결방/NNG
▁미군/NNG
▁베이징/NNP
▁중구/NNP
▁취득/NNG
▁해양/NNG
▁컵/NNG
▁프리미어리그/NNG
▁자원/NNG
시스템/NNG
▁르/NNG
▁참가자/NNG
▁투/NR
미국/NNP
▁의무/NNG
▁자치/NNG
▁정원/NNG
▁창단/NNG
▁주인/NNG
두/MM
번호/NNG
▁고종/NNP
▁법칙/NNG
▁본명/NNG
▁부근/NNG
▁순서/NNG
▁참석/NNG
▁코로나/NNP
공사/NNG
▁scope/SL
▁고양이/NNG
▁연주자/NNG
▁영화제/NNG
▁화가/NNG
무/NNG
▁캐스팅/NNG
데/NNB
▁Love/SL
▁강원도/NNP
▁귀국/NNG
▁가져오/VV
▁로드/NNP
▁FM/SL
▁가르치/VV
▁비난/NNG
▁연호/NNG
▁조지아/NNP
▁Part./SL
▁아동/NNG
▁오전/NNG
▁후손/NNG
▁창조/NNG
▁A./SL
▁벗어나/VV
▁빌/NNP
▁새기/VV
▁얼마/NNG
거/NNB
계획/NNG
▁만큼/NNB
▁테러/NNG
▁흡수/NNG
▁시점/NNG
▁유학/NNG
▁찰스/NNP
▁보장/NNG
▁칸/NNG
학회/NNG
환경/NNG
▁※/SW
▁변수/NNG
▁원래/NNG
▁소설가/NNG
▁패션/NNG
▁World/SL
▁가/NNG
▁쌓/VV
▁기대/NNG
▁저장/NNG
center/SL
▁살인/NNG
▁포기/NNG
▁옆/NNG
▁원자/NNG
▁유튜브/NNP
공/NNG
빈/NNG
행정/NNG
▁만족/NNG
▁반영/NNG
▁유형문화재/NNP
▁장식/NNG
▁전반/NNG
절/NNG
▁성능/NNG
▁전철/NNG
▁천/NR
로/NNG
▁닥터/NNG
음/EF
▁개조/NNG
▁놓이/VV
▁돌/NNG
▁물리/NNG
측/NNB
▁과/NNG
▁구별/NNG
▁목사/NNG
▁시위/NNG
▁탈출/NNG
대대/NNG
▁글로벌/NNG
요/JX
자리/NNG
▁구글/NNP
▁네이버/NNP
▁로봇/NNG
▁기지/NNG
▁듯/NNB
▁민/NNP
▁원년/NNG
▁장르/NNG
▁1919/SN
▁스미스/NNP
▁예수/NNP
코/NNG
1990/SN
▁1937/SN
▁계통/NNG
▁마이크로소프트/NNP
▁무엇/NP
▁제출/NNG
▁현장/NNG
목/NNG
▁vs/SL
▁심사/NNG
▁급제/NNG
▁던지/VV
▁모바일/NNG
▁위반/NNG
▁장교/NNG
▁창립/NNG
kg/SL
▁JTBC/SL
▁L/SL
▁계급/NNG
▁입자/NNG
▁저/XPN
▁좀/MAG
▁한때/NNG
구조/NNG
백/NNG
▁특집/NNG
▁수집/NNG
▁찍/VV
문제/NNG
학자/NNG
▁결승/NNG
▁완전/NNG
▁의장/NNG
▁갈등/NNG
▁공기/NNG
▁루이/NNP
▁조/NNG
_/SW
▁고속도로/NNG
▁지역구/NNG
▁해산/NNG
복지/NNG
선거구/NNG
▁{/SSO
▁김일성/NNP
▁어디/NP
▁재즈/NNG
▁주위/NNG
▁뉴질랜드/NNP
▁대수/NNG
▁승/NNG
▁유대인/NNG
유/NNG
▁분할/NNG
록/NNG
▁논리/NNG
▁전직/NNG
S/SL
t/SL
▁막/MAG
▁바람/NNG
▁사전/NNG
▁일본어/NNP
개혁/NNG
나가/VX
체육/NNG
▁스릴러/NNG
지대/NNG
▁무덤/NNG
▁법원/NNG
패/NNB
▁가지/NNG
▁드라이버/NNG
▁장애/NNG
▁전원/NNG
▁가리/VV
▁원리/NNG
▁폭력/NNG
라며/EC
의/NNG
▁생물/NNG
▁즐기/VV
말/NNB
숙/NNG
작용/NNG
1992/SN
▁1935/SN
▁드러나/VV
▁왕위/NNG
▁터널/NNG
▁항복/NNG
운/NNG
톤/NNB
▁가스/NNG
▁건립/NNG
▁출마/NNG
광/NNG
▁인생/NNG
▁행복/NNG
▁검/VA
▁문신/NNG
▁수비수/NNG
▁캘리포니아/NNP
▁테스트/NNG
▁플레이스테이션/NNP
▁합성/NNG
달/NNG
▁동의/NNG
▁마크/NNP
▁보급/NNG
▁주/VX
꾼/XSN
▁강의/NNG
▁제작진/NNG
▁차원/NNG
▁활성/NNG
든/EC
▁동일본/NNP
▁박근혜/NNP
▁자이언츠/NNP
▁이사장/NNG
생활/NNG
I/SL
▁유니버시아드/NNG
량/NNB
▁수출/NNG
▁흑인/NNG
▁본부/NNG
▁심각하/VA
▁이르/VA-R
▁출처/NNG
밖에/JX
▁더불어민주당/NNP
▁도구/NNG
▁여부/NNG
▁중의/NNG
▁제주/NNP
환/XR
▁감염/NNG
▁보병/NNG
▁저녁/NNG
욱/MAG
▁거절/NNG
▁여객철도/NNG
▁극/NNG
▁일본인/NNG
▁전파/NNG
▁수훈자/NNG
▁장남/NNG
▁총/MM
▁칠레/NNP
년도/NNB
1989/SN
▁대비/NNG
▁정기/NNG
▁파/NNG
게임/NNG
▁꼬리/NNG
▁주관/NNG
▁묻/VV-I
▁왼쪽/NNG
▁현지/NNG
공화국/NNG
병원/NNG
연속극/NNG
기간/NNG
란/JX
▁별도/NNG
공학/NNG
학과/NNG
row/SL
▁싱가포르/NNP
주의자/NNG
en/SL
▁오랜/MM
▁협상/NNG
▁희망/NNG
스타/NNG
▁e/SL
▁물체/NNG
▁싱어송라이터/NNG
▁et/SL
▁수술/NNG
▁현황/NNG
포/NNG
1991/SN
▁동/MM
▁일본군/NNG
▁조합/NNG
서울/NNP
혜/NNG
X/SL
▁고유/NNG
▁단독/NNG
▁롯데/NNP
▁메모리/NNG
▁의상/NNP
K/SL
▁가하/VV
▁대립/NNG
▁요한/NNP
▁이익/NNG
▁조절/NNG
▁J/SL
▁방언/NNG
▁질병/NNG
▁터미널/NNG
▁33/SN
▁사립/NNG
대사관/NNG
▁저작/NNG
능력/NNG
쇼/NNG
▁늘어나/VV
▁러브/NNG
▁Me/SL
▁움직임/NNG
▁칼리지/NNG
▁부부/NNG
▁사실/MAG
▁서버/NNG
▁신앙/NNG
▁취소/NNG
▁1933/SN
▁각각/NNG
▁인공/NNG
▁멸망/NNG
▁성경/NNG
▁오히려/MAG
▁의존/NNG
세/MM
▁보물/NNG
▁오리지널/NNG
▁재위/NNG
▁조명/NNG
▁출간/NNG
말/NNG
순/NNG
총/MM
▁38/SN
▁SF/SL
▁스타크래프트/NNP
▁추측/NNG
▁평양/NNP
▁홀/NNG
마/NNG
▁1931/SN
▁정복/NNG
▁도전/NNG
암/NNG
▁견해/NNG
▁민간/NNG
▁증상/NNG
중학교/NNG
▁1934/SN
▁걷/VV-I
▁공주/NNG
▁서구/NNP
▁공무원/NNG
▁변형/NNG
▁아파트/NNG
▁인류/NNG
본/NNG
▁고속/NNG
▁끌/VV
▁별명/NNG
▁술/NNG
▁아주/MAG
리스트/NNG
이/NR
▁구현/NNG
▁약간/MAG
▁축제/NNG
▁한자/NNG
▁함대/NNG
사이/NNG
▁댄스/NNG
▁마법/NNG
▁순간/NNG
▁400/SN
▁발언/NNG
▁앞서/MAG
▁조작/NNG
금/NNG
▁DNA/SL
▁거기/NP
▁분/NNB
▁주니어/NNG
▁싸움/NNG
▁EP/SL
▁국/NNG
▁리더/NNG
▁마리/NNB
▁바둑/NNG
▁한정/NNG
▁복수/NNG
▁상당히/MAG
▁계/NNG
▁신/NNP
▁교류/NNG
▁메달/NNG
▁시사/NNG
▁타격/NNG
▁맨/MM
▁부활/NNG
▁의지/NNG
▁직접/NNG
차원/NNG
▁에서/JKB
▁예능/NNG
▁증/NNG
▁직전/NNG
▁DVD/SL
▁기체/NNG
▁로켓/NNG
▁아티스트/NNG
▁오른쪽/NNG
예/NNG
▁교환/NNG
▁나아가/VV
▁일원/NNG
▁거/NP
▁칸/NNP
▁학습/NNG
▁가을/NNG
▁개원/NNG
▁목성/NNG
▁붉/VA
시험/NNG
조직/NNG
1987/SN
▁건국/NNG
▁대량/NNG
▁상승/NNG
▁후지/NNP
▁별/MM
▁선보이/VV
▁일치/NNG
▁높이/VV
▁준/NNG
▁지붕/NNG
▁카메라/NNG
▁효율/NNG
〈/SSO
없이/MAG
▁H/SL
▁문장/NNG
▁영입/NNG
▁상위/NNG
▁세르비아/NNP
▁악기/NNG
▁옷/NNG
▁응용/NNG
▁잘못/MAG
▁정체/NNG
질/XSN
▁내셔널/NNP
▁말레이시아/NNP
▁집안/NNG
▁혼인/NNG
▁공동체/NNG
▁등급/NNG
▁소식/NNG
▁우려/NNG
익/NNG
▁마틴/NNP
▁반드시/MAG
▁제대로/MAG
▁파키스탄/NNP
▁퍼지/VV
세포/NNG
턴/NNG
▁개설/NNG
▁승객/NNG
▁일시/NNG
▁잭/NNP
▁불법/NNG
▁임금/NNG
▁출력/NNG
훈장/NNG
▁강등/NNG
▁상원/NNG
▁점수/NNG
▁제자/NNG
▁항구/NNG
L/SL
▁H./SL
▁사냥/NNG
▁살/NNG
▁생/XPN
▁터키/NNP
부인/NNG
연/NNG
▁1932/SN
▁당나라/NNP
▁메인/NNG
▁미/XPN
▁분류군/NNP
▁시조/NNG
▁시키/VV
▁전문가/NNG
▁합격/NNG
▁잭슨/NNP
문화재/NNG
▁1910/SN
▁키우/VV
▁통상/NNG
▁폐쇄/NNG
▁힘들/VA
바/NNG
→/SW
▁당신/NP
▁메시지/NNG
▁카운티/NNG
▁화면/NNG
홍/NNG
▁34/SN
▁물러나/VV
▁백작/NNG
▁보건/NNG
▁빅/NNG
▁사령관/NNG
▁입력/NNG
▁주식회사/NNG
▁커버/NNG
▁쿠데타/NNG
Xã/SL
▁금속/NNG
▁일컫/VV-I
▁득표/NNG
▁디스크/NNG
▁비록/MAG
▁부/XPN
▁의심/NNG
▁지대/NNG
▁출범/NNG
▁출연작/NNG
▁골든/NNG
▁둘째/NR
▁스티븐/NNP
▁시상식/NNG
▁오/IC
▁점점/MAG
▁진입/NNG
▁탑/NNG
▁톰/NNP
로/XSM
▁1924/SN
▁남우/NNG
▁방해/NNG
▁테마/NNG
민족/NNG
▁머무르/VV
▁무리/NNG
▁학술/NNG
▁건조/NNG
▁봉하/VV
▁아메리칸/NNP
▁한반도/NNP
있/VV
1988/SN
22/SN
▁대한제국/NNP
▁애플/NNP
▁우선/MAG
▁잎/NNG
▁장악/NNG
▁화재/NNG
놓/VX
▁1929/SN
▁고등/NNG
▁승려/NNG
▁운용/NNG
▁유지/NNP
▁인상/NNG
운동가/NNG
▁무료/NNG
▁시호/NNG
▁에드워드/NNP
설/NNB
▁신부/NNG
색/NNG
▁그런데/MAJ
▁니가타/NNP
▁레전드/NNG
▁보조/NNG
▁압력/NNG
▁하원/NNG
☆/SW
제작/NNG
혁명/NNG
50/SN
▁1928/SN
▁경유/NNG
▁수도원/NNG
▁수비/NNG
▁지형/NNG
각/NNG
백/NR
ᆫ다/EC
▁align/SL
▁과학자/NNG
▁엄청나/VA
▁날개/NNG
▁자매/NNG
▁전면/NNG
▁허가/NNG
▁사법/NNG
▁토너먼트/NNG
편곡/NNG
헌/NNG
∼/SO
▁S./SL
▁거래/NNG
▁풋볼/NNP
▁한국인/NNG
림/NNG
크/VA
▁1918/SN
▁교명/NNG
▁금메달리스트/NNG
▁배출/NNG
▁여왕/NNG
▁연세대학교/NNP
▁등판/NNG
▁선전/NNG
▁임기/NNG
▁크로아티아/NNP
야구/NNG
▁파악/NNG
▁해설/NNG
▁1925/SN
▁집행/NNG
▁펜싱/NNG
이닝/NNG
판서/NNG
text/SL
▁내의/NNG
▁이/NNP
송/NNG
있/VA
▁뇌/NNG
▁예측/NNG
▁창/NNG
▁항공사/NNG
스포츠/NNG
FM/SL
▁진압/NNG
▁코리아/NNP
삼/NR
▁명/NNG
▁생존/NNG
▁수학자/NNG
▁블루스/NNG
▁접촉/NNG
▁주교/NNG
은/NNG
▁각본가/NNP
▁무시/NNG
▁사태/NNG
▁자금/NNG
▁처형/NNG
▁평/NNG
비디오/NNG
오/EC
친구/NNG
ᆫ가/EC
▁독일어/NNP
▁드물/VA
▁사형/NNG
▁화/NNG
▁관련자/NNG
▁보고서/NNG
▁연간/NNG
▁최후/NNG
문학/NNG
사/VV
▁M./SL
▁감사/NNG
▁나이트/NNP
▁조문/NNG
▁코무네/NNP
체제/NNG
▁내전/NNG
언/NNG
▁매체/NNG
▁블로그/NNG
공식/NNG
라도/EC
▁매주/MAG
▁사/NNG
▁어워드/NNG
▁지급/NNG
▁처하/VV
100/SN
▁1900/SN
▁48/SN
▁대화/NNG
▁보관/NNG
▁성향/NNG
▁폐교/NNG
대한민국/NNP
여자/NNG
▁64/SN
▁발음/NNG
▁입학식/NNG
▁후쿠오카/NNP
▁1907/SN
▁1923/SN
▁그때/NNG
▁레드/NNG
▁실질/NNG
▁영웅/NNG
▁한나라당/NNP
재/NNG
▁신성/NNG
▁유물/NNG
▁인명/NNG
학원/NNG
▁권/NNB
▁레논/NNP
▁열/NNG
▁잠수함/NNG
▁황금/NNG
계/NNG
소설/NNG
▁물건/NNG
▁세종/NNP
▁수단/NNG
▁시나리오/NNG
▁유적/NNG
▁주간/NNG
▁콘텐츠/NNG
▁플로리다/NNP
영/NNG
향/NNG
▁그리스도/NNP
▁승진/NNG
▁존스/NNP
▁주최/NNG
▁지나가/VV
『/SSO
▁부친/NNG
▁요인/NNG
▁원자로/NNG
▁장애인/NNG
▁노벨/NNP
▁대장/NNG
▁물고기/NNG
▁이혼/NNG
▁조카/NNG
루/NNG
▁42/SN
▁役/SH
▁가상/NNG
▁다큐멘터리/NNG
▁동기/NNG
▁라운드/NNG
▁막부/NNG
▁명나라/NNP
▁밥/NNG
▁생태/NNG
▁수석/NNG
▁실수/NNG
▁웨일스/NNP
▁심/XR
▁이벤트/NNG
▁칭하/VV
카드/NNG
▁돌리/VV
▁드러내/VV
▁연도/NNG
▁코너/NNG
▁페이지/NNG
등급/NNG
▁경제학/NNG
▁누르/VV
▁어떠/XR
▁운항/NNG
▁원하/VV
▁자/NNB
▁전신/NNG
▁중기/NNG
▁해상/NNG
대/XPN
×/SL
▁150/SN
▁37/SN
▁정비/NNG
1986/SN
▁나폴레옹/NNP
▁돌/VV
▁신자/NNG
▁위대/XR
▁차별/NNG
▁FA/SL
▁Press/SL
▁남아프리카/NNP
▁사유/NNG
▁양쪽/NNG
▁정지/NNG
▁컬럼비아/NNP
▁프랑스어/NNP
▁메이지/NNP
▁소멸/NNG
▁습격/NNG
▁주소/NNG
안전/NNG
지구/NNG
▁공업/NNG
▁독특/NNG
▁라이트/NNG
▁서일본/NNP
▁성씨/NNG
▁여론/NNG
▁타이완/NNP
▁혼란/NNG
▁화석/NNG
투표/NNG
../SF
▁1926/SN
▁관/NNG
▁스피드/NNG
▁신뢰/NNG
▁요코하마/NNP
재/XPN
▁꺾/VV
▁복무/NNG
▁소송/NNG
▁파크/NNP
▁변환/NNG
▁초/NNG
▁한계/NNG
▁광주광역시/NNP
▁등/NNP
▁모시/VV
▁분노/NNG
▁산맥/NNG
▁확률/NNG
x/SL
▁고치/VV
▁서명/NNG
▁서식지/NNG
▁여동생/NNG
▁조금/MAG
▁프리/NNG
▁1./SB
▁글자/NNG
▁긍정/NNG
▁대략/MAG
▁후원/NNG
차례/NNG
충/NNG
G/SL
▁유대/NNP
▁음/IC
▁전송/NNG
▁전한/NNP
▁성분/NNG
▁왕/NNP
▁질문/NNG
▁흐름/NNG
작전/NNG
택/NNG
26/SN
▁관직/NNG
▁기도/NNG
▁약물/NNG
▁자본/NNG
▁채용/NNG
▁특이/NNG
▁01/SN
▁1927/SN
▁강원특별자치도/NNG
▁계곡/NNG
▁국토/NNG
▁기법/NNG
▁신장/NNG
▁인용/NNG
극/NNG
▁방지/NNG
▁시내/NNG
▁연인/NNG
▁폭/NNG
▁할아버지/NNG
번지/NNG
신경/NNG
안타/NNG
▁반도/NNG
▁신분/NNG
▁히로시마/NNP
▁들어서/VV
▁소비/NNG
▁원형/NNG
▁폭탄/NNG
▁화합물/NNG
▁부진/NNG
▁울산광역시/NNP
▁이토/NNP
▁인/NNG
▁재료/NNG
▁주전/NNG
▁창간/NNG
▁데이비스/NNP
▁띄/VV
▁서양/NNG
▁안드로이드/NNP
▁오랫동안/NNG
▁한글/NNG
27/SN
th/SL
▁그치/VV
▁병합/NNG
▁부장/NNG
▁신축/NNG
▁왜/MAG
▁인지/NNG
▁캠퍼스/NNG
▁평론가/NNG
▁후반기/NNG
평가/NNG
힘/NNG
▁관객/NNG
▁귀/NNG
▁사임/NNG
▁숨기/VV
▁한국방송공사/NNP
계약/NNG
내/VV
완/NNG
작곡/NNG
40/SN
▁My/SL
▁대한/NNP
▁학살/NNG
에서부터/JKB
편성/NNG
▁넘어가/VV
▁녹색/NNG
▁방정식/NNG
▁세트/NNG
▁소재지/NNG
▁층/NNG
▁협정/NNG
▁39/SN
▁메리/NNP
▁바/NNB
▁반발/NNG
▁상륙/NNG
▁예전/NNG
▁종이/NNG
▁지/NNG
터/NNG
▁오스만/NNP
▁임진왜란/NNP
▁적/NNB
▁킹/NNP
▁혼합/NNG
▁검찰/NNG
▁털/NNG
▁포인트/NNG
▁학원/NNG
곳/NNG
1985/SN
29/SN
▁대선/NNG
▁만화가/NNG
▁법정/NNG
▁비/VV
▁스마트폰/NNG
▁전공/NNG
▁MC/SL
▁대항/NNG
▁식/NNG
▁연예/NNG
▁왕립/NNG
▁PC/SL
▁광장/NNG
▁넘기/VV
▁마시/VV
▁순수/NNG
▁액체/NNG
▁일일/NNG
온/NNG
!!/SF
▁국방부/NNG
▁데이터베이스/NNG
▁델/NNP
▁디자이너/NNG
▁양성/NNG
▁태권도/NNG
▁포항/NNP
▁DJ/SL
▁MVP/SL
▁결론/NNG
▁국기/NNG
▁당초/NNG
▁먹이/NNG
▁바치/VV
▁범주/NNG
▁뿌리/NNG
▁업체/NNG
▁토/NNG
▁하우스/NNG
▁희극/NNG
두/VX
▁달러/NNG
▁북구/NNP
▁이웃/NNG
▁작동/NNG
▁추천/NNG
▁토머스/NNP
기록/NNG
▁신청/NNG
▁여인/NNG
▁화산/NNG
운영/NNG
이상/NNG
▁뮌헨/NNP
▁바이에른/NNP
▁앨런/NNP
▁연료/NNG
▁연안/NNG
▁판사/NNG
▁필수/NNG
건/NNB
라디오/NNG
▁관여/NNG
▁마무리/NNG
▁선박/NNG
▁실현/NNG
▁재건/NNG
▁전반기/NNG
▁줄어들/VV
농공/NNG
상태/NNG
▁나쁘/VA
▁추구/NNG
▁고도/NNG
▁구속/NNG
▁덕/NNG
▁목포/NNP
국제/NNG
도로/NNG
디/NNG
죄/NNG
▁갑자기/MAG
▁공격수/NNG
▁동구/NNP
▁맞서/VV
▁배구/NNG
▁분위기/NNG
▁실력/NNG
▁아이디어/NNG
▁재개/NNG
▁좁/VA-R
▁테니스/NNG
이론/NNG
a/SL
▁노출/NNG
▁북/NNP
▁수익/NNG
▁주식/NNG
대책/NNG
▁1921/SN
▁2./SB
▁연합군/NNG
▁친일/NNG
▁보스턴/NNP
▁북아메리카/NNP
▁블록/NNG
▁수송/NNG
▁은하/NNP
▁주택/NNG
▁카를/NNP
검찰청/NNG
사람/NNG
▁단지/MAG
▁류/NNP
▁벽/NNG
▁산소/NNG
▁위상/NNG
▁지은/NNP
▁힙합/NNG
척/NNB
h/SL
▁1912/SN
▁군단/NNG
▁단층/NNG
▁사격/NNG
▁웨스트/NNP
▁확산/NNG
효과/NNG
▁1917/SN
▁기다리/VV
▁레알/NNP
▁불상/NNG
▁손상/NNG
▁아사히/NNP
▁마침내/MAG
▁신규/NNG
▁청/NNG
▁공정/NNG
▁그랜드/NNP
▁끼치/VV
▁동원/NNG
▁명성/NNG
▁중지/NNG
▁호주/NNP
음/NNG
▁직무/NNG
▁훗날/NNG
양/NNB
▁개명/NNG
▁느낌/NNG
▁라틴어/NNP
▁망명/NNG
▁스타디움/NNG
▁아이스하키/NNG
▁악화/NNG
▁임대/NNG
▁채우/VV
▁전선/NNG
모델/NNG
행/NNG
▁공헌/NNG
▁생겨나/VV
▁전술/NNG
▁한화/NNP
보병/NNG
▁1922/SN
▁대결/NNG
▁접속/NNG
▁;/SP
▁개입/NNG
▁갤러리/NNG
▁겸임/NNG
▁로즈/NNP
▁수소/NNG
▁실리/VV
▁여신/NNG
▁일련/NNG
▁탄소/NNG
▁확립/NNG
린/NNG
▁규제/NNG
▁다이묘/NNP
▁돔/NNG
▁심장/NNG
▁전투기/NNG
▁진행자/NNG
▁해리/NNP
인가/NNG
R/SL
▁기기/NNG
▁마치/MAG
▁매일/MAG
▁상임/NNG
▁챔피언스리그/NNP
▁휴대/NNG
▁따로/MAG
▁색상/NNG
▁유효/NNG
▁자치구/NNG
▁작위/NNG
▁절차/NNG
▁풀/NNG
▁혁신/NNG
모/NNG
세요/EF
정치/NNG
－/SS
▁거/NNB
▁두산/NNP
▁철/NNG
▁철수/NNG
▁투쟁/NNG
▁활발/XR
저/NP
훈련/NNG
▁기동/NNG
▁심판/NNG
▁연대/NNP
배우/NNG
▁레슬링/NNG
▁배포/NNG
▁심지어/MAG
▁포로/NNG
자치/NNG
재단/NNG
▁1905/SN
▁41/SN
▁국방/NNG
▁아트/NNG
▁저술/NNG
▁추산/NNG
▁화이트/NNG
공원/NNG
잡/VV-R
▁1904/SN
▁ISO/SL
▁절반/NNG
▁효소/NNG
기구/NNG
북/NNG
흥/NNG
▁D./SL
▁National/SL
▁기념물/NNG
▁마스터/NNG
▁무/NNG
▁원자력/NNG
▁인디언/NNG
▁크리스/NNP
너/NP
투수/NNG
▁55/SN
▁O/SL
▁심리/NNG
▁질/NNG
▁충격/NNG
▁침입/NNG
▁타자/NNG
▁태조/NNP
란/NNG
작품/NNG
촌/NNG
▁1896/SN
▁고리/NNG
▁고통/NNG
▁둘러싸/VV
▁드래곤/NNG
▁매장/NNG
▁사양/NNG
▁이제/IC
▁일상/NNG
▁자식/NNG
▁차관/NNG
▁피부/NNG
▁화성/NNG
신학/NNG
▁식품/NNG
▁포위/NNG
열차/NNG
조연상/NNG
▁불과/XR
▁서울시/NNP
▁성당/NNG
▁저자/NNG
▁초점/NNG
미터/NNB
인물/NNG
작가/NNG
짓/VV-I
처/NNG
32/SN
▁문화방송/NNP
▁발족/NNG
▁살리/VV
▁서기/NNG
▁왕비/NNG
▁후속/NNG
우리/NP
▁03./SN
▁In/SL
▁맨체스터/NNP
▁업적/NNG
▁이행/NNG
▁존슨/NNP
▁즉시/NNG
▁진보/NNG
▁크리스마스/NNG
▁태도/NNG
▁풀/VV
앨범/NNG
▁광범위/NNG
▁밀라노/NNP
▁스콧/NNP
P/SL
▁1906/SN
▁문/NNP
▁본질/NNG
▁소비자/NNG
▁이온/NNG
▁지상역/NNP
박사/NNG
패/NNG
▁d/SL
▁구장/NNG
▁동작/NNG
▁메탈/NNG
▁이글스/NNP
▁자극/NNG
▁환승/NNG
▁민영/NNG
▁중계/NNG
▁진실/NNG
▁집계/NNG
▁캠페인/NNG
▁피해자/NNG
▁어항/NNG
▁합/NNG
부장/NNG
축구/NNG
▁가슴/NNG
▁간행/NNG
▁동방/NNG
▁동화/NNG
▁소행성/NNP
▁아랍/NNP
▁어려움/NNG
▁전형/NNG
재판소/NNG
전문/NNG
1984/SN
▁C./SL
▁개량/NNG
▁검색/NNG
▁글씨/NNG
▁동메달/NNG
▁바닥/NNG
▁복원/NNG
▁진단/NNG
▁총독/NNG
분/XSN
타/VV
▁공로/NNG
▁문명/NNG
▁원주민/NNG
기/NNB
▁감시/NNG
▁골드/NNG
▁근육/NNG
▁늦/VA
▁락/NNG
▁선물/NNG
▁스타리그/NNP
▁자치체/NNG
▁철거/NNG
▁풍부하/VA
▁픽처스/NNG
서비스/NNG
1983/SN
T/SL
▁고려대학교/NNP
▁공산주의/NNG
▁광/NNG
▁디비전/NNG
▁부탁/NNG
▁알/NNG
▁감각/NNG
▁법인/NNG
▁토론토/NNP
는다는/ETM
달러/NNB
28/SN
▁늘리/VV
▁별자리/NNG
▁상인/NNG
▁선조/NNP
▁수치/NNG
노/NNG
▁가설/NNG
▁국장/NNG
▁민법/NNG
▁암호/NNG
▁연/NNG
▁일기/NNG
는가/EF
려면/EC
▁그래픽/NNG
▁조선총독부/NNP
▁B./SL
▁공통/NNG
▁미키/NNP
▁삼각/NNG
▁언론인/NNG
▁질환/NNG
결과/NNG
또는/MAG
찬/NNG
춘/NNG
▁Q/SL
▁고기/NNG
▁기둥/NNG
▁다음날/NNG
▁물리학/NNG
▁벤/NNP
▁유전/NNG
▁자랑/NNG
▁주둔/NNG
▁포트/NNG
▁항목/NNG
고/NNG
나오/VV
▁로맨스/NNG
▁사정/NNG
▁스스로/NNG
▁아프가니스탄/NNP
▁전북/NNP
▁집필/NNG
▁창당/NNG
▁칭호/NNG
유치원/NNG
c/SL
▁x/SL
▁극단/NNG
▁브라더스/NNP
▁사무실/NNG
▁유/NNG
▁유고슬라비아/NNP
▁유통/NNG
▁입구/NNG
레/NNG
▁P/SL
▁농촌/NNG
▁대사관/NNG
▁선임/NNG
▁유행/NNG
▁파이널/NNP
▁갑/NNG
▁담기/VV
▁발간/NNG
▁올/MM
▁찬성/NNG
▁처벌/NNG
▁묘/NNG
▁미스/NNG
▁보이/NNG
▁스톤/NNP
月/SH
만큼/JKB
생산/NNG
업체/NNG
▁John/SL
▁la/SL
▁무겁/VA-I
▁스테이지/NNG
▁실존/NNG
▁에어/NNP
▁용도/NNG
▁음성/NNG
▁잡히/VV
▁해제/NNG
기사/NNG
▁가볍/VA-I
▁버지니아/NNP
▁비평가/NNG
▁인종/NNG
▁채/NNB
▁회원국/NNG
망/NNG
ab/SL
▁1908/SN
▁대개/MAG
▁리드/NNP
▁바르셀로나/NNP
▁훈/NNP
°/SL
▁동상/NNG
▁래퍼/NNP
▁모리/NNG
▁아빠/NNG
▁유산/NNG
▁인스타그램/NNP
▁자회사/NNG
▁주재/NNG
▁통화/NNG
▁품/VV
나/NNG
마리/NNB
시민/NNG
*/SW
▁드래프트/NNG
▁상실/NNG
▁석유/NNG
▁인쇄/NNG
연맹/NNG
장치/NNG
▁120/SN
▁기온/NNG
▁농민/NNG
▁맛/NNG
▁미만/NNG
▁사무/NNG
▁제약/NNG
▁주석/NNG
▁집회/NNG
▁체육/NNG
▁프로그래밍/NNG
세/NNG
90/SN
▁43/SN
▁THE/SL
▁고객/NNG
▁기종/NNG
▁라인/NNG
▁마케팅/NNG
▁백성/NNG
▁벡터/NNG
▁생물학/NNG
▁수업/NNG
▁쏘/VV
▁영감/NNG
▁이른바/MAG
▁지휘자/NNG
▁탈퇴/NNG
▁구매/NNG
▁규슈/NNP
▁만주/NNP
▁민주/NNP
▁사자/NNG
▁선로/NNG
▁소말리아/NNP
▁어깨/NNG
▁이조/NNP
▁착공/NNG
▁초청/NNG
기압/NNG
야/JX
인구/NNG
제국/NNG
회장/NNG
g/SL
▁L./SL
▁nt/SL
▁가게/NNG
▁각지/NNG
▁공중/NNG
▁뜨/VV
▁소관/NNG
▁업데이트/NNG
▁의혹/NNG
▁침략/NNG
▁푸르/VA-I
조건/NNG
▁강도/NNG
▁게다가/MAG
▁궁전/NNG
▁단순히/MAG
▁샌프란시스코/NNP
▁쌍/NNG
▁아니/IC
▁오토/NNP
▁적도/NNG
▁합동/NNG
민주/NNG
▁1889/SN
▁개방/NNG
▁기리/VV
▁불만/NNG
▁실천/NNG
▁어둡/VA-I
▁예비/NNG
▁지/VV
▁하/IC
▁History/SL
▁기소/NNG
▁오디션/NNG
▁촉진/NNG
▁콜롬비아/NNP
▁토마스/NNP
▁함락/NNG
없/VA
조차/JX
▁CF/SL
▁경고/NNG
▁무상/NNG
▁부통령/NNG
▁왕실/NNG
▁일본국유철도의/NNG
건/NNG
▁KT/SL
▁mm/SL
▁개미/NNG
▁공화당/NNP
▁배급/NNG
▁복합/NNG
▁연고/NNG
▁일요일/NNG
▁튀르키예/NNG
▁파티/NNG
당시/NNG
도서관/NNG
장군/NNG
▁명시/NNG
▁빌보드/NNP
▁유치원/NNG
▁이관/NNG
▁전부/MAG
▁편찬/NNG
▁프리드리히/NNP
발전/NNG
≫/SSC
▁Music/SL
▁그대/NP
▁매각/NNG
▁세부/NNG
▁저지/NNG
순위/NNG
촌/NNB
통합/NNG
▁개체/NNG
▁바라/VV
▁비트/NNG
▁빌리/NNP
▁세대/NNG
▁오빠/NNG
▁윌슨/NNP
▁장편/NNG
▁총재/NNG
▁코어/NNP
▁희/VA
사상/NNG
용/NNG
▁52/SN
▁≪/SSO
▁도망치/VV
▁도카이/NNP
▁멈추/VV
▁부담/NNG
▁소니/NNP
▁수리/NNG
▁암/NNG
▁유발/NNG
▁창작/NNG
▁탓/NNG
▁항의/NNG
▁향토/NNG
대신/NNG
사/NR
▁International/SL
▁골키퍼/NNG
▁끝내/VV
▁독/NNG
▁운명/NNG
▁후계자/NNG
통계/NNG
▁1913/SN
▁동굴/NNG
▁부속/NNG
▁사제/NNG
▁제일/MAG
▁평생/NNG
랑/JC
오/EF
전사/NNG
책/NNG
1979/SN
1981/SN
O/SL
▁WWE/SL
▁남녀/NNG
▁당국/NNG
▁마리오/NNP
▁마천루/NNG
▁승점/NNG
▁아테네/NNP
▁안타/NNG
▁연습/NNG
▁이승만/NNP
▁중력/NNG
듯이/EC
학부/NNG
E/SL
▁노인/NNG
▁모형/NNG
▁부호/NNG
▁새벽/NNG
▁생몰/NNG
▁유기/NNG
▁재배/NNG
▁총장/NNG
실점/NNG
▁리투아니아/NNP
▁발굴/NNG
▁발발/NNG
▁발탁/NNG
▁백인/NNG
▁시내버스/NNG
▁애/NNG
▁연애/NNG
▁오케스트라/NNG
▁윌리엄스/NNP
▁제주특별자치도/NNP
▁타이/NNP
▁W./SL
▁닛폰/NNP
▁대가/NNG
경영/NNG
통일/NNG
▁1895/SN
▁억제/NNG
▁포스트/NNP
군수/NNG
연구원/NNG
▁검토/NNG
▁공학/NNG
▁민주주의/NNG
▁오직/MAG
▁원수/NNG
▁인터페이스/NNG
▁일환/NNG
말/VX
역사/NNG
체계/NNG
right/SL
▁R./SL
▁구입/NNG
▁만/NNP
▁새/MM
▁신사/NNG
▁여섯/NR
▁영혼/NNG
▁요미우리/NNP
▁이제동/NNP
▁좌우/NNG
궁/NNG
style/SL
▁EBS/SL
▁가끔/MAG
▁거칠/VA
▁고베/NNP
▁답/NNG
▁대전광역시/NNP
▁등지/NNB
▁멀리/MAG
▁원장/NNG
▁허/NNP
달/VX
1982/SN
▁Of/SL
▁Vol./SL
▁기점/NNG
▁넓이/NNG
▁삭제/NNG
▁월화드라마/NNP
▁저/IC
▁점이/NNG
▁파트너/NNG
필/NNG
▁개장/NNG
▁알제리/NNP
▁오류/NNG
▁추방/NNG
▁타입/NNG
▁태종/NNP
▁프로세서/NNG
▁혜성/NNG
검사/NNG
공간/NNG
선생/NNG
처리/NNG
▁석방/NNG
▁우/NNP
▁인조/NNP
▁천사/NNG
국민학교/NNG
심/NNG
원/NR
▁동아시아/NNP
▁모임/NNG
▁보잉/NNP
▁분열/NNG
▁왕족/NNG
▁이내/NNG
▁인원/NNG
▁팔리/VV
안/MAG
▁BBC/SL
▁적색/NNG
▁적합/NNG
▁지불/NNG
작사/NNG
▁W/SL
▁데리/VV
▁레벨/NNG
▁매/NNG
▁손실/NNG
▁애플리케이션/NNG
▁축소/NNG
터미널/NNG
▁보통/NNG
▁뽑/VV-R
▁예방/NNG
▁주력/NNG
▁추적/NNG
▁축구부/NNG
스케이팅/NNG
1980/SN
ᆯ수록/EC
▁맥/NNG
▁목숨/NNG
▁부지/NNG
▁브라이언/NNP
▁사이드/NNP
▁전제/NNG
▁타임/NNG
▁팔/VV
지정/NNG
천만/NR
▁느리/VA
▁마이크/NNP
▁미리/MAG
▁사과/NNG
▁소득/NNG
▁스키/NNG
▁월요일/NNG
백과/NNG
F/SL
▁복지/NNG
▁사무소/NNG
▁샘/NNG
▁옥/NNG
▁재생/NNG
▁전적/NNG
▁프로이센/NNP
배/NNB
보호/NNG
▁46/SN
▁F./SL
▁갈색/NNG
▁고급/NNG
▁다소/MAG
▁맡기/VV
▁명확/XR
▁방송인/NNG
▁선호/NNG
▁속성/NNG
▁신학자/NNG
▁적절/XR
▁총괄/NNG
▁카타르/NNP
▁타율/NNG
▁페스티벌/NNG
▁흰색/NNG
게이머/NNG
협의회/NNG
64/SN
▁It/SL
▁법학/NNG
▁서적/NNG
▁아르메니아/NNP
▁영지/NNP
▁응/IC
▁제작자/NNG
▁조선시대/NNG
▁주파수/NNG
▁중대/NNG
▁토대/NNG
발/NNB
죠/EF
d/SL
▁리듬/NNG
▁브라우저/NNG
▁유닛/NNG
▁유배/NNG
▁유키/NNP
▁재능/NNG
▁충분히/MAG
▁화제/NNG
아파트/NNG
▁1500/SN
▁Life/SL
▁디즈니/NNP
▁묻히/VV
▁베타/NNG
▁수요/NNG
▁시간대/NNG
▁아마추어/NNG
▁착용/NNG
▁춤/NNG
▁페르시아/NNP
사항/NNG
중앙/NNG
▁리스트/NNG
▁설득/NNG
▁스카이/NNP
▁안쪽/NNG
▁전동차/NNG
▁차남/NNG
▁폭스/NNP
▁히로시/NNP
공무원/NNG
▁JR/SL
▁상무/NNG
▁자문/NNG
▁제사/NNG
▁필름/NNG
▁필립/NNP
다른/MM
자/NNB
▁동명/NNG
▁드럼/NNG
▁비상/NNG
▁상주/NNP
e/SL
▁1909/SN
▁1911/SN
▁47/SN
▁곤충/NNG
▁라이온즈/NNP
▁모음/NNG
▁보상/NNG
▁서방/NNG
▁쇼펜하우어/NNP
▁첫째/NR
▁칩/NNG
▁해발/NNG
군단/NNG
범/NNG
▁도쿠가와/NNP
▁샤/NNG
▁잔/NNG
▁프랭크/NNP
▁대조/NNG
▁생년/NNG
▁취리히/NNP
▁클래스/NNP
거리/NNG
국민/NNG
방식/NNG
약/NNG
종합/NNG
V/SL
▁SS/SL
▁가구/NNG
▁그리스어/NNP
▁기호/NNP
▁내지/MAG
▁미션/NNG
▁에릭/NNP
▁엘리자베스/NNP
▁자본주의/NNG
▁절대/MAG
▁프레임/NNG
공업/NNG
물질/NNG
발/NNG
으니/EC
풍/XSN
▁1,000/SN
▁75/SN
▁건너/VV
▁덧붙이/VV
▁밀리/VV
▁사우디아라비아/NNP
▁쇼트트랙/NNG
▁숙종/NNP
▁차단/NNG
▁판례/NNG
강전/NNB
길이/NNG
다시/MAG
분야/NNG
▁도덕/NNG
▁세인트/NNP
▁지중해/NNP
▁징역/NNG
▁항/NNG
H/SL
▁SC/SL
▁내놓/VV
▁동영상/NNG
▁사망자/NNG
▁사퇴/NNG
▁야/IC
▁화려/XR
균/NNG
▁계층/NNG
▁병설/NNG
▁운송/NNG
▁융합/NNG
▁케이블/NNG
▁하드웨어/NNG
▁할머니/NNG
▁해협/NNG
▁is/SL
▁디젤/NNP
▁박정희/NNP
▁부회장/NNG
▁알려지/VV
▁운전/NNG
▁절/NNG
▁정확히/MAG
▁진학/NNG
▁하천/NNG
年/SH
례/NNG
▁44/SN
▁65/SN
▁HD/SL
▁광역/NNG
▁내려오/VV
▁번주/NNG
▁외계/NNG
▁이민/NNG
▁청/NNP
▁카자흐스탄/NNP
▁흔하/VA
방향/NNG
채널/NNG
▁경남/NNP
▁달라지/VV
▁레이블/NNG
▁리치/NNP
▁변동/NNG
▁사원/NNG
▁사촌/NNG
▁선포/NNG
▁유니폼/NNG
▁주되/VV
▁증언/NNG
▁하여금/MAG
▁헌/MM
학위/NNG
▁당대/NNG
▁미/NNG
▁소방/NNG
▁십/NR
▁워너/NNP
▁출현/NNG
▁트위터/NNP
▁포드/NNP
부작/NNB
쓰/VV
재위/NNG
탄/NNG
품/NNB
▁납치/NNG
▁베네치아/NNP
▁업/NNG
▁의문/NNG
▁정무/NNG
▁특별히/MAG
▁폐/NNG
▁하버드/NNP
60/SN
▁개발자/NNG
▁건축가/NNG
▁동남아시아/NNP
▁마/NNG
▁상처/NNG
▁신칸센/NNP
▁연설/NNG
▁저/MM
▁처분/NNG
▁키스/NNG
▁타원/NNG
▁허락/NNG
소송법/NNG
▁$/SW
▁검/NNG
▁다스리/VV
▁라이프/NNG
▁보편/NNG
▁북미/NNP
▁소화/NNG
▁시신/NNG
▁원시/NNG
▁제주도/NNP
▁준/NNP
▁혈액/NNG
값/NNG
정도/NNG
35/SN
▁600/SN
▁아이템/NNG
▁음향/NNG
▁이씨/IC
▁주립/NNG
▁중동/NNP
▁진주/NNP
▁흔적/NNG
▁SM/SL
▁York/SL
▁교리/NNG
▁구/XPN
▁베어스/NNP
▁언덕/NNG
▁엄격/XR
▁오늘/NNG
▁장점/NNG
▁프로토콜/NNG
▁프로필/NNG
▁피에르/NNP
믹스/NNG
트랙/NNG
1978/SN
▁51/SN
▁800/SN
▁구원/NNG
▁남구/NNP
▁데이/NNG
▁부위/NNG
▁분산/NNG
▁오프닝/NNG
▁조상/NNG
▁중앙대학교/NNP
▁초래/NNG
▁타인/NNG
▁피겨/NNG
▁회/NNG
▁회로/NNG
2023/SN
▁균형/NNG
▁덜/MAG
▁독점/NNG
▁수료/NNG
▁튀르키예의/NNG
▁트레이드/NNG
▁페이스북/NNP
대장/NNG
륜/NNG
박물관/NNG
사거리/NNG
소속/NNG
여단/NNG
1973/SN
▁1915/SN
▁가담/NNG
▁거점/NNG
▁나고야/NNP
▁문과/NNG
▁분기점/NNG
▁빵/NNG
▁악/NNG
▁앉/VV
▁예술가/NNG
▁완벽/NNG
▁이탈/NNG
▁장수/NNG
▁테일러/NNP
였/EP
▁거행/NNG
▁기부/NNG
▁나폴리/NNP
▁뉴욕주/NNP
▁리눅스/NNG
▁리틀/NNG
▁암컷/NNG
▁일행/NNG
▁재무/NNG
▁교전/NNG
▁난/NNG
▁무한/NNG
▁비행기/NNG
▁상대방/NNG
▁서술/NNG
▁임상/NNG
▁파생/NNG
▁편의/NNG
▁필드/NNG
성우/NNP
인치/NNB
▁대체로/MAG
▁보스/NNP
▁살아남/VV
▁스페인어/NNP
▁시범/NNG
▁양도/NNG
▁위키/NNP
▁커뮤니티/NNG
▁패밀리/NNG
프로듀서/NNG
▁만드/VV
▁무너지/VV
▁시계/NNG
▁요원/NNG
통/NNG
▁•/SW
▁가난/NNG
▁더블/NNG
▁무선/NNG
▁부동산/NNG
▁선교/NNG
▁야생/NNG
▁유용/NNG
▁중국어/NNP
동맹/NNG
비트/NNB
술/NNG
1968/SN
▁개수/NNG
▁기타리스트/NNG
▁덕분/NNG
▁변신/NNG
▁사위/NNG
▁생일/NNG
▁서로/NNG
▁식물상/NNG
▁실내/NNG
▁씨/NNB
▁알고리즘/NNG
▁오사카부/NNP
▁지질/NNG
▁지향/NNG
▁체/NNG
안정/NNG
▁관계자/NNG
▁교실/NNG
▁구멍/NNG
▁다양체/NNP
▁막/NNG
▁섬유/NNG
▁입사/NNG
▁전남/NNP
▁프랑스군/NNG
▁단/MM
▁믿음/NNG
▁아랍어/NNP
▁오디오/NNG
▁입대/NNG
▁합리/NNG
남자/NNG
속도/NNG
▁E./SL
▁산화/NNG
▁타이거즈/NNP
▁하워드/NNP
치/VV
N/SL
▁Z/SL
▁강릉/NNP
▁독일인/NNG
▁복구/NNG
▁불구/XR
▁빌딩/NNG
▁우승자/NNG
▁지자체/NNG
▁히트/NNG
견/NNG
부산/NNP
조정/NNG
▁간/NNB
▁과장/NNG
▁삼국/NNG
▁알렉산더/NNP
▁우/NNG
▁은하/NNG
▁창원/NNP
▁추락/NNG
국장/NNG
협력/NNG
효/NNG
U/SL
▁Sports/SL
▁나가노/NNP
▁대령/NNG
▁매니저/NNG
▁새끼/NNG
▁서/NNG
▁세션/NNG
▁유한/NNG
▁주문/NNG
▁카페/NNG
▁케빈/NNP
▁페루/NNP
▁호흡/NNG
곤/EC
백만/NR
31/SN
▁매력/NNG
▁북서쪽/NNG
▁전작/NNG
▁지지자/NNG
▁카이사르/NNP
▁케이/NNG
▁한신/NNP
▁호환/NNG
스키/NNG
십/NR
▁49/SN
▁간부/NNG
▁담배/NNG
▁대서양/NNP
▁미사/NNG
▁성남/NNP
▁순환/NNG
▁외교관/NNG
▁자국/NNG
▁족/NNG
▁초상화/NNG
▁출연진/NNG
▁태/NNG
랜드/NNG
핵/NNG
▁강사/NNG
▁남동쪽/NNG
▁랩/NNG
▁몇/MM
▁모/MM
▁법정동/NNP
▁사신/NNG
▁사찰/NNG
▁스승/NNG
▁아기/NNG
▁주/MM
▁지나치/VA
▁기상/NNG
▁내려가/VV
▁누나/NNG
▁대체/MAG
▁라이선스/NNG
▁반사/NNG
▁소요/NNG
▁시청자/NNG
▁예외/NNG
경찰/NNG
▁가계/NNG
▁가까이/MAG
▁남아메리카/NNP
▁수반/NNG
▁할당/NNG
냐/EF
다고/EF
신/XPN
▁구상/NNG
▁근본/NNG
▁대안/NNG
▁데이빗/NNP
▁동서/NNG
▁수직/NNG
▁수컷/NNG
▁압도/NNG
▁언니/NNG
▁에이스/NNG
▁연락/NNG
▁쿠바/NNP
교통/NNG
을/NNG
항공/NNG
▁Official/SL
▁주류/NNG
▁찾아오/VV
▁침해/NNG
별/NNG
채/NNB
▁54/SN
▁TBS/SL
▁website/SL
▁깨닫/VV-I
▁대공/NNG
▁대답/NNG
▁실업/NNG
▁아웃/NNG
▁악마/NNG
▁우즈베키스탄/NNP
▁조종/NNG
▁카/NNG
▁편/NNG
日/SH
가족/NNG
의식/NNG
1977/SN
▁가로/NNG
▁굵/VA
▁복사/NNG
▁승계/NNG
▁승차/NNG
▁전장/NNG
▁정류장/NNG
▁지금/MAG
▁하키/NNG
시/XSN
조/NR
▁게이트/NNG
▁고교/NNG
▁과도/NNG
▁동반/NNG
▁때때로/MAG
▁쌍둥이/NNG
▁운/NNG
▁종사/NNG
▁종족/NNG
▁청주시/NNP
▁출구/NNG
▁판정/NNG
▁희생/NNG
공장/NNG
이후/NNG
존/NNG
▁금상/NNG
▁닮/VV
▁라이벌/NNG
▁레/NNG
▁무사/NNG
▁변/NNG
▁분해/NNG
▁약자/NNG
▁참/MAG
▁총회/NNG
▁추기경/NNG
1969/SN
▁가득/MAG
▁갈라지/VV
▁경성/NNP
▁고양시/NNP
▁고지/NNG
▁곡선/NNG
▁국적/NNG
▁로고/NNG
▁무력/NNG
▁부드럽/VA-I
▁센트럴/NNP
걸/NNG
반도/NNG
아이/NNG
▁95/SN
▁b/SL
▁간단/XR
▁그리하여/MAJ
▁농장/NNG
▁둥글/VA
▁뜨겁/VA-I
▁미술관/NNG
▁반하/VV
▁법안/NNG
▁알파/NNG
▁없애/VV
▁운동가/NNG
▁최적/NNG
▁충분/XR
▁현존/NNG
결정/NNG
연기/NNG
평/NNG
▁되찾/VV
▁벌/NNG
▁별로/MAG
▁상수/NNG
▁약화/NNG
▁엔딩/NNG
▁원나라/NNP
▁탐사/NNG
▁토요일/NNG
▁하나님/NNG
▁하인리히/NNP
락/NNG
리/XSN
마저/JX
밖/NNG
효소/NNG
▁1898/SN
▁kg/SL
▁pp./SL
▁간격/NNG
▁군수/NNG
▁때로/MAG
▁아마/MAG
▁전류/NNG
▁최저/NNG
▁트리/NNG
▁핸드볼/NNG
▁행렬/NNG
▁협약/NNG
는다고/EC
▁as/SL
▁간접/NNG
▁건너가/VV
▁관장/NNG
▁나토/NNP
▁단점/NNG
▁따오/VV
▁명령어/NNG
▁밀러/NNP
▁일리노이/NNP
▁출판사/NNG
▁타워/NNP
▁황후/NNG
철학/NNG
▁격파/NNG
▁소위/MAG
▁소형/NNG
▁수상작/NNG
▁연계/NNG
▁음모/NNG
▁지름/NNG
▁찾아가/VV
▁행적/NNG
▁흑/NNG
홈런/NNG
▁One/SL
▁결의/NNG
▁귀환/NNG
▁돌파/NNG
▁분화/NNG
▁산지/NNG
▁스쿨/NNG
▁스프링/NNG
▁시애틀/NNP
▁엑스박스/NNP
▁우주선/NNG
▁재임/NNG
▁종로구/NNP
▁통로/NNG
전선/NNG
▁다니엘/NNP
▁멸종/NNG
▁무슬림/NNG
▁문재인/NNP
▁방위/NNG
▁상영/NNG
▁식량/NNG
▁역도/NNG
▁연산/NNG
▁예시/NNG
▁올라오/VV
▁좌/NNG
▁토니/NNP
場/SH
기원전/NNG
기지/NNG
영어/NNP
의학/NNG
1970/SN
▁BS/SL
▁겹치/VV
▁도서/NNG
▁수의/NNG
▁승부/NNG
▁일곱/NR
▁자산/NNG
▁저지르/VV
▁종전/NNG
사장/NNG
세력/NNG
시절/NNG
1976/SN
n/SL
▁3./SB
▁거스르/VV
▁물리치/VV
▁정교회/NNG
▁der/SL
▁개척/NNG
▁공과/NNG
▁교차/NNG
▁무어/NP
▁밀/NNG
▁벨라루스/NNP
▁사토/NNP
▁선교사/NNG
▁쇠퇴/NNG
▁수장/NNG
▁우정/NNG
▁은상/NNG
▁임신/NNG
▁패턴/NNG
방법/NNG
산/XSN
피/NNG
1972/SN
…/SE
▁겸하/VV
▁분지/NNG
▁불과/MAG
▁상속/NNG
▁소환/NNG
▁수십/NR
▁승무원/NNG
평화/NNG
▁OS/SL
▁P./SL
▁}/SSC
▁리메이크/NNG
▁미시간/NNP
▁북/NNG
▁사적/NNG
▁상세/XR
▁자세/NNG
▁적어도/MAG
▁진격/NNG
▁표창/NNG
성당/NNG
의사/NNG
▁권위/NNG
▁놀/VV
▁데뷔전/NNG
▁문법/NNG
▁미분/NNG
▁배정/NNG
▁불안/NNG
▁수용체/NNG
▁시드/NNP
▁집권/NNG
▁커지/VV
▁할리우드/NNP
▁고시/NNG
▁대위/NNG
▁매카트니/NNP
▁복/NNG
▁비틀즈/NNP
▁사인/NNG
▁약칭/NNG
▁절대/NNG
▁조화/NNG
▁천주교/NNG
▁품질/NNG
공연/NNG
°C/SL
▁구마모토/NNP
▁내세우/VV
▁놀이/NNG
▁대외/NNG
▁로맨틱/NNG
▁로스/NNP
▁산림/NNG
▁스위치/NNG
▁스페이스/NNG
▁싣/VV-I
▁알코올/NNG
▁열매/NNG
▁오노/NNP
▁육성/NNG
▁입증/NNG
▁짐/MAG
기능/NNG
자는/ETM
34/SN
▁County/SL
▁공/NR
▁레이저/NNG
▁물리학자/NNG
▁발휘/NNG
▁비즈니스/NNG
▁소집/NNG
▁시립/NNG
▁의정부/NNP
▁학명/NNG
삼거리/NNG
▁계절/NNG
▁구조물/NNG
▁도메인/NNG
▁바위/NNG
▁바이올린/NNG
▁선형/NNG
▁세금/NNG
▁시칠리아/NNP
▁아케이드/NNP
▁원/NR
▁지칭/NNG
▁차장/NNG
▁팔/NR
▁프랭클린/NNP
▁행정부/NNG
뉴스/NNG
지/NNB
집단/NNG
특수/NNG
평/NNB
1974/SN
▁분명/MAG
▁뼈/NNG
▁적응/NNG
▁포크/NNG
▁하사/NNG
보/NNB
신문/NNG
타/NNG
▁G./SL
▁그러므로/MAJ
▁바깥/NNG
▁방사/NNG
▁베토벤/NNP
▁북동쪽/NNG
▁수백/NR
▁자전거/NNG
▁차종/NNG
▁커피/NNG
▁크로스/NNG
▁트윈스/NNP
▁환원/NNG
▁히어로즈/NNP
인간/NNG
▁PD/SL
▁도호쿠/NNP
▁스마트/NNG
▁압축/NNG
▁연대/NNG
▁월간/NNG
▁장미/NNG
▁직장/NNG
▁트럭/NNG
▁티/NNG
▁프로듀싱/NNG
형태/NNG
▁감독상/NNG
▁감지/NNG
▁경제학자/NNG
▁국무/NNG
▁김구/NNP
▁마감/NNG
▁우편/NNG
▁이념/NNG
▁조부/NNG
▁지휘관/NNG
▁천안/NNP
▁태생/NNG
▁휘하/NNG
건설/NNG
톤/NNG
36/SN
▁1902/SN
▁감옥/NNG
▁검증/NNG
▁도야마/NNP
▁미스터/NNG
▁미스터리/NNG
▁비서/NNG
▁상부/NNG
▁성별/NNG
▁청구/NNG
▁친선/NNG
▁한양대학교/NNP
동/NNB
05/SN
▁53/SN
▁des/SL
▁강점기/NNG
▁결심/NNG
▁고위/NNG
▁과일/NNG
▁누적/NNG
▁눈물/NNG
▁디스플레이/NNG
▁라트비아/NNP
▁말/VX
▁멀티/NNG
▁봉/NNP
▁상관/NNG
▁약간/NNG
▁우루과이/NNP
▁출산/NNG
▁평소/NNG
▁호소/NNG
▁히틀러/NNP
전략/NNG
지능/NNG
ᆯ라/EC
▁1916/SN
▁Time/SL
▁강요/NNG
▁대/NNB
▁보스니아/NNP
▁세균/NNG
▁스튜어트/NNP
▁알바니아/NNP
▁이력/NNG
▁탄핵/NNG
▁펜/NNG
▁평일/NNG
▁하부/NNG
몬/MAG
▁가나가와현/NNP
▁교향곡/NNG
▁내장/NNG
▁머물/VV
▁묶/VV
▁베네수엘라/NNP
▁새누리당/NNP
▁자/NNG
▁키프로스/NNP
▁피/XPN
난/NNG
불/NNG
p/SL
▁1894/SN
▁3000/SN
▁가장자리/NNG
▁골프/NNG
▁방글라데시/NNP
▁부품/NNG
▁성공회/NNP
▁소문/NNG
▁싫/VA
▁오염/NNG
▁점성술/NNG
▁지연/NNG
▁탑승/NNG
▁별개/NNG
▁상의/NNG
▁스탈린/NNP
▁연고지/NNG
▁영국인/NNG
▁일단/MAG
▁주어/NNG
▁프랑크/NNP
갑/NNG
결승전/NNG
식물/NNG
▁1903/SN
▁NC/SL
▁colspan/SL
▁꼽히/VV
▁끊/VV
▁들/MAG
▁소유자/NNG
▁신고/NNG
▁일부로/MAG
▁작/NNG
▁전승/NNG
▁출가/NNG
▁탄압/NNG
▁트로트/NNG
산맥/NNG
▁72/SN
▁기르/VV
▁방송사/NNG
▁벨/NNP
▁사이버/NNG
▁신입/NNG
▁직위/NNG
▁하드/NNG
세트/NNG
중국/NNP
1965/SN
1967/SN
33/SN
▁가마쿠라/NNP
▁강원/NNP
▁국군/NNG
▁도심/NNG
▁색깔/NNG
▁성직자/NNG
▁스즈키/NNP
▁스트리트/NNP
▁쌀/NNG
▁와이번스/NNP
▁한일/NNP
에너지/NNG
엔/NNB
은행/NNG
혁/NNP
▁1899/SN
▁Live/SL
▁Man/SL
▁On/SL
▁고/IC
▁바르샤바/NNP
▁살아가/VV
▁아베/NNP
▁영원/NNG
▁요금/NNG
▁육/NR
▁입문/NNG
▁중국인/NNG
▁통폐합/NNG
▁풍/NNG
▁하와이/NNP
자면/EC
，/SP
▁교역/NNG
▁깨/VV
▁무릎/NNG
▁무인/NNG
▁발전소/NNG
▁비중/NNG
▁뻗/VV-R
▁영조/NNP
▁정통/NNG
▁조항/NNG
▁축/NNG
▁타운/NNG
〜/SO
나무/NNG
37/SN
C./SL
▁360/SN
▁88/SN
▁class/SL
▁목격/NNG
▁바라보/VV
▁아키타/NNP
▁착륙/NNG
▁컬러/NNG
▁팬아메리칸/NNP
▁프랑스인/NNG
▁후임/NNG
미디어/NNG
소리/NNG
여성/NNG
▁공국/NNP
▁금요일/NNG
▁기관차/NNG
▁기하/VV
▁당선자/NNG
▁선두/NNG
▁세조/NNP
▁아무런/MM
▁엘/NNG
▁유입/NNG
▁이규/NNP
▁조기/NNG
▁중장/NNG
▁투구/NNG
▁포수/NNG
▁호세/NNP
▁희생자/NNG
중심/NNG
▁2.0/SN
▁AKB/SL
▁Best/SL
▁TV조선/NNP
▁날리/VV
▁대리/NNG
▁라인/NNP
▁부유/NNG
▁스파르타/NNP
▁식당/NNG
▁심/NNP
▁착수/NNG
▁친왕/NNP
▁퇴임/NNG
▁흥미/NNG
끼리/XSN
도쿄/NNP
의장/NNG
지점/NNG
▁거듭/MAG
▁면역/NNG
▁발명/NNG
▁사거리/NNG
▁올스타/NNG
▁유출/NNG
▁저명/NNG
▁정면/NNG
▁조선인/NNG
▁증권/NNG
▁토론/NNG
▁하트/NNG
▁히데요시/NNP
종/NNB
▁마우스/NNG
▁모/IC
▁본토/NNG
▁열대/NNG
▁오리콘/NNP
▁주체/NNG
▁진정/XR
▁티베트/NNP
▁항해/NNG
▁홍수/NNG
男/SH
등록/NNG
우주/NNG
80/SN
▁Is/SL
▁가속/NNG
▁몬스터/NNP
▁완화/NNG
▁운반/NNG
▁최신/NNG
▁친하/VA
▁캠프/NNG
▁코난/NNP
▁핫/NNG
지도/NNG
후보/NNG
51/SN
▁°C/SL
▁간섭/NNG
▁거짓/NNG
▁날짜/NNG
▁민간인/NNG
▁보/NNG
▁센다이/NNP
▁앞서/VV
▁존경/NNG
▁체조/NNG
▁표지/NNG
▁후궁/NNG
노동/NNG
디자인/NNG
중/NNG
ᆫ지/EF
▁꾸준히/MAG
▁남서쪽/NNG
▁배열/NNG
▁사료/NNG
▁심/VV
▁줄기/NNG
▁천문학자/NNG
▁타이베이/NNP
▁팔/NNG
볼/NNG
일자/NNG
▁강수량/NNG
▁당주/NNG
▁들이/VV
▁로저/NNP
▁북동부/NNG
▁사쿠라/NNG
▁성종/NNP
▁왕가/NNG
▁외야수/NNG
고등/NNG
동물/NNG
축/NNG
탑/NNG
▁노리/VV
▁동위/NNG
▁떠오르/VV
▁북위/NNP
▁빌리/VV
▁안동/NNP
▁안철수/NNP
▁연령/NNG
▁울/VV
▁진술/NNG
▁창원시/NNP
▁택시/NNG
▁포도당/NNG
▁헤일/NNP
과장/NNG
우리/NNG
홀/NNG
“/SSO
▁700/SN
▁MSL/SL
▁거느리/VV
▁도와주/VV
▁등재/NNG
▁맥스/NNP
▁세기/NNG
▁스리랑카/NNP
▁실전/NNG
▁야당/NNG
▁연평균/NNG
▁용병/NNG
▁척/NNB
▁펼쳐지/VV
41/SN
b/SL
▁1897/SN
▁낮/NNG
▁다저스/NNP
▁동경/NNP
▁배제/NNG
▁삽입/NNG
▁숨/NNG
▁케임브리지/NNP
▁콜/NNG
▁탈/XPN
▁페리/NNP
▁행/NNG
규칙/NNG
열/NNG
지부/NNG
▁HIV/SL
▁J1리그/NNP
▁경찰서/NNG
▁링/NNG
▁바람/NNB
▁수원시/NNP
▁스티브/NNP
▁잃어버리/VV
▁자유한국당/NNP
▁자율/NNG
▁중종/NNP
▁통치자/NNG
▁풍경/NNG
▁화장실/NNG
반/XPN
악/NNG
형제/NNG
39/SN
▁CBS/SL
▁J2리그/NNP
▁La/SL
▁NBA/SL
▁깊이/MAG
▁대칭/NNG
▁설치류/NNP
▁아이슬란드/NNP
▁엘리베이터/NNG
▁오언/NNP
▁의거/NNG
▁의상/NNG
▁주한/NNG
▁파이어/NNG
▁평범/XR
▁필립스/NNP
▁해적/NNG
▁호칭/NNG
▁흥행/NNG
사고/NNG
양/MM
정신/NNG
▁>/SSC
▁School/SL
▁경사/NNG
▁관광지/NNG
▁극복/NNG
▁독일군/NNG
▁망원경/NNG
▁멜로디/NNG
▁북서부/NNG
▁산성/NNG
▁설탕/NNG
▁어원/NNG
▁유인/NNG
▁음료/NNG
▁입법/NNG
▁초연/NNG
▁켈리/NNP
▁형상/NNG
▁환상/NNG
미래/NNG
정상/NNG
▁CJ/SL
▁前/SH
▁간호사/NNG
▁료/NNG
▁베/VV
▁빼/VV
▁수/MM
▁연구가/NNG
▁유신/NNG
▁좌석/NNG
▁포병/NNG
▁필라델피아/NNP
▁효고현/NNP
♬/SW
▁57/SN
▁American/SL
▁Part/SL
▁광물/NNG
▁낱말/NNG
▁노무현/NNP
▁문제점/NNG
▁신한은행/NNP
▁아무/NP
▁아키라/NNP
▁친척/NNG
▁커다랗/VA-I
▁피/VV
▁회색/NNG
▁휴스턴/NNP
건/EC
라인/NNG
만화/NNG
아/IC
장애/NNG
특집/NNG
1971/SN
▁론/NNP
▁선배/NNG
▁손/NNP
▁입지/NNG
▁지미/NNP
▁필/NNG
교실/NNG
군사/NNG
듯/EC
엽/NNG
음력/NNG
총장/NNG
▁KIA/SL
▁구름/NNG
▁기하학/NNG
▁나이지리아/NNP
▁닿/VV
▁랭킹/NNG
▁르네상스/NNG
▁봉사/NNG
▁삼성전자/NNP
▁수목/NNG
▁온천/NNG
▁용인시/NNP
▁원작자/NNG
▁원주/NNP
▁유니버설/NNP
▁유력/NNG
▁의석/NNG
▁전지/NNG
▁정서/NNG
▁한편/NNG
은하/NNG
자원/NNG
▁CPU/SL
▁Day/SL
▁광복/NNG
▁국민당/NNP
▁남동생/NNG
▁동해/NNP
▁라틴/NNP
▁몸무게/NNG
▁분데스리가/NNG
▁불화/NNG
▁세월/NNG
▁여파/NNG
▁원내/NNG
▁윤리/NNG
▁자유주의/NNG
▁해임/NNG
고서/EC
자동차/NNG
정당/NNG
정비/NNG
45/SN
▁가/XPN
▁뉴저지/NNP
▁레이스/NNG
▁마쓰다이라/NNG
▁마약/NNG
▁빌헬름/NNP
▁석/MM
▁수렴/NNG
▁스펙트럼/NNG
▁형법/NNG
사무소/NNG
ᆯ까/EF
▁게재/NNG
▁겨우/MAG
▁뚜렷/XR
▁루트비히/NNP
▁마케도니아/NNP
▁무산/NNG
▁무신/NNG
▁배우자/NNG
▁부자/NNG
▁스케이팅/NNG
▁씨/NNG
▁야기/NNG
▁웹툰/NNP
▁유역/NNG
▁자선/NNG
▁정/MAG
▁주기/NNG
▁터/NNB
▁텍스트/NNG
▁프로덕션/NNG
▁프리큐어/NNG
자책점/NNG
지금/NNG
지사/NNG
코치/NNG
{/SSO
▁62/SN
▁걸/VV
▁결선/NNG
▁단선/NNG
▁마리/NNP
▁머피/NNP
▁분/NNG
▁분배/NNG
▁야간/NNG
▁여/NNG
▁외모/NNG
▁용기/NNG
▁의과/NNG
▁추증/NNP
가치/NNG
들/VX
회원/NNG
▁꾸미/VV
▁네이션스/NNP
▁대하/NNG
▁드림/NNG
▁모로코/NNP
▁미얀마/NNP
▁복합체/NNG
▁세군다/NNG
▁소속사/NNG
▁연구자/NNG
▁직/NNG
경기장/NNG
연출/NNG
콘서트/NNG
▁110/SN
▁n/SL
▁고립/NNG
▁고안/NNG
▁광산/NNG
▁반환/NNG
▁법무부/NNG
▁베이/NNP
▁사막/NNG
▁실/NNG
▁알렉산드르/NNP
▁앱/NNG
▁약탈/NNG
▁얼음/NNG
▁연루/NNG
▁이시카와/NNP
▁자르/VV
▁장거리/NNG
▁주거/NNG
▁타/NNG
▁포맷/NNG
▁프랑크푸르트/NNP
▁화성시/NNP
▁후퇴/NNG
공동/NNG
꼴/NNG
1966/SN
1975/SN
‘/SSO
▁개국/NNG
▁그날/NNG
▁근로자/NNG
▁기용/NNG
▁대변인/NNG
▁러시아어/NNP
▁모친/NNG
▁빛나/VV
▁천문학/NNG
▁축적/NNG
▁파충류/NNG
▁후자/NNG
애/NNG
양/NNG
1964/SN
▁1890/SN
▁58/SN
▁City/SL
▁국정/NNG
▁권고/NNG
▁그랑프리/NNG
▁그레이/NNP
▁나카무라/NNP
▁냉전/NNG
▁놀라/VV
▁뉴턴/NNP
▁디비시온/NNG
▁메트로/NNP
▁빨간색/NNG
▁신비/NNG
▁영구/NNP
▁제수/NNG
▁제의/NNG
▁제이슨/NNP
▁천연/NNG
▁청춘/NNG
▁테이블/NNG
▁평면/NNG
독립/NNG
레이/NNG
염/NNG
할/NNB
▁×/SL
▁고백/NNG
▁동치/NNG
▁라이언/NNP
▁러시아인/NNG
▁링컨/NNP
▁메이/NNP
▁부과/NNG
▁앙리/NNP
▁입주/NNG
▁주/NNP
▁진/NNG
▁취항/NNG
▁표본/NNG
▁프리미엄/NNG
공개/NNG
김/NNP
자연/NNG
38/SN
i/SL
▁1901/SN
▁250/SN
▁rowspan/SL
▁경선/NNG
▁대책/NNG
▁부처/NNP
▁비롯/XR
▁서독/NNP
▁설비/NNG
▁센고쿠/NNP
▁소나타/NNP
▁언제나/MAG
▁외곽/NNG
▁일생/NNG
▁중점/NNG
▁청주/NNG
▁터지/VV
▁트럼프/NNP
▁합작/NNG
가구/NNG
액/NNG
▁85/SN
▁96/SN
▁98/SN
▁ISBN/SL
▁관광객/NNG
▁기적/NNG
▁마녀/NNG
▁묘지/NNG
▁뭐/NP
▁손해/NNG
▁스크린/NNG
▁앨리스/NNP
▁인종/NNP
▁정이/NNP
▁흙/NNG
증/NNG
참판/NNG
캠퍼스/NNG
▁56/SN
▁공룡/NNG
▁동메달리스트/NNG
▁마블/NNP
▁무효/NNG
▁백신/NNG
▁벼슬/NNG
▁부천/NNP
▁아제르바이잔/NNP
▁예루살렘/NNP
▁옹호/NNG
▁우연히/MAG
▁유치/NNG
▁재학/NNP
▁전당/NNG
▁제네바/NNP
▁찰리/NNP
▁크리스토퍼/NNP
▁페이스/NNG
화학/NNG
▁US/SL
▁개국/NNB
▁나비/NNG
▁노트/NNG
▁니/NP
▁리버풀/NNP
▁번식/NNG
▁얇/VA
▁정조/NNP
▁특허/NNG
▁핵무기/NNG
급식/NNG
기기/NNG
기준/NNG
함/NNG
1962/SN
▁내일/NNG
▁동양/NNG
▁둘러싸이/VV
▁딴/MM
▁비키니/NNG
▁셋째/NR
▁약력/NNG
▁연구원/NNG
▁일족/NNG
▁전향/NNG
▁진동/NNG
▁한/XPN
▁합계/NNG
▁화폐/NNG
글/NNG
니/NNG
야마/NNG
▁게이/NNG
▁굽/VV-I
▁꽤/MAG
▁대로/NNB
▁만남/NNG
▁몬트리올/NNP
▁박영효/NNP
▁버튼/NNG
▁베일리/NNP
▁생명체/NNG
▁암석/NNG
▁원조/NNG
▁위탁/NNG
▁중시/NNG
▁추/NNG
▁치즈/NNG
▁친일인명사전/NNP
▁평등/NNG
▁효/NNG
ᆫ/Z_CODA
▁가로지르/VV
▁드라마/NNP
▁먼지/NNG
▁부시/NNP
▁사이클/NNG
▁성명/NNG
▁세로/NNG
▁식별/NNG
▁완전/MAG
▁제프/NNP
▁준우승/NNP
▁지상파/NNG
구성/NNG
답/XSA-I
치료/NNG
타점/NNG
▁AC/SL
▁III/SL
▁교외/NNG
▁노드/NNP
▁들리/VV
▁레이싱/NNG
▁빅토리아/NNP
▁생/NNG
▁속도로/NNG
▁아미노산/NNG
▁양국/NNG
▁옛날/NNG
▁외/NNG
▁인질/NNG
▁제작사/NNG
▁최악/NNG
▁출입구/NNG
▁토크/NNG
다/JX
시기/NNG
차량/NNG
▁68/SN
▁War/SL
▁i/SL
▁걱정/NNG
▁곧바로/MAG
▁규격/NNG
▁농도/NNG
▁범/XPN
▁브루스/NNP
▁비극/NNG
▁수목드라마/NNP
▁압박/NNG
▁즐겁/VA-I
▁충족/NNG
▁캐시/NNP
▁탐지/NNG
▁핀/NNG
단위/NNG
비행/NNG
연방/NNG
전화/NNG
▁개막/NNG
▁곳/NNB
▁교구/NNG
▁노랗/VA-I
▁빨리/MAG
▁섭취/NNG
▁아/NNG
▁아무/MM
▁암시/NNG
▁애니/NNP
▁얀/NNP
▁인접역/NNG
▁차/VA
▁콘테스트/NNG
▁퀸/NNP
▁톱/NNG
▁플러스/NNG
▁협주곡/NNG
관광/NNG
꽃/NNG
런/NNG
해양/NNG
▁누리/VV
▁미쿠/NNG
▁사명/NNG
▁상장/NNG
▁순/MM
▁잠재/NNG
▁저택/NNG
▁적의/NNG
▁초과/NNG
▁패전/NNG
▁해리스/NNP
밤/NNG
전/NNB
▁or/SL
▁개별/XR
▁결정전/NNG
▁낮추/VV
▁라이브러리/NNG
▁루/NNP
▁모/NNG
▁모순/NNG
▁민중/NNG
▁부착/NNG
▁빼앗/VV-R
▁상상/NNG
▁식사/NNG
▁앤드/NNP
▁열정/NNG
▁옥스퍼드/NNP
▁유소년/NNG
▁케네디/NNP
▁트리플/NNG
▁협의/NNG
▁고래/NNG
▁공천/NNG
▁궁/NNG
▁긴급/NNG
▁나가사키/NNP
▁낫/VA-I
▁동년/NNG
▁메타/NNP
▁부흥/NNG
▁사무총장/NNG
▁우체국/NNG
▁작사가/NNG
▁중립/NNG
▁탐사선/NNG
▁통칭/NNG
▁펑크/NNG
마력/NNB
사관학교/NNG
심사/NNG
아들/NNG
으려고/EC
42/SN
▁Your/SL
▁구제/NNG
▁리뷰/NNG
▁머신/NNG
▁밀접/NNG
▁부서/NNG
▁야구단/NNG
▁우세/NNG
▁전하/NNG
▁증기/NNG
▁추격/NNG
▁토착/NNG
조선/NNP
차장/NNG
회담/NNG
"/SS
▁1884/SN
▁공인/NNG
▁김영/NNP
▁남극/NNP
▁늑대/NNG
▁다목적/NNG
▁따위/NNB
▁라스트/NNG
▁발현/NNG
▁부설/NNG
▁서울대/NNP
▁소닉/NNP
▁영/NNG
▁왕복/NNG
▁차기/NNG
▁통근/NNG
▁학파/NNG
▁회담/NNG
▁후보자/NNG
분석/NNG
▁130/SN
▁갓/MAG
▁검은색/NNG
▁경유지/NNG
▁곳곳/NNG
▁그림자/NNG
▁김해/NNP
▁닫/VV-R
▁라오스/NNP
▁마르/VV
▁반도체/NNG
▁선종/NNG
▁아날로그/NNG
▁연예인/NNG
▁이명박/NNP
▁입히/VV
▁전임/NNG
▁점유/NNG
▁제리/NNP
▁지표/NNG
▁직선/NNG
▁토리노/NNP
▁피렌체/NNP
▁훌륭/XR
아역/NNG
06/SN
▁All/SL
▁그리/MAG
▁다이아몬드/NNG
▁막대/XR
▁시달리/VV
▁시체/NNG
▁실용/NNG
▁야마토/NNP
▁인형/NNG
▁전망/NNG
▁지혜/NNG
▁처/NNG
▁출연자/NNG
▁편집자/NNG
▁포/NNP
다며/EF
▁1.5/SN
▁T./SL
▁VS/SL
▁끈/NNG
▁나선/NNP
▁맞이하/VV
▁보석/NNG
▁상소/NNG
▁쉬/VV
▁앤더슨/NNP
▁업그레이드/NNG
▁이날/NNG
▁일자리/NNG
▁중독/NNG
▁진영/NNG
▁탁구/NNG
▁흑백/NNG
구/NR
노선/NNG
매치/NNG
제한/NNG
폭/NNG
47/SN
▁IBM/SL
▁기병/NNG
▁다중/NNG
▁맞이/XR
▁버리/VX
▁올스타전/NNG
▁용량/NNG
▁인디/NNG
▁조류/NNG
▁조조/NNP
▁중의원/NNG
▁효력/NNG
돌/NNG
업무/NNG
오/NNG
70/SN
▁경전/NNG
▁경주시/NNP
▁고개/NNG
▁근/MM
▁노란색/NNG
▁마산/NNP
▁무술/NNG
▁발효/NNG
▁섞/VV
▁여/IC
▁옵션/NNG
▁제휴/NNG
▁조금/NNG
▁회수/NNG
악장/NNG
EBS/SL
▁CEO/SL
▁가이/NNP
▁결국/NNG
▁고고학/NNG
▁고체/NNG
▁극작가/NNG
▁단장/NNG
▁달아나/VV
▁동등/NNG
▁블랙홀/NNG
▁셋/NR
▁안보/NNG
▁어른/NNG
▁일찍/MAG
▁잉글랜드인/NNP
▁존중/NNG
▁지목/NNG
▁코디/NNG
▁포스/NNP
▁표명/NNG
요/MM
▁가동/NNG
▁개인전/NNG
▁경희대학교/NNP
▁구로/NNP
▁두께/NNG
▁실시간/NNG
▁에스토니아/NNP
▁오카야마/NNP
▁자손/NNG
▁적히/VV
▁제트/NNG
▁패하/VV
▁포항시/NNP
▁희곡/NNG
상위/NNG
여행/NNG
히/XSM
W/SL
▁101/SN
▁Night/SL
▁계단/NNG
▁관리자/NNG
▁권유/NNG
▁덮/VV
▁레이다/NNG
▁무려/MAG
▁민사/NNG
▁소피아/NNP
▁에콰도르/NNP
▁자세/XR
▁점프/NNG
▁진공/NNG
▁짙/VA
▁컬렉션/NNG
▁켄/NNP
▁탐험/NNG
▁파산/NNG
▁판매량/NNG
주교/NNG
짜리/XSN
▁An/SL
▁College/SL
▁Island/SL
▁you/SL
▁거짓말/NNG
▁공전/NNG
▁남서부/NNG
▁내내/MAG
▁대왕/NNG
▁동국대학교/NNP
▁딘/NNP
▁바그너/NNP
▁배터리/NNG
▁보이스/NNP
▁성의/NNG
▁얼마나/MAG
▁천재/NNG
▁청주/NNP
▁코뮌/NNP
▁항일/NNG
▁현종/NNP
구간/NNG
루수/NNG
정/NNB
좌/NNG
▁To/SL
▁기름/NNG
▁기울이/VV
▁당사자/NNG
▁도모/NNG
▁아울러/MAG
▁알리/NNP
▁이성/NNG
▁일관/NNG
▁재팬/NNP
▁전진/NNG
▁하/NNP
▁호조/NNG
교사/NNG
▁1880/SN
▁99/SN
▁Top/SL
▁건의/NNG
▁계수/NNG
▁공산주의자/NNG
▁나열/NNG
▁내역/NNG
▁대대/NNG
▁대역/NNG
▁등록금/NNG
▁모집/NNG
▁바르/VA
▁박탈/NNG
▁병역/NNG
▁비슷하/VA
▁상자/NNG
▁역학/NNG
▁와중/NNG
▁운하/NNG
▁인재/NNG
▁참모/NNG
▁촉구/NNG
▁컴퍼니/NNG
▁탐정/NNG
▁포괄/NNG
▁한스/NNP
▁해병대/NNG
▁향년/NNG
품/NNG
▁Show/SL
▁감자/NNG
▁공직/NNG
▁공휴일/NNG
▁교육부/NNG
▁남/NNP
▁늘/MAG
▁다크/NNP
▁동전/NNG
▁때리/VV
▁루나/NNP
▁맵/VA-I
▁발라드/NNG
▁사당/NNG
▁안내/NNG
▁키보드/NNG
▁학부/NNG
▁혼자/MAG
및/MAG
자유/NNG
출판사/NNG
John/SL
▁an/SL
▁und/SL
▁개별/NNG
▁곡물/NNG
▁김용/NNP
▁남동부/NNG
▁닉/NNP
▁다운로드/NNG
▁다카라즈카/NNG
▁레오/NNP
▁막내/NNG
▁며느리/NNG
▁범인/NNG
▁야마구치/NNP
▁우드/NNG
▁조언/NNG
▁중위/NNG
▁찾아보/VV
▁청와대/NNP
▁체험/NNG
▁컴필레이션/NNG
▁콜로라도/NNP
▁텔레/NNG
▁허브/NNG
▁확실하/VA
광/XSN
금융/NNG
때문/NNB
연승/NNG
행동/NNG
▁XP/SL
▁관중/NNG
▁관통/NNG
▁달/VA
▁따뜻하/VA
▁메릴랜드/NNP
▁보전/NNG
▁상류/NNG
▁섬기/VV
▁수천/NR
▁시공/NNG
▁아서/IC
▁양산/NNG
▁인력/NNG
▁하이/NNG
▁현대자동차/NNP
▁호평/NNG
공주/NNG
변경/NNG
부사/NNG
실험/NNG
저/MM
▁London/SL
▁・/SW
▁결혼식/NNG
▁급행/NNG
▁기념일/NNG
▁동로마/NNP
▁르/NNP
▁묘소/NNG
▁배틀/NNP
▁별칭/NNG
▁서브/NNG
▁성서/NNG
▁슬로베니아/NNP
▁아역/NNG
▁안산/NNP
▁와일드/NNP
▁음/NNG
▁장난감/NNG
▁제인/NNP
▁중복/NNG
▁질서/NNG
▁취미/NNG
▁향후/NNG
▁휴식/NNG
벽/NNG
비용/NNG
중대/NNG
타운/NNG
1955/SN
▁180/SN
▁al./SL
▁그래프/NNG
▁난징/NNP
▁드라이브/NNG
▁명사/NNG
▁사라/NNP
▁시외버스/NNG
▁유죄/NNG
▁장인/NNG
▁진리/NNG
▁피닉스/NNP
▁하이/IC
▁후쿠시마/NNP
불교/NNG
역대/NNG
조약/NNG
`/SW
▁l/SL
▁고원/NNG
▁기상청/NNG
▁단식/NNG
▁대지/NNG
▁더빙/NNG
▁도루/NNG
▁스핀/NNP
▁어드벤처/NNP
▁오렌지/NNG
▁외치/VV
▁자기장/NNG
▁정수/NNP
▁종말/NNG
▁창고/NNG
▁축하/NNG
▁학과/NNG
관광부/NNG
연속/NNG
영상/NNG
월/NNG
킹/NNG
1959/SN
▁66/SN
▁개성/NNG
▁갱신/NNG
▁넘버/NNG
▁돌보/VV
▁마카오/NNP
▁삼촌/NNG
▁수령/NNG
▁시트콤/NNG
▁오늘/MAG
▁제후/NNG
▁진나라/NNP
▁천국/NNG
▁추첨/NNG
女/SH
진흥/NNG
청년/NNG
1945/SN
1963/SN
▁Project/SL
▁가져가/VV
▁금/MAJ
▁다나카/NNP
▁민족주의/NNG
▁버라이어티/NNP
▁법령/NNG
▁보충/NNG
▁비전/NNG
▁빼앗기/VV
▁산악/NNG
▁설립자/NNG
▁성벽/NNG
▁신임/NNG
▁심리학/NNG
▁애틀랜타/NNP
▁야마/NNG
▁오해/NNG
▁이슈/NNG
▁전례/NNG
▁정계/NNG
▁정점/NNG
▁지분/NNG
▁직책/NNG
▁차이점/NNG
▁철회/NNG
▁친정/NNG
▁코스/NNG
▁탈당/NNG
▁패키지/NNG
▁플래시/NNG
▁한동안/NNG
▁호의/NNG
기계/NNG
기동/NNG
기원/NNG
레슬링/NNG
유럽/NNP
한테/JKB
43/SN
|||/SW
▁111/SN
▁Be/SL
▁내륙/NNG
▁동독/NNP
▁방안/NNG
▁북아일랜드/NNP
▁사령부/NNG
▁수감/NNG
▁시골/NNG
▁야구장/NNG
▁역전/NNG
▁유저/NNG
▁조종사/NNG
▁퀴즈/NNG
▁틀/NNG
▁후배/NNG
눈/NNG
자료실/NNG
처분/NNG
현상/NNG
회관/NNG
1960/SN
st/SL
▁OCN/SL
▁가르침/NNG
▁객관/NNG
▁기독교인/NNG
▁로렌스/NNP
▁박쥐/NNG
▁베른/NNP
▁부패/NNG
▁블라디미르/NNP
▁사범/NNG
▁슈퍼주니어/NNP
▁시집/NNG
▁실종/NNG
▁쓰러지/VV
▁와타나베/NNP
▁읍/NNG
▁전주시/NNP
▁중화/NNG
▁카터/NNP
▁하츠네/NNP
당신/NP
앞/NNG
으니/EF
▁1885/SN
▁2015./SN
▁공채/NNG
▁내주/VV
▁마주/MAG
▁봉/NNG
▁신지/NNP
▁아마존/NNP
▁엔/NNG
▁응답/NNG
▁특유/NNG
▁파란색/NNG
▁후일/NNG
▁훔치/VV
하위/NNG
▁2014./SN
▁가면라이더/NNP
▁기습/NNG
▁다이노스/NNP
▁도주/NNG
▁볼리비아/NNP
▁사우스/NNG
▁세가/NNP
▁엑스/NNG
▁엔지니어/NNG
▁우익/NNG
▁위주/NNG
▁이래/NNB
▁일찍이/MAG
▁제로/NNG
▁증축/NNG
▁파동/NNG
▁파업/NNG
구/NNB
탁/MAG
～/SO
▁거울/NNG
▁기단/NNG
▁듀오/NNP
▁명종/NNP
▁반박/NNG
▁분기/NNG
▁서서히/MAG
▁소통/NNG
▁숨/VV
▁승자/NNG
▁야마가타/NNP
▁인텔/NNP
▁정찰/NNG
▁한국예술종합학교/NNP
▁홀로/MAG
노래/NNG
승부/NNG
올리/VV
웅/NNP
출장소/NNG
프랑스/NNP
▁61/SN
▁듀얼/NNG
▁레이어/NNP
▁렌즈/NNG
▁룩셈부르크/NNP
▁모래/NNG
▁무비/NNG
▁문인/NNG
▁박스/NNG
▁방패/NNG
▁벌금/NNG
▁세븐/NNP
▁종속/NNG
▁지사/NNG
▁취지/NNG
▁터치/NNG
▁헤르체고비나/NNP
제품/NNG
타임/NNG
▁1871/SN
▁MS/SL
▁각성/NNG
▁경비/NNG
▁계정/NNG
▁귀화/NNG
▁내려지/VV
▁단축/NNG
▁백/NNG
▁부천시/NNP
▁브레이크/NNG
▁사나이/NNG
▁사카이/NNP
▁요시다/NNP
▁요약/NNG
▁이슬람교/NNG
▁책임자/NNG
▁탤런트/NNG
▁하느님/NNG
を/SW
느냐/EF
득점/NNG
설계/NNG
요소/NNG
위기/NNG
이승환/NNP
투자/NNG
46/SN
▁1888/SN
▁궁정/NNG
▁끝내/MAG
▁노동당/NNP
▁미루/VV
▁봉기/NNG
▁실제/NNG
▁얘기/NNG
▁의병/NNG
▁이중/NNG
▁자바/NNP
▁초창기/NNG
▁태우/VV
▁파트/NNG
학생/NNG
02/SN
▁63/SN
▁Y/SL
▁각색/NNG
▁강/XR
▁고양/NNP
▁구사/NNG
▁렌/NNP
▁법무/NNG
▁부위원장/NNG
▁석/NNG
▁원전/NNG
▁이탈리아어/NNP
▁익스프레스/NNP
▁잊/VV
▁주행/NNG
▁추대/NNG
▁출입/NNG
▁한강/NNP
▁협박/NNG
고시/NNG
무/XPN
암/MM
연패/NNG
정권/NNG
하나/NR
황제/NNG
•/SW
▁공습/NNG
▁공적/NNG
▁노조/NNG
▁레이더/NNG
▁매입/NNG
▁미야자키/NNP
▁석탄/NNG
▁소셜/NNG
▁손가락/NNG
▁실체/NNG
▁입당/NNG
▁장녀/NNG
▁지원/NNP
▁추론/NNG
▁칭찬/NNG
▁패트릭/NNP
▁팽창/NNG
▁하차/NNG
▁합법/NNG
▁후대/NNG
건축/NNG
되/EC
자마자/EC
최고/NNG
형사/NNG
1939/SN
1956/SN
▁Institute/SL
▁경북/NNP
▁곽/NNP
▁국립공원/NNG
▁근접/NNG
▁디비시온/NNP
▁메구미/NNP
▁모건/NNP
▁모리스/NNP
▁상금/NNG
▁세속/NNG
▁아이스/NNG
▁오/VX
▁윌/NNG
▁유교/NNG
▁유네스코/NNP
▁육체/NNG
▁제주시/NNP
▁중추원/NNP
▁중퇴/NNG
▁진짜/MAG
▁청사/NNG
▁캄보디아/NNP
▁크림/NNG
▁파주시/NNP
▁프란츠/NNP
▁피아니스트/NNG
▁흩어지/VV
변/NNG
축제/NNG
필드/NNG
▁Up/SL
▁구출/NNG
▁낙선/NNG
▁뽑히/VV
▁상당수/NNG
▁소프트/NNG
▁시선/NNG
▁유혹/NNG
▁의뢰/NNG
▁자발/NNG
▁피고인/NNG
▁힐/NNP
▁힘쓰/VV
に/SW
차별/NNG
헌법/NNG
▁1891/SN
▁게리/NNP
▁계열사/NNG
▁광복군/NNG
▁닐/NNP
▁독재/NNG
▁마르코/NNP
▁마법사/NNG
▁반격/NNG
▁범유행/NNP
▁사생활/NNG
▁소금/NNG
▁손녀/NNG
▁안/VV
▁오리온/NNP
▁원고/NNG
▁이어받/VV-R
▁이용자/NNG
▁조셉/NNP
▁치세/NNG
▁침몰/NNG
▁폐위/NNG
계열/NNG
대/EF
보장/NNG
왕후/NNG
전기/NNG
출판/NNG
플레이/NNG
1954/SN
▁LIVE/SL
▁금액/NNG
▁남작/NNG
▁노비/NNG
▁농림/NNG
▁명목/NNG
▁석회암/NNG
▁수명/NNG
▁시코쿠/NNP
▁아마도/MAG
▁앞면/NNG
▁유비/NNP
▁유타/NNP
▁일식/NNG
▁케냐/NNP
▁타점/NNG
▁파운드/NNB
▁포장/NNG
▁하루카/NNP
공신/NNG
모양/NNG
사용/NNG
좋/VA
▁2.5/SN
▁Collection/SL
▁DS/SL
▁Digital/SL
▁고민/NNG
▁김대중/NNP
▁도미니카/NNP
▁러셀/NNP
▁로빈/NNP
▁마르크스/NNP
▁성균관대학교/NNP
▁세계관/NNG
▁소련군/NNG
▁영주/NNG
▁오버/NNG
▁요정/NNG
▁중심부/NNG
▁콘크리트/NNG
▁탐구/NNG
▁포획/NNG
▁표적/NNG
▁회계/NNG
영국/NNP
인민/NNG
장애인/NNG
1952/SN
▁Season/SL
▁견디/VV
▁고/NNG
▁과제/NNG
▁국내외/NNG
▁그만두/VV
▁기호/NNG
▁내/VX
▁로우/NNP
▁모방/NNG
▁복제/NNG
▁숀/NNP
▁스파이/NNG
▁에디션/NNP
▁음원/NNG
▁잔류/NNG
▁지옥/NNG
▁지층/NNG
▁충남/NNP
▁토벌/NNG
▁통행/NNG
▁투명/NNG
▁헬로/NNG
는가/EC
착/NNG
1961/SN
▁59/SN
▁꼭/MAG
▁슬로바키아/NNP
▁인연/NNG
▁자메이카/NNP
▁적/VV
▁주지사/NNG
▁철저/NNG
▁포스터/NNG
메/VV
반응/NNG
빛/NNG
세상/NNG
지/VV
판사/NNG
1958/SN
55/SN
▁Type/SL
▁†/SW
▁군청/NNG
▁닫히/VV
▁불명/NNG
▁섞이/VV
▁성우진/NNP
▁송출/NNG
▁신하/NNG
▁연상/NNG
▁장갑/NNG
▁중순/NNG
▁추모/NNG
▁추억/NNG
▁프로세스/NNG
▁프톨레마이오스/NNP
▁학/NNG
검/NNG
경찰서/NNG
기자/NNG
비/XPN
살/VV
자고/EC
1957/SN
▁%/SW
▁1886/SN
▁78/SN
▁D.C./SL
▁Korea/SL
▁Society/SL
▁각기/MAG
▁고가/NNG
▁굉장히/MAG
▁레스토랑/NNG
▁무용/NNG
▁병행/NNG
▁살펴보/VV
▁상공/NNG
▁십자가/NNG
▁아예/MAG
▁인디애나/NNP
▁인산/NNG
▁특급/NNG
▁풍자/NNG
▁후속작/NNG
데이/NNG
목사/NNG
바람/NNG
밴드/NNG
즉/MAG
킬로미터/NNB
함수/NNG
▁Science/SL
▁von/SL
▁국무총리/NNG
▁다가오/VV
▁똑같/VA
▁몰래/MAG
▁발레/NNG
▁영장/NNG
▁이에야스/NNP
▁전속/NNG
▁정치가/NNG
▁책봉/NNG
▁해명/NNG
와/NNG
전자/NNG
집행/NNG
행사/NNG
▁견/NNG
▁공략/NNG
▁길드/NNG
▁능/NNG
▁당일/NNG
▁대승/NNG
▁더글러스/NNP
▁리비아/NNP
▁며칠/NNG
▁보완/NNG
▁부재/NNG
▁사직/NNG
▁심의/NNG
▁이화여자대학교/NNP
▁일본국유철도/NNP
▁조선일보/NNP
▁중앙아시아/NNP
▁찾아내/VV
▁킹스/NNP
▁타임스/NNP
▁통/NNG
▁패/NNB
▁해변/NNG
결승/NNG
배치/NNG
분자/NNG
전차/NNG
황후/NNG
▁it/SL
▁가요/NNG
▁과테말라/NNP
▁괴물/NNG
▁남원/NNP
▁넓히/VV
▁번영/NNG
▁부가/NNG
▁사커/NNG
▁알프스/NNP
▁암/IC
▁어둠/NNG
▁영양/NNG
▁인격/NNG
▁인민군/NNG
▁저주/NNG
▁칼뱅/NNP
▁퇴역/NNG
▁폭동/NNG
분교장/NNG
소녀/NNG
주식회사/NNG
특보/NNG
핀/NNG
합/NNG
확인/NNG
▁cm/SL
▁관습/NNG
▁긴장/NNG
▁누계/NNG
▁두껍/VA-I
▁드러머/NNP
▁루크/NNP
▁맥락/NNG
▁무슨/MM
▁밟/VV
▁브뤼셀/NNP
▁안양/NNP
▁엠/NNG
▁웨인/NNP
▁이영호/NNP
▁조국/NNP
▁조니/NNP
▁종결/NNG
▁카를로스/NNP
▁컴퓨팅/NNG
▁피트/NNB
▁해리슨/NNP
▁화해/NNG
시청/NNG
아버지/NNG
요원/NNG
1940/SN
▁10./SB
▁1892/SN
▁Group/SL
▁공익/NNG
▁그레이엄/NNP
▁다발/NNG
▁데드/NNG
▁몰/VV
▁미나미/NNP
▁민주노동당/NNP
▁서유럽/NNP
▁시상/NNG
▁아레나/NNP
▁예쁘/VA
▁와인/NNG
▁워/IC
▁유미/NNP
▁인터내셔널/NNP
▁전라도/NNP
▁족/XR
▁증후군/NNG
▁커널/NNP
▁코소보/NNP
▁태그/NNP
▁파벌/NNG
▁평행/NNG
▁포켓몬스터/NNP
▁해역/NNG
▁흘리/VV
▁흡연/NNG
고문/NNG
노벨라/NNP
돈/NNG
발매/NNG
생물/NNG
연구회/NNG
청소년/NNG
혁신/NNG
▁CONCACAF/SL
▁du/SL
▁개찰구/NNG
▁결코/MAG
▁넥센/NNP
▁노동조합/NNG
▁뒷면/NNG
▁뚫/VV
▁발렌시아/NNP
▁앓/VV
▁여덟/NR
▁입체/NNG
▁지능/NNG
▁칠/NR
▁통증/NNG
▁패널/NNG
▁품종/NNG
▁환영/NNG
▁힘입/VV-R
교통부/NNG
베이스/NNG
왕복선/NNG
원수/NNG
조치/NNG
지진/NNG
75/SN
CD/SL
▁대합실/NNG
▁무죄/NNG
▁센서/NNG
▁솔루션/NNG
▁슈트/NNG
▁시위대/NNG
▁양/NNP
▁장려/NNG
▁전념/NNG
▁전압/NNG
▁종점/NNG
▁중성자/NNG
▁측근/NNG
▁친일파/NNG
▁콘솔/NNG
▁특기/NNG
▁확실/XR
교양/NNG
어다/EC
참모/NNG
클럽/NNG
프로/NNG
학년도/NNG
협정/NNG
환/NNG
▁1893/SN
▁IT/SL
▁System/SL
▁감/NNG
▁귀신/NNG
▁넘어서/VV
▁대행/NNG
▁동유럽/NNP
▁디트로이트/NNP
▁몰리/VV
▁분장/NNG
▁설교/NNG
▁에디/NNP
▁이노우에/NNP
▁익산시/NNP
▁입원/NNG
▁자유당/NNP
▁치안/NNG
▁침/NNG
▁케이트/NNP
▁틈/NNG
▁학회/NNG
▁횟수/NNG
감/NNG
1949/SN
44/SN
▁1883/SN
▁5000/SN
▁DB/SL
▁Lee/SL
▁No./SL
▁UN/SL
▁김민/NNP
▁노스/NNP
▁데카르트/NNP
▁마이너/NNP
▁본문/NNG
▁산요/NNP
▁상트페테르부르크/NNP
▁소실/NNG
▁수동/NNG
▁수면/NNG
▁수축/NNG
▁영구/NNG
▁재난/NNG
관련/NNG
달/NNB
무기/NNG
소년/NNG
인산/NNG
전투/NNG
황/NNG
nd/SL
▁1876/SN
▁EU/SL
▁강남/NNP
▁굿/NNG
▁기분/NNG
▁기차/NNG
▁다운/NNG
▁동사/NNG
▁띠/NNG
▁백/NNP
▁송나라/NNP
▁오가/VV
▁우라늄/NNG
▁유권자/NNG
▁이틀/NNG
▁자크/NNP
▁잠/NNG
▁전성기/NNG
▁주축/NNG
▁직경/NNG
▁충성/NNG
▁퍼즐/NNG
▁평야/NNG
▁포켓몬/NNP
▁하얗/VA-I
▁황해도/NNP
그/NP
아웃/NNG
애니메이션/NNG
원소/NNG
유적/NNG
▁09:00/W_SERIAL
▁Center/SL
▁강남구/NNP
▁교/NNG
▁궁극/NNG
▁그냥/MAG
▁그동안/NNG
▁김성/NNP
▁꿈꾸/VV
▁대처/NNG
▁델타/NNG
▁로스트/NNG
▁리사/NNP
▁민속/NNG
▁사기/NNG
▁안토니오/NNP
▁역설/NNG
▁지주/NNG
▁체코슬로바키아/NNP
▁캐나다인/NNG
▁코스타리카/NNP
▁클레어/NNP
▁화족/NNP
▁후방/NNG
광고/NNG
대왕/NNG
무역/NNG
법률/NNG
변화/NNG
엔터테인먼트/NNG
줄/NNG
하늘/NNG
▁73/SN
▁AI/SL
▁고든/NNP
▁김경/NNP
▁놀랍/VA-I
▁대다수/NNG
▁데이트/NNG
▁루프/NNP
▁마이애미/NNP
▁명탐정/NNG
▁뱀/NNG
▁벤피카/NNG
▁불편/NNG
▁아랍에미리트/NNP
▁어도비/NNP
▁어울리/VV
▁재현/NNG
▁저술가/NNG
▁제이/NNP
▁좌파/NNG
▁해소/NNG
▁혼다/NNP
다며/EC
문학상/NNG
쌍/NNG
유산/NNG
포럼/NNG
프로그램/NNG
49/SN
▁K3리그/NNP
▁고분/NNG
▁기질/NNG
▁대출/NNG
▁동아일보/NNP
▁리만/NNP
▁맞붙/VV
▁매치/NNG
▁면허/NNG
▁바이킹/NNP
▁배신/NNG
▁버클리/NNP
▁분비/NNG
▁사이토/NNP
▁섭정/NNP
▁신용/NNG
▁아프/VA
▁연쇄/NNG
▁유닉스/NNP
▁유령/NNG
▁조별/NNG
▁지수/NNG
▁프라하/NNP
▁프린스턴/NNP
▁플라스틱/NNG
▁한/NNP
▁황실/NNG
께서/JKS
묘/NNG
석기/NNG
이/JKC
자본/NNG
하우스/NNG
CBS/SL
▁1882/SN
▁DC/SL
▁거론/NNG
▁교양/NNG
▁마코토/NNP
▁백색/NNG
▁비추/VV
▁서열/NNG
▁세라/NNP
▁양상/NNG
▁유영/NNG
▁저하/NNG
▁정자/NNG
▁주사/NNG
▁주주/NNG
▁직면/NNG
▁철로/NNG
▁태자/NNG
▁피우/VV
▁홍성/NNP
▁후안/NNP
교육청/NNG
귀/NNG
이름/NNG
틴/NNG
파일/NNG
size/SL
▁160/SN
▁검열/NNG
▁광자/NNG
▁광학/NNG
▁마르세유/NNP
▁사상자/NNG
▁슈퍼컵/NNP
▁알파인/NNG
▁예언/NNG
▁올바르/VA
▁웃/VV-R
▁이민자/NNG
▁이순신/NNP
▁이스탄불/NNP
▁총선거/NNG
▁추상/NNG
▁캡/NNG
▁프랑수아/NNP
▁현금/NNG
▁협조/NNG
▁홀리/NNP
선조/NNP
의료/NNG
인사/NNG
재산/NNG
▁1800/SN
▁2,000/SN
▁77/SN
▁Mnet/SL
▁노부나가/NNP
▁닌자/NNP
▁댈러스/NNP
▁도박/NNG
▁맹/NNP
▁빚/VV
▁사이타마/NNP
▁성남시/NNP
▁수상하/VA
▁양준혁/NNP
▁억압/NNG
▁영광/NNG
▁재혼/NNG
▁존속/NNG
▁주부/NNG
▁줄/VV
▁진주시/NNP
▁클라우드/NNP
▁클라크/NNP
▁파이터/NNP
▁폭격/NNG
▁폭풍/NNG
▁플라이/NNG
▁헌정/NNG
▁회화/NNG
계급/NNG
200/SN
wikitable/SL
▁02./SN
▁140/SN
▁1860/SN
▁76/SN
▁Wii/SL
▁p./SL
▁가짜/NNG
▁갑작스럽/VA-I
▁강연/NNG
▁관공서/NNG
▁남한/NNP
▁단역/NNG
▁동아/NNP
▁뒤쪽/NNG
▁루터/NNP
▁루트/NNG
▁마찰/NNG
▁물자/NNG
▁보좌/NNG
▁상사/NNG
▁소령/NNG
▁순회/NNG
▁승부차기/NNG
▁시뮬레이션/NNG
▁양반/NNG
▁여수/NNP
▁용서/NNG
▁우선/NNG
▁일체/NNG
▁취약/NNG
▁침묵/NNG
▁컨트롤/NNG
▁퇴각/NNG
▁편리/NNG
▁허/IC
▁호/IC
▁호남/NNP
강의/NNG
고/EF
고속/NNG
다르/VA
막/NNG
주택/NNG
▁113/SN
▁67/SN
▁Association/SL
▁Heart/SL
▁강간/NNG
▁결함/NNG
▁극동/NNP
▁극히/MAG
▁금강/NNP
▁금성/NNP
▁너비/NNG
▁동부/NNG
▁돼지/NNG
▁뒤집/VV-R
▁맨해튼/NNP
▁미셸/NNP
▁바이/NNP
▁발급/NNG
▁성체/NNG
▁숭배/NNG
▁시베리아/NNP
▁아담/NNP
▁어워즈/NNG
▁용인/NNP
▁원주시/NNP
▁위쪽/NNG
▁잦/VA
▁좌익/NNG
▁지류/NNG
▁지바/NNP
▁첨가/NNG
▁체육관/NNG
▁취재/NNG
▁쾌속/NNG
▁퍼스트/NNG
▁홈구장/NNG
▁휴가/NNG
と/SW
메/NNG
보험/NNG
오이/NNG
장비/NNG
쯤/XSN
▁갇히/VV
▁구동/NNG
▁깊이/NNG
▁대표작/NNG
▁명문/NNG
▁속편/NNG
▁슈팅/NNG
▁신념/NNG
▁씨/IC
▁안경/NNG
▁육지/NNG
▁입성/NNG
▁장례/NNG
▁축출/NNG
▁콩/NNG
▁콩고/NNP
▁택하/VV
▁혼즈비/NNP
▁횡단/NNG
수사/NNG
역학/NNG
이/NNB
1950/SN
ᆯ지/EC
ᆯ지/EF
▁For/SL
▁노스캐롤라이나/NNP
▁도라에몽/NNP
▁동물원/NNG
▁롤플레잉/NNG
▁먹이/VV
▁물품/NNG
▁방콕/NNP
▁번뇌/NNG
▁사물/NNG
▁생산량/NNG
▁소지/NNG
▁슈/NNP
▁스테이션/NNP
▁야마모토/NNP
▁오구리/NNG
▁요르단/NNP
▁원/NNP
▁유벤투스/NNP
▁자유민주당/NNP
▁재상/NNG
▁즈음/NNB
▁콤팩트/NNG
▁퍼시픽/NNP
▁학업/NNG
▁함정/NNG
기념/NNG
다가/JX
소득/NNG
엄마/NNG
영화제/NNG
잇/VV-I
책임/NNG
03/SN
rence.com/SL
▁LA/SL
▁가고시마/NNP
▁고발/NNG
▁공세/NNG
▁담임/NNG
▁롱/NNG
▁루돌프/NNP
▁몰아내/VV
▁봉쇄/NNG
▁상점/NNG
▁생략/NNG
▁식민/NNG
▁앤디/NNP
▁연금/NNG
▁연대기/NNG
▁오프/NNG
▁왓/NNG
▁원료/NNG
▁원천/NNG
▁유이/NNP
▁일주일/NNG
▁절단/NNG
▁조/NNB
▁지각/NNG
▁충북/NNP
▁치명/NNG
▁키즈/NNP
▁펜실베이니아주/NNP
▁프리메라/NNG
▁해피/NNG
▁69/SN
▁Album/SL
▁Girl/SL
▁Go/SL
▁Japan/SL
▁LOVE/SL
▁각국/NNG
▁고수/NNG
▁공신/NNG
▁광저우/NNP
▁끼/VV
▁단막극/NNG
▁레바논/NNP
▁멜로/NNG
▁문하/NNG
▁반전/NNG
▁밝혀지/VV
▁병조/NNG
▁사기/NNP
▁서경/NNP
▁십자군/NNG
▁씨족/NNG
▁전두환/NNP
▁천안시/NNP
▁카메룬/NNP
▁카이/NNG
▁탄도/NNG
▁테이프/NNG
▁하노버/NNP
▁회상/NNG
▁훼손/NNG
결산/NNG
공단/NNG
금지/NNG
마스터/NNG
명령/NNG
목소리/NNG
상황/NNG
생명/NNG
여/NNG
코드/NNG
▁71/SN
▁Football/SL
▁Paul/SL
▁Story/SL
▁iOS/SL
▁β/SW
▁급진/NNG
▁날씨/NNG
▁내보내/VV
▁단행본/NNG
▁마/IC
▁메커니즘/NNG
▁믹스/NNG
▁반지름/NNG
▁비평/NNG
▁사업가/NNG
▁세상에/IC
▁순천/NNP
▁스트라이크/NNG
▁스폰서/NNG
▁신전/NNG
▁아이폰/NNP
▁예배/NNG
▁우호/NNG
▁이윤/NNG
▁입상/NNG
▁자음/NNG
▁제압/NNG
▁쥐/NNG
▁창업/NNG
▁창의/NNG
▁천연기념물/NNG
▁최강/NNG
▁컨트리/NNP
▁쿠하/NNG
▁파울/NNG
▁한국군/NNG
기독교/NNG
독일/NNP
로스/NNG
분기/NNG
위하/VV
회의소/NNG
86/SN
▁12./SB
▁Le/SL
▁격퇴/NNG
▁경관/NNG
▁기인/NNG
▁덮이/VV
▁떼/VV
▁불러일으키/VV
▁사각/NNG
▁삿포로/NNP
▁성숙/NNG
▁스캔들/NNG
▁스태프/NNG
▁어업/NNG
▁영문/NNG
▁유니버스/NNG
▁일본식/NNG
▁잉글리시/NNP
▁자서전/NNG
▁저널/NNP
▁전부/NNG
▁제재/NNG
▁중도/NNG
▁쿠퍼/NNP
▁하노이/NNP
▁행진/NNG
▁헤드/NNG
▁혼동/NNG
▁후하/VA
각/MM
노/EF
마일/NNB
보건/NNG
어항/NNG
이/NP
초/XPN
평등/NNG
101/SN
▁David/SL
▁K./SL
▁α/SW
▁경과/NNG
▁고장/NNG
▁교단/NNG
▁대대적/NNG
▁두렵/VA-I
▁두르/VV
▁드리/VV
▁모터스/NNP
▁브라질인/NNP
▁비유/NNG
▁빨갛/VA-I
▁신학교/NNG
▁유튜버/NNP
▁조례/NNG
▁좌절/NNG
▁지바현/NNG
▁지부/NNG
▁충주/NNP
▁케로로/NNP
▁폐기/NNG
▁한성부/NNG
막/NNB
본부장/NNG
성장/NNG
왕조/NNG
해석/NNG
Z/SL
▁1866/SN
▁Team/SL
▁권장/NNG
▁닉슨/NNP
▁단국대학교/NNP
▁단원/NNG
▁목재/NNG
▁몰락/NNG
▁미소/NNG
▁보험/NNG
▁세이부/NNP
▁신도/NNG
▁알렉스/NNP
▁앤드류/NNP
▁왜냐하면/MAG
▁우유/NNG
▁월터/NNP
▁위장/NNG
▁유카/NNP
▁인체/NNG
▁초등/NNG
▁타이거스/NNP
▁투옥/NNG
▁페어/NNG
▁하나님/NNP
건물/NNG
되/XSA
득/NNG
련/NNG
범죄/NNG
수단/NNG
통상/NNG
1946/SN
▁1848/SN
▁2024/SN
▁92/SN
▁가나/NNP
▁가시/NNG
▁나노/NNG
▁녹/NNG
▁데니스/NNP
▁도교/NNG
▁란/NNG
▁럭비/NNG
▁모듈/NNG
▁목요일/NNG
▁뮤지션/NNG
▁북한군/NNG
▁불참/NNG
▁빈곤/NNG
▁선사/NNG
▁소나무/NNG
▁수요일/NNG
▁식/NNB
▁오피스/NNG
▁우위/NNG
▁유아/NNG
▁익히/VV
▁일방/NNG
▁전날/NNG
▁중령/NNG
▁증대/NNG
▁태그팀/NNP
▁파나마/NNP
▁혈통/NNG
공격/NNG
수산/NNG
이전/NNG
작업/NNG
DS/SL
▁First/SL
▁Journal/SL
▁作/SH
▁강철/NNG
▁고무/NNG
▁관람/NNG
▁권투/NNG
▁난민/NNG
▁도널드/NNP
▁동네/NNG
▁루스/NNP
▁무늬/NNG
▁벽화/NNG
▁분명히/MAG
▁비타민/NNG
▁사업자/NNG
▁수용소/NNG
▁스퀘어/NNP
▁스틸/NNG
▁스파이더맨/NNP
▁아리스토텔레스/NNP
▁아홉/NR
▁영천시/NNP
▁유동/NNG
▁자판/NNG
▁장례식/NNG
▁장의/NNG
▁정제/NNG
▁조립/NNG
▁중계방송/NNG
▁직결/NNG
▁추출/NNG
▁침투/NNG
▁쿨/NNG
▁화요일/NNG
결합/NNG
민주주의/NNG
비트/NNG
윈도우/NNG
의무/NNG
이/VV
인권/NNG
카이/NNG
1942/SN
1951/SN
▁04/SN
▁개항/NNG
▁객차/NNG
▁경상도/NNP
▁구절/NNG
▁급격히/MAG
▁돌연변이/NNG
▁동력/NNG
▁둥지/NNG
▁모던/NNG
▁서초구/NNP
▁선조/NNG
▁세인트루이스/NNP
▁양키스/NNP
▁에른스트/NNP
▁에티오피아/NNP
▁유해/NNG
▁일화/NNP
▁칼리/NNG
▁커뮤니케이션/NNG
▁파커/NNP
▁한양/NNP
고종/NNG
대구/NNP
일반/NNG
52/SN
NHK/SL
font/SL
▁97/SN
▁교원/NNG
▁권총/NNG
▁노/NNG
▁대니/NNP
▁댐/NNG
▁등극/NNG
▁라리가/NNP
▁라인업/NNG
▁로버츠/NNP
▁메/NNG
▁명의/NNG
▁명제/NNG
▁반공/NNG
▁병기/NNG
▁복권/NNG
▁복음/NNG
▁부작용/NNG
▁비문/NNG
▁사슬/NNG
▁서진/NNG
▁소원/NNG
▁쇠/NNG
▁신해철/NNP
▁아미/NNP
▁온/MM
▁입양/NNG
▁장벽/NNG
▁징계/NNG
▁쫓/VV
▁첼시/NNP
▁축성/NNG
▁해밀턴/NNP
▁허리케인/NNG
문화유산/NNG
올림픽/NNG
전국/NNG
주간/NNG
터널/NNG
판매/NNG
1953/SN
II/SL
▁350/SN
▁FreeBSD/SL
▁곁/NNG
▁광해군/NNP
▁기숙사/NNG
▁김포/NNP
▁내외/NNG
▁노벨상/NNG
▁대원/NNG
▁뒷받침/NNG
▁매사추세츠/NNP
▁바비/NNP
▁볼티모어/NNP
▁새로이/MAG
▁선행/NNG
▁송시열/NNP
▁아시카가/NNG
▁아야/IC
▁악보/NNG
▁악장/NNG
▁애칭/NNG
▁얹/VV
▁없어지/VV
▁제니퍼/NNP
▁제독/NNG
▁주권/NNG
▁파장/NNG
▁평원/NNG
▁해태/NNP
▁헌터/NNP
농구/NNG
미술/NNG
연합회/NNG
영리/NNG
자문/NNG
장교/NNG
65/SN
▁1868/SN
▁Park/SL
▁USS/SL
▁ver./SL
▁교량/NNG
▁굴/NNG
▁두려워하/VV
▁박람회/NNG
▁밴쿠버/NNP
▁사이먼/NNP
▁산둥/NNP
▁선원/NNG
▁세르게이/NNP
▁순/NNG
▁신약/NNG
▁안테나/NNG
▁오키나와/NNP
▁위즈/NNP
▁이닝/NNG
▁이치/NNG
▁일조/NNG
▁잔인/NNG
▁점/NNB
▁증진/NNG
▁직행/NNG
▁충실/NNG
▁컴/NNG
▁토양/NNG
▁하락/NNG
▁함/NNG
▁협동/NNG
▁흔들리/VV
모함/NNG
수석/NNG
엘/NNG
이하/NNG
New/SL
▁170/SN
▁2013./SN
▁Dream/SL
▁James/SL
▁간토/NNP
▁거주지/NNG
▁공백/NNG
▁낼/MAG
▁넘치/VV
▁높아지/VV
▁리즈/NNP
▁보하/VV
▁복식/NNG
▁분광/NNG
▁분동/NNP
▁뿌리/VV
▁상용/NNG
▁섹스/NNG
▁소울/NNP
▁숙청/NNG
▁시가지/NNG
▁시초/NNG
▁신속/NNG
▁연봉/NNG
▁연합국/NNG
▁이즈/NNG
▁줄리아/NNP
▁크리스티안/NNP
▁함유/NNG
▁허위/NNG
▁효종/NNP
가요/NNG
우드/NNG
을까/EF
포인트/NNG
폰/NNG
hPa/SL
▁1870/SN
▁Don/SL
▁급식/NNG
▁다녀오/VV
▁단기/NNG
▁둘레/NNG
▁딥/NNG
▁리더십/NNG
▁물려받/VV-R
▁바티칸/NNP
▁방침/NNG
▁비싸/VA
▁사이타마현/NNG
▁쇠고기/NNG
▁안/NNP
▁여/MM
▁오바마/NNP
▁오이타/NNP
▁위드/NNP
▁이븐/NNP
▁재/NNG
▁젊은이/NNG
▁조달/NNG
▁중량/NNG
▁체스/NNG
▁체중/NNG
▁화학자/NNG
▁활동가/NNG
격/NNG
겸/NNB
로맨스/NNG
만큼/NNB
무용/NNG
문서/NNG
사망/NNG
석탑/NNG
Love/SL
f/SL
ᆼ/Z_CODA
▁OVA/SL
▁기증/NNG
▁김정일/NNP
▁냄새/NNG
▁대한항공/NNP
▁동형/NNG
▁부피/NNG
▁북해/NNP
▁비로소/MAG
▁서류/NNG
▁수신/NNG
▁스톡홀름/NNP
▁시네마/NNG
▁여배우/NNG
▁영국군/NNG
▁외관/NNG
▁요제프/NNP
▁유료/NNG
▁재선/NNG
▁지켜보/VV
▁창건/NNG
▁최대한/MAG
▁크롬/NNG
▁폴리/NNP
▁한하/VV
▁호랑이/NNG
▁황태자/NNG
】/SSC
고지/NNG
넷/NR
첫/MM
허가/NNG
67/SN
▁width/SL
▁가왕석/NNG
▁간단히/MAG
▁거인/NNG
▁고르/VV
▁고조/NNG
▁기금/NNG
▁김치/NNG
▁늙/VV
▁데모/NNG
▁무섭/VA-I
▁부스/NNG
▁선장/NNG
▁소총/NNG
▁스트레스/NNG
▁아테나/NNP
▁안장/NNG
▁에스파냐/NNP
▁이브/NNP
▁중재/NNG
▁지/VX
▁진보신당/NNP
▁차갑/VA-I
▁철수/NNP
▁커플/NNG
▁팔레스타인/NNP
▁폭행/NNG
▁헌신/NNG
▁후작/NNG
국도/NNG
문자/NNG
비서관/NNG
주연상/NNG
투/NR
▁2-1/W_SERIAL
▁81/SN
▁가축/NNG
▁가토/NNP
▁갈수록/MAG
▁감안/NNG
▁강릉시/NNP
▁공명/NNG
▁기관총/NNG
▁기수/NNG
▁네팔/NNP
▁니콜라스/NNP
▁마스크/NNG
▁매거진/NNG
▁목포시/NNP
▁법조인/NNG
▁사헌부/NNG
▁성취/NNG
▁아폴로/NNP
▁열쇠/NNG
▁옳/VA
▁원피스/NNP
▁입국/NNG
▁진사/NNG
▁체류/NNG
▁촉매/NNG
▁퀘벡/NNP
▁통틀/VV
▁한국판/NNG
▁확신/NNG
▁휴전/NNG
㎡/SW
가/JKC
기반/NNG
로봇/NNG
미사일/NNG
압/NNG
정의/NNG
후기/NNG
53/SN
▁105/SN
▁Library/SL
▁OF/SL
▁교과서/NNG
▁교섭/NNG
▁난카이/NNG
▁독립운동/NNG
▁레인저스/NNP
▁루시/NNP
▁무신론자/NNG
▁백화점/NNG
▁보/VX
▁빅토르/NNP
▁수나라/NNP
▁신주쿠/NNP
▁신탁/NNG
▁연/MM
▁와이오밍/NNP
▁자택/NNG
▁중합/NNG
▁쥐/VV
▁질소/NNG
▁춘천/NNP
▁크리스틴/NNP
▁파이퍼/NNP
▁프로파일/NNP
▁히어로/NNP
공학과/NNG
부/XSN
사령관/NNG
연소/NNG
은데/EC
일부/NNG
진행/NNG
큐/NNG
특히/MAG
k/SL
▁LP/SL
▁NAD/SL
▁그랜트/NNP
▁근교/NNG
▁껍질/NNG
▁나트륨/NNG
▁남양주시/NNP
▁다치/VV
▁담/NNG
▁동북/NNG
▁매출/NNG
▁모자/NNG
▁모티브/NNG
▁몰/NNG
▁문구/NNG
▁밀양/NNP
▁박성/NNP
▁보인/NNG
▁복선/NNG
▁서원/NNG
▁서인/NNG
▁성전/NNG
▁수평/NNG
▁앙골라/NNP
▁애인/NNG
▁여당/NNG
▁여사/NNG
▁외무/NNG
▁워드/NNG
▁임관/NNG
▁입각/NNG
▁자릿수/NNG
▁자칭/NNG
▁조이/NNP
▁종합격투기/NNP
▁지식인/NNG
▁청산/NNG
▁캐서린/NNP
▁통영/NNP
▁팀장/NNG
▁프랑스령/NNG
▁호/NNB
대리/NNG
딸/NNG
예선/NNG
인천/NNP
쟁이/XSN
주/VV
직할시/NNG
La/SL
▁86/SN
▁AS/SL
▁BC/SL
▁Tour/SL
▁y/SL
▁간사/NNG
▁간첩/NNG
▁광주시/NNP
▁기생/NNG
▁뉴캐슬/NNP
▁단절/NNG
▁리차드/NNP
▁매끄럽/VA-I
▁반고/NNP
▁불리/NNG
▁불의/NNG
▁상어/NNG
▁장로교/NNP
▁적대/NNG
▁접수/NNG
▁정벌/NNG
▁창사/NNG
▁크/VV
▁탈환/NNG
▁해고/NNG
결혼/NNG
머리/NNG
불/XPN
빌딩/NNG
순/NNB
지식/NNG
추진/NNG
테/NNG
활용/NNG
1943/SN
1948/SN
My/SL
▁NASA/SL
▁경성부/NNG
▁국영/NNG
▁넷플릭스/NNP
▁놓치/VV
▁매개/NNG
▁사살/NNG
▁사회학/NNG
▁생전/NNG
▁선도/NNG
▁스트리밍/NNP
▁안녕/IC
▁야쿠르트/NNP
▁예선전/NNG
▁요지/NNG
▁유로비전/NNP
▁이케/MAG
▁인어/NNG
▁재회/NNG
▁지하철역/NNG
▁총무/NNG
▁총애/NNG
▁치열/NNG
▁캔디/NNP
▁탱크/NNG
▁파라마운트/NNP
▁파스칼/NNP
▁포터/NNP
내용/NNG
는지/EF
모든/MM
사전/NNG
소송/NNG
언어/NNG
통제/NNG
투쟁/NNG
풍속/NNG
회견/NNG
1936/SN
—/SW
▁74/SN
▁Art/SL
▁Award/SL
▁Rock/SL
▁갈리아/NNP
▁감동/NNG
▁겸직/NNG
▁경찰관/NNG
▁고성군/NNP
▁교황청/NNG
▁달/VV
▁대의원/NNG
▁레이디/NNP
▁레인/NNP
▁로저스/NNP
▁모터/NNG
▁성운/NNG
▁신조/NNP
▁싸/VA
▁악의/NNG
▁언제/NP
▁연산군/NNP
▁연출가/NNG
▁오일러/NNP
▁올리버/NNP
▁우수상/NNG
▁의결/NNG
▁이제/NNG
▁장사/NNG
▁정령/NNG
▁제조업/NNG
▁주차/NNG
▁준장/NNG
▁차체/NNG
▁충전/NNG
▁콜라/NNG
▁프린스/NNP
▁활주로/NNG
▁흥/NNG
두/NNG
목적/NNG
애니맥스/NNP
원장/NNG
으려/EC
적/NNB
탄/NNB
300/SN
▁1872/SN
▁가왕/NNG
▁가죽/NNG
▁감추/VV
▁국보/NNG
▁꼽/VV-R
▁끌어들이/VV
▁마야/NNP
▁반경/NNG
▁벌/VV
▁부의장/NNG
▁색채/NNG
▁솔로몬/NNP
▁술라/NNP
▁쌓이/VV
▁아라비아/NNP
▁아산/NNP
▁양측/NNG
▁에이지/NNP
▁영원히/MAG
▁외국어/NNG
▁자사/NNG
▁정말/MAG
▁제프리/NNP
▁짝/NNG
▁탭/NNG
▁트로피/NNG
▁학급/NNG
▁함경남도/NNP
▁헤이안/NNP
▁형조/NNP
▁후쿠오카현/NNG
거래/NNG
다수/NNG
석/MM
소/XPN
최/XPN
․/SW
▁GDP/SL
▁IS/SL
▁Press./SL
▁각도/NNG
▁관세/NNG
▁대본/NNG
▁대폭/MAG
▁동진/NNP
▁로이/NNP
▁매기/VV
▁밀/VV
▁버드/NNP
▁부리/VV
▁불/VV
▁샤프/NNP
▁알래스카/NNP
▁여권/NNG
▁연기자/NNG
▁울프/NNP
▁원반/NNG
▁원본/NNG
▁이별/NNG
▁전시회/NNG
▁정밀/NNG
▁주자/NNG
▁증조부/NNG
▁추/NNP
▁카를로/NNP
▁테리/NNP
▁평정/NNG
▁평창/NNP
▁하단/NNG
경남/NNP
다리/NNG
새/NNG
양식/NNG
유지/NNG
준/XPN
지수/NNG
총회/NNG
--/SO
1941/SN
▁"/SSC
▁Company/SL
▁GNU/SL
▁en/SL
▁f/SL
▁v/SL
▁검사장/NNG
▁곰/NNG
▁국제선/NNG
▁댄/NNP
▁동래/NNP
▁로그/NNG
▁리모델링/NNG
▁맷/NNP
▁모나코/NNP
▁무안군/NNP
▁문양/NNG
▁민요/NNG
▁복용/NNG
▁북방/NNG
▁서사/NNG
▁스트라이커/NNG
▁양성자/NNG
▁에이미/NNP
▁오하이오주/NNP
▁유격수/NNG
▁유선/NNG
▁의사소통/NNG
▁이스트/NNG
▁잠실/NNP
▁장기간/NNG
▁조반니/NNP
▁주먹/NNG
▁중소기업/NNG
▁코믹/NNG
▁킬/NNP
▁포도주/NNG
▁해상도/NNG
▁협업/NNG
▁혜택/NNG
▁후한/NNP
남부/NNG
대통령/NNG
러시아/NNP
팔/NR
품질/NNG
1937/SN
54/SN
▁1887/SN
▁91/SN
▁Club/SL
▁MTV/SL
▁site/SL
▁감싸/VV
▁교정/NNG
▁뇌물/NNG
▁대우/NNG
▁독창/NNG
▁되돌리/VV
▁롤링/NNP
▁루이지애나/NNP
▁리스본/NNP
▁보증/NNG
▁붙잡히/VV
▁사안/NNG
▁산출/NNG
▁상표/NNG
▁아이치현/NNG
▁아저씨/NNG
▁어휘/NNG
▁역사학자/NNG
▁울리/VV
▁의약품/NNG
▁정착지/NNG
▁쫓겨나/VV
▁채널A/NNP
▁첨단/NNG
▁총칭/NNG
▁캄페오나투/NNG
▁클리블랜드/NNP
▁터브먼/NNP
▁판본/NNG
▁평안남도/NNP
▁학계/NNG
▁해결책/NNG
▁해전/NNG
▁헬리콥터/NNG
라서/EC
립/NNG
마음/NNG
폭풍/NNG
01/SN
▁4./SB
▁900/SN
▁ABC/SL
▁And/SL
▁Black/SL
▁De/SL
▁SEED/SL
▁각자/NNG
▁견제/NNG
▁공용어/NNG
▁관례/NNG
▁국민의당/NNP
▁그렇지만/MAJ
▁글로브상/NNG
▁급수/NNG
▁꼭짓점/NNP
▁도둑/NNG
▁따라가/VV
▁무함마드/NNP
▁반장/NNG
▁선/NNP
▁스킬/NNG
▁엔트리/NNG
▁워커/NNP
▁작중/NNG
▁정촌제/NNG
▁주제가/NNG
▁창시자/NNG
▁채소/NNG
▁코러스/NNG
▁코트/NNG
▁콘스탄티누스/NNP
▁키르기스스탄/NNP
▁평안북도/NNP
▁피셔/NNP
▁필터/NNG
▁하프/NNG
▁호위/NNG
감사/NNG
균형/NNG
래/NNG
맛/NNG
서부/NNG
위성/NNG
이동/NNG
직원/NNG
MHz/SL
ᆫ대/EF
▁1861/SN
▁1864/SN
▁Refe/SL
▁Research/SL
▁With/SL
▁about/SL
▁각자/MAG
▁극우/NNG
▁근원/NNG
▁끊임없이/MAG
▁라이/NNP
▁로라/NNP
▁로비/NNG
▁맥스웰/NNP
▁멋지/VA
▁몬테네그로/NNP
▁미세/NNG
▁베이비/NNG
▁비잔티움/NNP
▁윤치호/NNP
▁적자/NNG
▁조리/NNG
▁진군/NNG
▁첩/NNG
▁추세/NNG
▁투니버스/NNP
▁헤어지/VV
딩/MAG
먹/VV
설립/NNG
워크/NNG
전공/NNG
준비/NNG
트리/NNG
한서/NNP
1944/SN
▁FBI/SL
▁RNA/SL
▁UFO/SL
▁Video/SL
▁간선/NNG
▁경영학/NNG
▁구리/NNP
▁귀엽/VA-I
▁귀중/XR
▁극도/NNG
▁꾀하/VV
▁나주/NNP
▁너머/NNG
▁동행/NNG
▁로빈슨/NNP
▁방사선/NNG
▁베리/NNP
▁불태우/VV
▁빅터/NNP
▁성사/NNG
▁양호/NNG
▁에이전트/NNG
▁에이즈/NNG
▁엘리트/NNG
▁의류/NNG
▁일반인/NNG
▁장안/NNP
▁조선로동당/NNP
▁지침/NNG
▁진도/NNP
▁채권/NNG
▁쿠/NNG
▁크루/NNP
▁텐/NNG
▁토드/NNP
▁폐렴/NNG
▁프랜시스/NNP
▁하야시/NNP
▁확실히/MAG
개선/NNG
공항/NNG
께/JKB
릉/NNG
살/NNG
상업/NNG
선언/NNG
시트콤/NNG
출력/NNG
활성/NNG
98/SN
▁Do/SL
▁c/SL
▁∼/SO
▁객원/NNG
▁고사/NNG
▁구호/NNG
▁내성/NNG
▁내정/NNG
▁다국적/NNG
▁다윈/NNP
▁동지/NNG
▁릴리/NNP
▁밀란/NNP
▁박해/NNG
▁본성/NNG
▁사내/NNG
▁상해/NNP
▁수년/NNG
▁아키텍처/NNG
▁어긋나/VV
▁어류/NNG
▁우회/NNG
▁으/NNG
▁인도양/NNP
▁재해/NNG
▁특권/NNG
▁풀려나/VV
▁픽셀/NNG
▁함부르크/NNP
교류/NNG
랑/JKB
복무/NNG
오늘/NNG
이야기/NNG
한/NNG
▁115/SN
▁87/SN
▁MBN/SL
▁Star/SL
▁―/SS
▁계량/NNG
▁괜찮/VA
▁구미시/NNP
▁국악/NNG
▁논/NNG
▁닛폰햄/NNP
▁당연히/MAG
▁대피/NNG
▁도로명/NNG
▁돌아다니/VV
▁동맹국/NNG
▁두개골/NNG
▁떨치/VV
▁로마인/NNG
▁릭/NNP
▁마르크스주의/NNG
▁배차/NNG
▁베르/NNG
▁변천/NNG
▁부당/NNG
▁북아프리카/NNP
▁생존자/NNG
▁선구자/NNG
▁소자/NNG
▁쇼핑/NNG
▁수습/NNG
▁앵커/NNG
▁열도/NNG
▁오세아니아/NNP
▁인문/NNG
▁임용/NNG
▁참수/NNG
▁추리/NNG
▁캐리/NNP
▁커리어/NNG
거래소/NNG
더니/EC
뮤지컬/NNG
악기/NNG
창조/NNG
타자/NNG
회로/NNG
▁11./SB
▁1878/SN
▁High/SL
▁Museum/SL
▁Paris/SL
▁㈜/SW
▁가왕/NNP
▁게시/NNG
▁공주시/NNP
▁꼴/NNG
▁내야수/NNP
▁냉각/NNG
▁대/VV
▁리조트/NNG
▁마셜/NNP
▁말년/NNG
▁부여군/NNP
▁사사/NNG
▁사회당/NNP
▁성도/NNP
▁소매/NNG
▁아틀레티코/NNG
▁암스트롱/NNP
▁왜곡/NNG
▁웨이/NNG
▁음절/NNG
▁응원/NNG
▁종양/NNG
▁진하/VA
▁창출/NNG
▁코끼리/NNG
▁토끼/NNG
▁펜실베이니아/NNP
▁포도/NNG
▁포르노/NNG
▁프랜차이즈/NNG
▁핑크/NNP
▁힌두교/NNG
거성/NNG
궤도/NNG
기타/NNG
나가/VV
담당/NNG
바이러스/NNG
방송국/NNG
보안/NNG
슈퍼/NNG
시조/NNG
에다/JKB
투어/NNG
파이어/NNG
with/SL
−/SW
▁FK/SL
▁Song/SL
▁국외/NNG
▁그래미상/NNP
▁그레이트/NNP
▁다투/VV
▁도요토미/NNP
▁못하/VX
▁문종/NNP
▁미생물/NNG
▁복싱/NNG
▁부제/NNG
▁부채/NNG
▁성실/NNG
▁세계유산/NNP
▁수군/NNG
▁수원역/NNP
▁신형/NNG
▁아이언/NNG
▁야외/NNG
▁원격/NNG
▁일가/NNG
▁자비/NNG
▁제시카/NNP
▁주니치/NNP
▁지출/NNG
▁지팡이/NNG
▁톰슨/NNP
▁통보/NNG
▁항로/NNG
▁현저/XR
▁혼성/NNG
메이지/NNP
보컬/NNG
인칭/NNG
임금/NNG
장르/NNG
지원단/NNG
질환/NNG
풀/NNG
현대/NNG
58/SN
▁103/SN
▁1875/SN
▁3.1/SN
▁89/SN
▁Are/SL
▁Like/SL
▁Out/SL
▁United/SL
▁Way/SL
▁객체/NNG
▁걸스/NNP
▁검출/NNG
▁교대/NNG
▁군부/NNG
▁급여/NNG
▁기술자/NNG
▁김정/NNP
▁대우/NNP
▁레비/NNP
▁말리/VV
▁맑/VA
▁망치/NNG
▁매매/NNG
▁모서리/NNG
▁봉우리/NNG
▁빙하/NNG
▁사육/NNG
▁서머/NNP
▁성문/NNG
▁수수께끼/NNG
▁숙부/NNG
▁영예/NNG
▁이현/NNP
▁이화/NNP
▁제대/NNG
▁조지아주/NNP
▁천문/NNG
▁첩보/NNG
▁타이/NNG
▁탄/NNB
▁포레스트/NNP
▁허드슨/NNP
▁현직/NNG
▁회피/NNG
격/NNB
광역시/NNG
완전/NNG
조각/NNG
청사/NNG
태양/NNG
95/SN
▁!!/SF
▁09./SN
▁1869/SN
▁AU/SL
▁MG/SL
▁di/SL
▁감행/NNG
▁개성/NNP
▁궁중/NNG
▁규범/NNG
▁기병대/NNG
▁대포/NNG
▁런/NNG
▁로잔/NNP
▁마라톤/NNG
▁바이어/NNG
▁버티/VV
▁보너스/NNG
▁세습/NNG
▁슬픔/NNG
▁실적/NNG
▁아인슈타인/NNP
▁아즈텍/NNP
▁암스테르담/NNP
▁애덤/NNP
▁애리조나/NNP
▁영주/NNP
▁응시/NNG
▁정치학/NNG
▁제명/NNG
▁제천/NNP
▁조모/NNG
▁주지/NNG
▁진/XPN
▁캐스트/NNG
▁페드로/NNP
▁페이/NNG
▁폭넓/VA
▁혜/NNG
마크/NNG
박/NNG
발행/NNG
식품/NNG
함대/NNG
ᆨ/Z_CODA
▁1863/SN
▁2005./SN
▁America/SL
▁William/SL
▁가우스/NNP
▁교도소/NNG
▁구도/NNG
▁구축함/NNG
▁넥스트/NNP
▁니/MM
▁독서/NNG
▁두드러지/VA
▁두려움/NNG
▁래리/NNP
▁막스/NNP
▁맏/XPN
▁무제/NNP
▁문고/NNG
▁복장/NNG
▁불타/VV
▁성모/NNG
▁시할구/NNP
▁아이콘/NNG
▁앞쪽/NNG
▁예배당/NNG
▁예조/NNG
▁전래/NNG
▁제치/VV
▁충/NNG
▁취약점/NNG
▁친밀/NNG
▁킬러/NNG
▁파일럿/NNG
▁포착/NNG
▁폭로/NNG
▁프린세스/NNP
▁학대/NNG
▁허리/NNG
▁호출/NNG
공동체/NNG
기도/NNG
넣/VV
대행/NNG
명칭/NNG
법칙/NNG
비서실/NNG
액자/NNG
업자/NNG
젤/NNG
차/VV
66/SN
▁거처/NNG
▁고스트/NNP
▁관념/NNG
▁단단/XR
▁들/VX
▁롤/NNG
▁마/NNP
▁만일/NNG
▁몇몇/NR
▁미스코리아/NNP
▁미시시피/NNP
▁바그다드/NNP
▁발병/NNG
▁벗/VV-R
▁베/NNG
▁부도/NNG
▁사우스캐롤라이나/NNP
▁서민/NNG
▁여지/NNB
▁완결/NNG
▁외계인/NNG
▁용이/XR
▁자세히/MAG
▁장학금/NNG
▁접/VV-R
▁주해/NNG
▁증설/NNG
▁초월/NNG
▁출토/NNG
▁카카오/NNP
▁칼빈/NNP
▁펜스/NNG
▁폴링/NNP
▁회/NNB
나/VX
우정/NNG
1947/SN
▁01./SN
▁1600/SN
▁CA/SL
▁Party/SL
▁공모/NNG
▁기아/NNP
▁다이스케/NNP
▁마오쩌둥/NNP
▁배후/NNG
▁불꽃/NNG
▁세/VA
▁애정/NNG
▁업계/NNG
▁유연/XR
▁음반사/NNG
▁이북/NNP
▁인도/NNG
▁제왕/NNG
▁중국공산당/NNP
▁진급/NNG
▁체력/NNG
▁충분하/VA
▁타일러/NNP
▁탐험가/NNG
▁패러디/NNG
▁풀리/VV
▁함선/NNG
▁헤비/NNG
개정/NNG
막/MAG
사관/NNG
심의/NNG
육군/NNG
청구/NNG
헝가리/NNP
▁128/SN
▁1881/SN
▁83/SN
▁가옥/NNG
▁공자/NNP
▁꺼내/VV
▁끄/VV
▁나주시/NNP
▁남미/NNP
▁대두/NNG
▁대의/NNG
▁문예/NNG
▁범하/VV
▁분량/NNG
▁사로잡/VV-R
▁소모/NNG
▁순/NNB
▁순천시/NNP
▁실버/NNG
▁아크/NNP
▁알루미늄/NNG
▁옐친/NNP
▁오스틴/NNP
▁외형/NNG
▁위력/NNG
▁유대교/NNG
▁자연수/NNG
▁자전/NNG
▁주차장/NNG
▁채무/NNG
▁캐스터/NNG
▁콘/NNP
▁클라이언트/NNG
▁투여/NNG
▁표방/NNG
▁플로/NNP
▁행정학/NNG
▁환/XR
마치/MAG
분과/NNG
션/NNP
숙종/NNP
아트/NNG
엔진/NNG
재판/NNG
차트/NNG
++/SW
1935/SN
500/SN
57/SN
▁127/SN
▁5,000/SN
▁Cambridge/SL
▁Good/SL
▁Version/SL
▁개막전/NNG
▁격하/NNG
▁공민왕/NNP
▁구형/NNG
▁그다지/MAG
▁기각/NNG
▁내무부/NNG
▁네/MM
▁누이/NNG
▁대중교통/NNG
▁데즈카/NNG
▁동점/NNG
▁랜드/NNG
▁민선/NNG
▁블레이드/NNP
▁상급/NNG
▁상담/NNG
▁생선/NNG
▁송파구/NNP
▁수영복/NNG
▁수필가/NNG
▁실무/NNG
▁아무것/NNG
▁알파벳/NNG
▁이장/NNG
▁이진/NNP
▁일자/NNG
▁적분/NNP
▁전철역/NNG
▁정립/NNG
▁킬로미터/NNB
▁터뜨리/VV
▁피로/NNG
▁향기/NNG
▁회고록/NNG
던/EC
든지/JX
수학/NNG
엇/EF
지명/NNG
집합/NNG
푼/NNB
혹은/MAG
$/SW
ro/SL
▁1862/SN
▁2011./SN
▁Road/SL
▁가드/NNG
▁가야금/NNG
▁격자/NNG
▁계주/NNG
▁그리스인/NNG
▁납/NNG
▁농부/NNG
▁단종/NNG
▁달걀/NNG
▁동시대/NNG
▁발각/NNG
▁밝기/NNG
▁배려/NNG
▁백상예술대상/NNP
▁버거/NNG
▁본거지/NNG
▁앤드루/NNP
▁얕/VA
▁영남/NNP
▁왓슨/NNP
▁인프라/NNG
▁저렴/XR
▁중추/NNG
▁지성/NNG
▁천문대/NNG
▁청원/NNG
▁체인/NNG
▁최영/NNP
▁춥/VA-I
▁치과/NNG
▁칼슘/NNG
▁캡틴/NNP
▁토목/NNG
▁피신/NNG
▁화기/NNG
밀도/NNG
보전/NNG
성향/NNG
용량/NNG
철학자/NNG
1934/SN
▁119/SN
▁1815/SN
▁1865/SN
▁CS/SL
▁Power/SL
▁that/SL
▁곤란/NNG
▁구내/NNG
▁국유/NNG
▁군산시/NNP
▁극한/NNG
▁김진/NNP
▁냉방/NNG
▁넬슨/NNP
▁논하/VV
▁다지/VV
▁도자기/NNG
▁뛰어들/VV
▁리버/NNP
▁마르틴/NNP
▁문학상/NNG
▁발명가/NNG
▁비치/NNG
▁빚/NNG
▁사상가/NNG
▁상단/NNG
▁상연/NNG
▁상응/NNG
▁서문/NNG
▁안동시/NNP
▁역량/NNG
▁욕망/NNG
▁워터/NNG
▁정종/NNP
▁지우/VV
▁직속/NNG
▁취업/NNG
▁칸트/NNP
▁탐색/NNG
▁턱/NNG
▁파이/NNG
▁포럼/NNG
▁혼/NNG
군/EF
독/NNG
뒤/NNG
디지털/NNG
리/EF
뮤직/NNG
사무/NNG
사진/NNG
에/IC
인조/NNP
조합/NNG
학사/NNG
\/SW
▁This/SL
▁가면/NNG
▁강령/NNG
▁강원특별자치도의/NNG
▁건국대학교/NNP
▁고령/NNG
▁공수/NNG
▁그/VA
▁기념비/NNG
▁기저/NNG
▁기획사/NNG
▁깨지/VV
▁로열/NNP
▁린다/NNP
▁만성/NNG
▁무지개/NNG
▁발키리/NNP
▁번성/NNG
▁부상자/NNG
▁사면/NNG
▁세비야/NNP
▁소장품/NNG
▁수성/NNG
▁시티즌/NNG
▁안산시/NNP
▁양산시/NNP
▁어촌/NNG
▁역사가/NNG
▁연극배우/NNG
▁영동/NNP
▁요시쓰네/NNP
▁유정/NNP
▁이베리아/NNP
▁적당/XR
▁정전/NNG
▁진상/NNG
▁천장/NNG
▁철학과/NNG
▁초빙/NNG
▁초콜릿/NNG
▁프리미어/NNP
▁현립/NNG
▁희귀/XR
日本/SH
감/XSN
곤/NNG
빌/NNP
아동/NNG
영조/NNP
정리/NNG
1938/SN
▁2-0/W_SERIAL
▁ATP/SL
▁English/SL
▁House/SL
▁Robert/SL
▁We/SL
▁게릴라/NNG
▁경순왕/NNP
▁고토/NNP
▁관행/NNG
▁굴절/NNG
▁노동력/NNG
▁뉴멕시코/NNP
▁단말기/NNG
▁도장/NNG
▁독도/NNP
▁독립군/NNG
▁레일/NNG
▁맺은/NNG
▁베풀/VV
▁분데스리가/NNP
▁사귀/VV
▁상가/NNG
▁샘플/NNG
▁서바이벌/NNP
▁성균관/NNP
▁술탄/NNP
▁슈퍼리그/NNG
▁신발/NNG
▁연말/NNG
▁영/MAG
▁예약/NNG
▁장성/NNG
▁전국동시지방선거/NNG
▁전위/NNG
▁챔피언스리그/NNG
▁치환/NNG
▁타석/NNG
▁특별상/NNG
▁특화/NNG
▁폐선/NNG
▁항만/NNG
▁헬기/NNG
▁현/NNG
박/NNB
수송/NNG
어린이/NNG
이익/NNG
포병/NNG
현재/MAG
79/SN
You/SL
the/SL
tvN/SL
▁3.5/SN
▁93/SN
▁Dance/SL
▁g/SL
▁가량/NNB
▁가맹/NNG
▁기전/NNG
▁남아시아/NNP
▁능선/NNP
▁도스/NNP
▁루카스/NNP
▁몬/MAG
▁발동/NNG
▁별다르/VA
▁부여/NNP
▁붐/NNG
▁브루노/NNP
▁브루클린/NNP
▁산타/NNP
▁생화학/NNG
▁수위/NNG
▁슬프/VA
▁아군/NNG
▁아키/NNP
▁알바/NNG
▁어쩌/VV
▁위헌/NNG
▁절망/NNG
▁참/VV
▁춘추/NNP
▁치유/NNG
▁캔자스/NNP
▁키라/NNP
▁킴/NNP
▁타일/NNG
▁필리프/NNP
▁한성/NNP
▁호크스/NNP
개소/NNB
넷/NNG
대칭/NNG
서울특별시/NNP
설/NNG
시인/NNG
음반/NNG
저/XPN
제의/NNG
주민/NNG
츠/NNG
72/SN
▁1-0/W_SERIAL
▁1200/SN
▁2009./SN
▁3,000/SN
▁79/SN
▁84/SN
▁Down/SL
▁RFC/SL
▁가이드/NNG
▁감수/NNG
▁강당/NNG
▁개최국/NNG
▁개표/NNG
▁겉보기/NNG
▁광년/NNB
▁날아가/VV
▁날카롭/VA-I
▁내셔널리그/NNP
▁다카하시/NNP
▁대동/NNG
▁롭/NNP
▁발원/NNG
▁발칸/NNP
▁베티/NNP
▁볼링/NNG
▁뿔/NNG
▁사무엘/NNP
▁서귀포시/NNP
▁서재필/NNP
▁엣지/NNP
▁여/NP
▁여주/NNP
▁영등포구/NNP
▁영유/NNG
▁영화관/NNG
▁예멘/NNP
▁오락/NNG
▁오브젝트/NNP
▁우간다/NNP
▁유코/NNP
▁자치주/NNG
▁전/NNP
▁전격/NNG
▁종업원/NNG
▁증손/NNG
▁집정관/NNG
▁충주시/NNP
▁취/NNG
▁카/IC
▁컨페더레이션스컵/NNG
▁키드/NNP
▁퍼포먼스/NNG
▁폼페이우스/NNP
▁표정/NNG
▁혼자/NNG
▁활발히/MAG
구/EC
놀이/NNG
대원방송/NNP
무대/NNG
박스/NNG
복합/NNG
연료/NNG
육/NR
즈/NP
진흥원/NNG
타수/NNG
▁112/SN
▁2010./SN
▁my/SL
▁강서구/NNP
▁격/NNG
▁고등학생/NNG
▁국가지원지방/NNG
▁그만/MAG
▁기후현/NNG
▁꼭대기/NNG
▁남매/NNG
▁대거/MAG
▁마을버스/NNG
▁바보/NNG
▁발해/NNP
▁봉안/NNG
▁산티아고/NNP
▁상파울루/NNP
▁서산/NNP
▁세리이/NNG
▁셰익스피어/NNP
▁실망/NNG
▁아산시/NNP
▁압수/NNG
▁온두라스/NNP
▁요절/NNG
▁욕구/NNG
▁제우스/NNP
▁청동기/NNG
▁청소/NNG
▁추존/NNG
▁카트라이더/NNG
▁컵스/NNP
▁파기/NNG
▁평판/NNG
▁폭파/NNG
▁한민족/NNP
▁헬싱키/NNP
▁화살/NNG
경찰청/NNG
는다면/EC
도서/NNG
뿐/NNB
캐스트/NNG
특별시/NNG
학살/NNG
Japan/SL
feat./SL
▁GO/SL
▁`/SW
▁계보/NNG
▁궁궐/NNG
▁답변/NNG
▁대웅전/NNG
▁더욱이/MAG
▁도출/NNG
▁돌입/NNG
▁뒤잇/VV-I
▁떨어뜨리/VV
▁랜덤/NNG
▁마닐라/NNP
▁만년/NNG
▁말씀/NNG
▁문화유산/NNG
▁밀집/NNG
▁바깥쪽/NNG
▁분파/NNG
▁블러드/NNP
▁양궁/NNG
▁여수시/NNP
▁연못/NNG
▁열역학/NNG
▁왕권/NNG
▁우측/NNG
▁웃음/NNG
▁유학자/NNG
▁의의/NNG
▁임원/NNG
▁챌린지/NNG
▁청송/NNP
▁칙령/NNG
▁케이스/NNG
▁토성/NNG
▁트럼펫/NNG
▁파트너십/NNG
▁표기법/NNG
노동자/NNG
말리/VV
사실/NNG
여름/NNG
형식/NNG
59/SN
71/SN
IEC/SL
―/SS
▁106/SN
▁Database/SL
▁Special/SL
▁vol./SL
▁검거/NNG
▁격렬/XR
▁군산/NNP
▁근로/NNG
▁기갑/NNP
▁김영삼/NNP
▁김희/NNP
▁단체전/NNG
▁데려오/VV
▁라쿠텐/NNP
▁명백하/VA
▁몰수/NNG
▁미토/NNP
▁베이커/NNP
▁사수/NNG
▁서면/NNG
▁수중/NNG
▁아끼/VV
▁아이치/NNP
▁옹립/NNG
▁이바라키현/NNG
▁이송/NNG
▁임하/VV
▁잇/NNG
▁주입/NNG
▁진정/NNG
▁차출/NNG
▁착하/VA
▁추이/NNG
▁춤추/VV
▁파도/NNG
▁판소리/NNG
▁힘러/NNG
각본/NNG
경쟁/NNG
끝/NNG
바/NNB
서/VV
수준/NNG
연예/NNG
칠/NR
하고/JKB
68/SN
99/SN
▁05/SN
▁1858/SN
▁No/SL
▁What/SL
▁t/SL
▁가열/NNG
▁감상/NNG
▁강화군/NNP
▁개소/NNG
▁개종/NNG
▁깃발/NNG
▁꽃잎/NNG
▁네바다/NNP
▁네티즌/NNG
▁녹화/NNG
▁단행/NNG
▁데일리/NNP
▁도호/NNP
▁등용/NNG
▁리우데자네이루/NNP
▁만주국/NNP
▁모토/NNG
▁목회자/NNG
▁박원순/NNP
▁볼록/MAG
▁송신/NNP
▁순조/NNP
▁숨지/VV
▁시국/NNG
▁신곡/NNG
▁신종/NNG
▁아래쪽/NNG
▁연산자/NNP
▁영화감독/NNG
▁예하/NNG
▁유진/NNP
▁이용객/NNG
▁자민당/NNP
▁재일/NNG
▁족보/NNG
▁지도부/NNG
▁찬양/NNG
▁천/NNG
▁초나라/NNP
▁초상/NNG
▁평평/XR
▁플래티넘/NNP
▁한층/MAG
▁황족/NNG
규정/NNG
노동조합/NNG
단체장/NNG
동기/NNG
동생/NNG
생물학/NNG
영역/NNG
작/VA
작위/NNG
축산/NNG
탈/NNG
토스/NNG
팀장/NNG
학습/NNG
1933/SN
em/SL
ᆯ/Z_CODA
▁Review/SL
▁kt/SL
▁경전철/NNG
▁공산/NNG
▁공표/NNG
▁노면/NNG
▁단지/NNG
▁따지/VV
▁믹싱/NNG
▁배속/NNG
▁밴/NNG
▁부다페스트/NNP
▁부터/JX
▁브이/NNG
▁석학/NNG
▁스타즈/NNP
▁습/NNG
▁앤서니/NNP
▁염기/NNG
▁오크/NNP
▁이남/NNG
▁작물/NNG
▁지폐/NNG
▁차리/VV
▁컨테이너/NNG
▁쾰른/NNP
▁크누트/NNP
▁탄자니아/NNP
▁토스카/NNP
▁퇴/NNG
▁튀니지/NNP
▁팩/NNG
▁포격/NNG
그림/NNG
바다/NNG
봉사/NNG
실장/NNG
어라/EC
／/SW
▁1859/SN
▁1873/SN
▁Brown/SL
▁Edition/SL
▁station/SL
▁격추/NNG
▁공약/NNG
▁공조/NNG
▁관찰사/NNG
▁구릉/NNG
▁꼬마/NNG
▁낙/NNG
▁남양/NNP
▁내무/NNG
▁놈/NNB
▁다/NNG
▁동요/NNG
▁머/IC
▁미즈키/NNP
▁발령/NNG
▁보드/NNG
▁부토/NNP
▁상하/NNG
▁시중/NNG
▁실험실/NNG
▁아돌프/NNP
▁언제/MAG
▁업로드/NNG
▁연수/NNG
▁오른손/NNG
▁요크/NNP
▁원산/NNP
▁이마/NNG
▁장로/NNG
▁제동/NNG
▁증인/NNG
▁처녀/NNG
▁척추/NNG
▁천하/NNG
▁초원/NNG
▁친분/NNG
▁탈레반/NNP
▁토트넘/NNP
▁편집장/NNG
▁포인터/NNG
▁피츠버그/NNP
▁홍문관/NNP
▁화력/NNG
공황/NNG
기갑/NNP
노조/NNG
다니/VV
먼/EC
알/NNG
줄기/NNG
질서/NNG
피질/NNG
홍보/NNG
77/SN
▁450/SN
▁IC/SL
▁Who/SL
▁가속기/NNG
▁감/VV
▁게르만/NNP
▁격차/NNG
▁권역/NNG
▁내레이션/NNG
▁디에고/NNP
▁딜런/NNP
▁레인보우/NNP
▁마이크/NNG
▁면제/NNG
▁무비스트/NNP
▁반군/NNG
▁반지/NNG
▁발의/NNG
▁방어선/NNG
▁본부장/NNG
▁북유럽/NNP
▁비석/NNG
▁사회자/NNG
▁산란/NNG
▁서신/NNG
▁선천/NNG
▁속이/VV
▁수지/NNG
▁엔드/NNG
▁오릭스/NNP
▁왼손/NNG
▁위임/NNG
▁유러피언/NNG
▁이모/NNG
▁이천/NNP
▁일부분/NNG
▁임실군/NNP
▁재활/NNG
▁전방/NNG
▁절감/NNG
▁정우/NNP
▁종영/NNG
▁지리산/NNP
▁참사/NNG
▁텐서/NNP
▁파손/NNG
▁평택시/NNP
▁프리덤/NNP
▁피처/NNG
▁하반기/NNG
▁헬륨/NNG
▁혀/NNG
▁홍익대학교/NNP
경제학/NNG
변호사/NNG
비밀/NNG
셀/NNG
전용/NNG
팝/NNG
합병/NNG
69/SN
in/SL
▁02/SN
▁가솔린/NNG
▁게이지/NNG
▁견인/NNG
▁공존/NNG
▁나/NNG
▁나란히/MAG
▁남인/NNG
▁다롄/NNP
▁단군/NNP
▁단종/NNP
▁달콤하/VA
▁동학/NNG
▁리믹스/NNP
▁리옹/NNP
▁마운트/NNP
▁몫/NNG
▁박영/NNP
▁반동/NNG
▁보트/NNG
▁복소수/NNG
▁비주얼/NNG
▁빙/MAG
▁삽화/NNG
▁상반기/NNG
▁소동/NNG
▁시미즈/NNP
▁액세스/NNG
▁염색체/NNG
▁운동장/NNG
▁윈/NNP
▁윤/NNG
▁음성군/NNP
▁이르/VV-R
▁이빨/NNG
▁적군/NNG
▁좌측/NNG
▁찌르/VV
▁차세대/NNG
▁찬사/NNG
▁창녕/NNP
▁쿠웨이트/NNP
▁토미/NNP
▁피리/NNG
▁피치/NNP
▁학년/NNG
▁헤이/IC
▁형이상학/NNG
롤/NNG
메이커/NNG
목표/NNG
석사/NNG
일본어/NNP
조계종/NNP
조부/NNG
76/SN
▁108/SN
▁1830/SN
▁1850/SN
▁1877/SN
▁2012./SN
▁94/SN
▁Blue/SL
▁Moon/SL
▁SNS/SL
▁be/SL
▁개/NNB
▁경위/NNG
▁공의회/NNG
▁김정은/NNP
▁김천/NNP
▁대표부/NNG
▁도마뱀/NNG
▁도하/NNP
▁드라마스페셜/NNG
▁루카/NNP
▁마사토/NNP
▁묶이/VV
▁미유키/NNP
▁사사키/NNP
▁산물/NNG
▁세종특별자치/NNG
▁시즈오카현/NNG
▁시합/NNG
▁실장/NNG
▁싫어하/VV
▁여고/NNG
▁연동/NNG
▁용의자/NNG
▁원숭이/NNG
▁웨스트민스터/NNP
▁이론가/NNG
▁이종/NNG
▁일렉트릭/NNP
▁일파/NNG
▁재질/NNG
▁정경/NNG
▁정문/NNG
▁조수/NNG
▁줄리엣/NNP
▁진지/XR
▁축조/NNG
▁콜린/NNP
▁토마토/NNG
▁퇴장/NNG
▁투자자/NNG
▁투항/NNG
▁푸틴/NNP
▁프로모션/NNG
▁피드백/NNG
▁한인/NNG
▁햇빛/NNG
▁화강암/NNG
▁후예/NNG
▁휠/NNG
가장/MAG
광주/NNP
교구/NNG
동맥/NNG
동음이의/NNP
든/JX
룸/NNG
보수/NNG
신앙/NNG
실록/NNG
자원부/NNG
잡지/NNG
지청/NNG
천사/NNG
킥/NNG
표시/NNG
In/SL
▁0.5/SN
▁Die/SL
▁Op./SL
▁Red/SL
▁p/SL
▁가르시아/NNP
▁공감/NNG
▁구미/NNP
▁국소/NNG
▁국제법/NNG
▁노아/NNP
▁동급/NNG
▁레온/NNP
▁리나/NNP
▁메이커/NNG
▁명소/NNG
▁모빌/NNG
▁무과/NNG
▁미나모토노/NNG
▁밸브/NNG
▁부딪히/VV
▁브라질레이루/NNG
▁상동/NNP
▁상법/NNG
▁성산/NNP
▁수잔/NNP
▁순교/NNG
▁스텝/NNG
▁슬램/NNG
▁실화/NNG
▁아이오와/NNP
▁얼/VV
▁연립/NNG
▁요가/NNG
▁위법/NNG
▁윈도/NNG
▁인과/NNG
▁장제스/NNP
▁정사/NNG
▁정한/NNG
▁조용/XR
▁짐작/NNG
▁토론회/NNG
▁티켓/NNG
▁페널티/NNG
▁흔들/VV
가스/NNG
개인/NNG
닥터/NNG
로마/NNP
매/NNB
섬유/NNG
성능/NNG
시간대/NNG
야/JKV
운행/NNG
지도자/NNG
평론가/NNG
Instrumental/SL
STAR/SL
▁10,000/SN
▁1874/SN
▁HTML/SL
▁MP/SL
▁Michael/SL
▁Remix/SL
▁ed./SL
▁격투/NNG
▁공로상/NNG
▁관계없이/MAG
▁극대/NNG
▁기슭/NNG
▁끓이/VV
▁남산/NNP
▁도형/NNG
▁디지몬/NNG
▁라이너/NNP
▁물가/NNG
▁반죽/NNG
▁발전기/NNG
▁벽돌/NNG
▁불경/NNG
▁사연/NNG
▁사회주의자/NNG
▁선비/NNP
▁성곽/NNG
▁손꼽히/VV
▁시가/NNG
▁씨앗/NNG
▁아이디/NNG
▁안양시/NNP
▁양파/NNG
▁에픽/NNP
▁옥수수/NNG
▁온갖/MM
▁요괴/NNP
▁이즈미/NNP
▁자카르타/NNP
▁제이크/NNP
▁조장/NNG
▁조지프/NNP
▁죄수/NNG
▁진로/NNG
▁파라과이/NNP
▁퓨전/NNG
▁화자/NNG
▁후쿠시마현/NNG
게끔/EC
경기/NNP
광년/NNB
무장/NNG
상공/NNG
야/NNG
인민군/NNG
자격/NNG
전설/NNG
판결/NNG
협약/NNG
확진자/NNG
56/SN
▁///SP
▁190/SN
▁2006./SN
▁NCT/SL
▁Records/SL
▁Ver./SL
▁》/SSC
▁가늘/VA
▁가명/NNG
▁가혹/NNG
▁개축/NNG
▁겉/NNG
▁골절/NNG
▁광대/NNG
▁교화/NNG
▁김/NNG
▁노/XPN
▁노태우/NNP
▁니콜라이/NNP
▁덩어리/NNG
▁똑같이/MAG
▁리브/NNP
▁마누엘/NNP
▁맥주/NNG
▁맹세/NNG
▁멜버른/NNP
▁명인/NNG
▁버스트/NNG
▁별세/NNG
▁보헤미아/NNP
▁부사/NNG
▁사방/NNG
▁사학/NNG
▁상피/NNG
▁솟/VV-R
▁수확/NNG
▁앞장서/VV
▁오클랜드/NNP
▁요격/NNG
▁요코/NNP
▁재미/NNG
▁조조/NNG
▁지르/VV
▁집결/NNG
▁창문/NNG
▁퀘스트/NNP
▁타당/XR
▁탈취/NNG
▁토리/NNP
▁트로이/NNP
▁함자/NNG
▁합스부르크/NNP
▁호스트/NNG
▁후쿠다/NNP
식품부/NNG
안보/NNG
요리/NNG
울/NNG
웨이/NNG
이/NNP
전적/NNG
짱/NNG
통신부/NNG
플러스/NNG
피/XPN
한국/NNG
확실/XR
▁2018-19/W_SERIAL
▁Book/SL
▁German/SL
▁IV/SL
▁Inc./SL
▁가르/VV
▁그래도/MAJ
▁까지/JX
▁네오/NNP
▁동대문구/NNP
▁동방신기/NNP
▁루비/NNP
▁리가/NNP
▁마비/NNG
▁만료/NNG
▁매/MM
▁발자크/NNP
▁부합/NNG
▁불량/NNG
▁서점/NNG
▁석불/NNG
▁수심/NNG
▁슬하/NNG
▁승률/NNG
▁아벨/NNP
▁안도/NNG
▁앙상블/NNG
▁여단/NNG
▁용산/NNP
▁원종/NNP
▁윙어/NNG
▁유체/NNG
▁이자/NNG
▁잡아먹/VV
▁점검/NNG
▁정교/XR
▁조각상/NNG
▁종파/NNG
▁직계/NNG
▁청색/NNG
▁총독부/NNG
▁켄지/NNP
▁탁월/XR
▁탈삼진/NNG
▁특색/NNG
▁폭포/NNG
▁한국철도공사/NNP
▁현악/NNG
▁히/NNG
▁히로키/NNG
▁히트곡/NNG
꿈/NNG
대원/NNG
들/VV
방면/NNG
배상/NNG
보이/VV
분해/NNG
상어/NNG
언론/NNG
자금/NNG
자신/NNG
전체/NNG
주일/NNB
총영사관/NNG
카페/NNG
행복/NNG
현장/NNG
88/SN
▁Back/SL
▁Young/SL
▁page/SL
▁결핍/NNG
▁김포시/NNP
▁나루토/NNP
▁동거/NNG
▁마이크로/NNG
▁맨/XPN
▁무로마치/NNP
▁미에/NNP
▁보성/NNP
▁비롯되/VV
▁비리/NNG
▁서훈/NNP
▁성리학/NNG
▁숙주/NNG
▁신생/NNG
▁쏟아지/VV
▁아니하/VX
▁아스카/NNP
▁욕계/NNP
▁원상/NNG
▁이산해/NNP
▁잇따르/VV
▁잉크/NNG
▁정글/NNG
▁좌익수/NNG
▁좌표/NNG
▁클레이/NNP
▁킹/NNG
▁패스/NNG
▁평민/NNG
▁폭격기/NNG
▁표절/NNG
▁푸아송/NNG
▁한미/NNP
▁해주/NNP
▁헤/IC
▁호른/NNP
▁화장품/NNG
▁환/NNG
▁후추/NNG
대륙/NNG
보드/NNG
얼/NNG
여서/EC
중량/NNG
취항/NNG
행/NNB
회전/NNG
91/SN
▁1.0/SN
▁API/SL
▁Film/SL
▁Mr./SL
▁Street/SL
▁€/SW
▁극심하/VA
▁기쁨/NNG
▁김해시/NNP
▁낙동강/NNP
▁남면/NNP
▁동적/NNG
▁라면/NNG
▁리얼리티/NNG
▁마르쿠스/NNP
▁막히/VV
▁몸통/NNG
▁문경/NNP
▁미수/NNG
▁바스크/NNP
▁반주/NNG
▁봉건/NNG
▁브로드웨이/NNP
▁생모/NNG
▁생원/NNG
▁석탑/NNG
▁소생/NNG
▁수질/NNG
▁순정/NNG
▁스탠리/NNP
▁아무리/MAG
▁아틀레틱/NNG
▁안기/VV
▁양심/NNG
▁얽히/VV
▁에스/NNG
▁오로지/MAG
▁오사무/NNP
▁완/NNG
▁울주군/NNP
▁월트/NNP
▁웨스턴/NNP
▁음운/NNG
▁이식/NNG
▁자금성/NNP
▁착각/NNG
▁책임지/VV
▁청동/NNG
▁칠곡군/NNP
▁카디널스/NNP
▁캐롤/NNP
▁코네티컷/NNP
▁큐브/NNP
▁클린턴/NNP
▁펄/NNG
▁포털/NNG
▁프로그래머/NNG
▁프리랜서/NNG
▁피난/NNG
▁후세/NNG
군주/NNG
기금/NNG
변수/NNG
세종/NNP
울산/NNP
인력/NNG
컴퓨터/NNG
73/SN
ja/SL
none/SL
▁1,500/SN
▁2018.07/SN
▁220/SN
▁Line/SL
▁Mix/SL
▁V./SL
▁||+/SW
▁감성/NNG
▁고인돌/NNG
▁공저/NNG
▁디스/NNP
▁디스코그래피/NNG
▁레이트/NNP
▁리얼/NNG
▁리오/NNP
▁목조/NNG
▁버지니아주/NNP
▁번역가/NNG
▁보강/NNG
▁보위/NNG
▁부류/NNG
▁분하/VA
▁사토시/NNP
▁생물학자/NNG
▁소외/NNG
▁안치/NNG
▁애틀랜틱/NNP
▁올드/NNG
▁용사/NNG
▁은혜/NNG
▁이탈리아인/NNG
▁적외선/NNG
▁전도/NNG
▁전복/NNG
▁제천시/NNP
▁조세/NNG
▁조엘/NNP
▁지린/NNP
▁지오/NNP
▁참/NNG
▁초판/NNG
▁칼날/NNG
▁컴백/NNG
▁코펜하겐/NNP
▁타이탄/NNP
▁평탄/NNG
▁한국독립당/NNP
▁헤르만/NNP
▁화음/NNG
▁흥선대원군/NNP
나리/NNG
내일/NNG
대부/NNG
보통학교/NNG
상품/NNG
선발/NNG
슬/MAG
저/NNG
종류/NNG
팬/NNG
JR/SL
top/SL
▁6.25/SN
▁From/SL
▁Great/SL
▁Times/SL
▁del/SL
▁갈/VV
▁교통사고/NNG
▁대단히/MAG
▁던/NNP
▁도르트문트/NNP
▁두루/MAG
▁득점왕/NNG
▁딕/NNP
▁마늘/NNG
▁메디치/NNP
▁모범/NNG
▁변혁/NNG
▁보다/JKB
▁복음주의/NNG
▁볼로냐/NNP
▁설화/NNG
▁스칸디나비아/NNP
▁쓰레기/NNG
▁아르바이트/NNG
▁암/MM
▁연중/NNG
▁염증/NNG
▁우리나라/NNG
▁유라시아/NNP
▁유럽인/NNG
▁율리우스/NNP
▁이득/NNG
▁장난/NNG
▁주계열/NNP
▁진구/NNP
▁진전/NNG
▁진흥/NNG
▁컨셉/NNG
▁태아/NNG
▁폐기물/NNG
▁하류/NNG
▁함경북도/NNP
▁합창/NNG
▁히브리어/NNP
그대/NP
보통/NNG
선택/NNG
성경/NNG
잇/NNG
정지/NNG
통치/NNG
학기/NNG
1932/SN
74/SN
78/SN
82/SN
col/SL
rd/SL
▁1.2/SN
▁125/SN
▁1846/SN
▁2008./SN
▁5./SB
▁AG/SL
▁EC/SL
▁EXO/SL
▁Super/SL
▁White/SL
▁official/SL
▁가마/NNG
▁가온/NNG
▁갚/VV
▁괴롭히/VV
▁근/NNG
▁기권/NNG
▁논리학/NNG
▁단거리/NNG
▁디랙/NNP
▁마다가스카르/NNP
▁망하/VV
▁물결/NNG
▁반란군/NNG
▁받들/VV
▁백악관/NNP
▁보리/NNG
▁볼셰비키/NNP
▁북대서양/NNP
▁사카모토/NNP
▁수법/NNG
▁수역/NNG
▁아시리아/NNP
▁아줌마/NNG
▁연장전/NNG
▁오미/NNP
▁이리/MAG
▁이천시/NNP
▁인공위성/NNG
▁일괄/NNG
▁재학/NNG
▁제품군/NNG
▁주조/NNG
▁즉각/MAG
▁추석/NNG
▁카토/NNP
▁칸국/NNP
▁파츠/NNG
▁패럴림픽/NNG
▁평택/NNP
▁화장/NNG
국회/NNG
기본/NNG
논문/NNG
맥락/NNG
밥/NNG
분류/NNG
서기/NNG
순/MM
위반/NNG
인식/NNG
족/XR
주기/NNG
지느러미/NNG
휘/MAG
▁1812/SN
▁1840/SN
▁Jr./SL
▁Last/SL
▁NATO/SL
▁Not/SL
▁Two/SL
▁up/SL
▁경쟁력/NNG
▁고모/NNG
▁니시/NNP
▁대단/XR
▁데스/NNG
▁동성애/NNG
▁동향/NNG
▁레코딩/NNG
▁류큐/NNP
▁미래통합당/NNG
▁배달/NNG
▁베팅/NNG
▁브라이언트/NNP
▁상정/NNG
▁생체/NNG
▁세이브/NNG
▁수염/NNG
▁수페르리가/NNP
▁습관/NNG
▁원로원/NNG
▁위나라/NNP
▁유성/NNG
▁이단/NNG
▁전국동시지방선거/NNP
▁제퍼슨/NNP
▁직할/NNG
▁짐/NNG
▁짱구/NNG
▁최소한/MAG
▁추서/NNG
▁출석/NNG
▁켄터키/NNP
▁크레이그/NNP
▁타이틀곡/NNG
▁타카하시/NNG
▁톤/NNG
▁퇴위/NNG
▁퇴적/NNG
▁트/VV
▁트램/NNG
▁평상시/NNG
▁평창군/NNP
▁프라이스/NNP
▁혈관/NNG
냐는/ETM
농업/NNG
서/JKS
자/VV
85/SN
William/SL
ᆸ/Z_CODA
▁AMD/SL
▁Church/SL
▁God/SL
▁←/SW
▁강화도/NNP
▁고의/NNG
▁공황/NNG
▁교토부/NNG
▁날/VV
▁닦/VV
▁도적/NNG
▁도청/NNG
▁라파예트/NNP
▁러일/NNP
▁로이드/NNP
▁마일/NNB
▁마포구/NNP
▁매직/NNP
▁매튜/NNP
▁모하메드/NNP
▁목장/NNG
▁몬테/NNP
▁미네소타/NNP
▁미하일/NNP
▁밝혀내/VV
▁배상/NNG
▁버그/NNG
▁부산시/NNP
▁분단/NNG
▁빨강/NNG
▁사우디/NNP
▁성지/NNG
▁솔/NNG
▁수단/NNP
▁스테판/NNP
▁스트림/NNP
▁신흥/NNG
▁영미/NNP
▁우울/NNG
▁웬디/NNP
▁위촉/NNG
▁유생/NNG
▁저수지/NNG
▁전함/NNG
▁정렬/NNG
▁정실/NNG
▁창조과학/NNP
▁캐논/NNP
▁캠벨/NNP
▁통용/NNG
▁파편/NNG
▁포천시/NNP
▁프레드/NNP
▁해인/NNP
▁햄/NNG
▁휘말리/VV
▁휠체어/NNG
가게/NNG
가정/NNG
광장/NNG
그리고/MAJ
대군/NNG
데이터/NNG
마지막/NNG
보좌관/NNG
서/EC
소련/NNP
순환/NNG
신고/NNG
여/JKV
운전/NNG
일요일/NNG
참의/NNG
총괄/NNG
편집/NNG
행성/NNG
08/SN
89/SN
PD/SL
border/SL
▁AM/SL
▁Festival/SL
▁May/SL
▁USA/SL
▁USB/SL
▁가도/NNG
▁각료/NNG
▁국내선/NNG
▁그레이스/NNP
▁까닭/NNG
▁남원시/NNP
▁네덜란드인/NNG
▁다비드/NNP
▁데려가/VV
▁동참/NNG
▁레이/NNG
▁메뉴/NNG
▁모색/NNG
▁밭/NNG
▁붓/VV-I
▁붙잡/VV-R
▁브룩스/NNP
▁빈센트/NNP
▁산청군/NNP
▁소음/NNG
▁수사관/NNG
▁승단/NNG
▁씻/VV-R
▁엔트로피/NNG
▁여학생/NNG
▁열심히/MAG
▁염/NNG
▁영국령/NNG
▁위스콘신/NNP
▁유적지/NNG
▁이아지게스족/NNG
▁인천국제공항/NNP
▁적재/NNG
▁종로/NNP
▁종착역/NNG
▁준수/NNG
▁지배자/NNG
▁진심/NNG
▁참가국/NNG
▁체인지/NNG
▁추계/NNG
▁치아/NNG
▁카라/NNP
▁터빈/NNG
▁파랗/VA-I
▁펴/VV
▁편견/NNG
▁해설가/NNG
▁회차/NNG
▁히토미/NNP
경기도/NNP
그녀/NP
단장/NNG
의사당/NNG
이케/MAG
주주/NNG
표준/NNG
필요/NNG
해방/NNG
Don/SL
▁개그/NNG
▁곱/NNG
▁군중/NNG
▁기업가/NNG
▁노름/NNG
▁농사/NNG
▁두뇌/NNG
▁라스베이거스/NNP
▁레니/NNP
▁로얄/NNG
▁마르셀/NNP
▁매수/NNG
▁미우라/NNP
▁민병대/NNG
▁박상/NNP
▁법과/NNG
▁부르고뉴/NNP
▁빌 바/NNP
▁사도/NNG
▁스카우트/NNG
▁습득/NNG
▁아이작/NNP
▁악어/NNG
▁야망/NNG
▁연하/VA
▁완주군/NNP
▁왕세자/NNG
▁요금소/NNP
▁우파/NNG
▁이준/NNP
▁인터랙티브/NNG
▁자바스크립트/NNP
▁잠정/NNG
▁재미있/VA
▁제국주의/NNG
▁중형/NNG
▁지인/NNG
▁차/VV
▁케플러/NNP
▁코리/NNP
▁크라운/NNP
▁타/MM
▁트레이닝/NNG
▁평/NNB
▁폼/NNG
▁현행/NNG
▁호응/NNG
공/NNB
누구/NP
설비/NNG
원리/NNG
입구/NNG
잔/NNG
정규직/NNG
종교/NNG
집회/NNG
쪽/NNG
07/SN
110/SN
1930/SN
▁King/SL
▁News/SL
▁State/SL
▁TBC/SL
▁YG/SL
▁가신/NNG
▁결의안/NNG
▁고딕/NNG
▁과목/NNG
▁과잉/NNG
▁관현악/NNG
▁구스타프/NNP
▁국철/NNG
▁그저/MAG
▁김광/NNP
▁다이빙/NNG
▁대변/NNG
▁더글라스/NNP
▁동창/NNG
▁르네/NNP
▁마커스/NNP
▁메일/NNG
▁명확히/MAG
▁무찌르/VV
▁물류/NNG
▁민감/NNG
▁발사체/NNG
▁본체/NNG
▁봉인/NNG
▁불가/NNG
▁빌라/NNG
▁사설/NNG
▁새뮤얼/NNP
▁새천년민주당/NNP
▁샌디에이고/NNP
▁서정/NNG
▁세토/NNP
▁쇼난/NNP
▁수산/NNG
▁쏟/VV-R
▁야/NNG
▁에밀/NNP
▁엮/VV
▁요리사/NNG
▁우상/NNG
▁우한/NNP
▁유언/NNG
▁응급/NNG
▁잘리/VV
▁저스틴/NNP
▁전무/NNG
▁정철/NNP
▁진천/NNP
▁초신성/NNG
▁춘/NNG
▁취락/NNG
▁카잔/NNP
▁콘퍼런스/NNG
▁파이프/NNG
▁페르난도/NNP
▁평의회/NNG
▁해적당/NNP
は/SW
모리/NNG
범위/NNG
아름답/VA-I
오늘날/NNG
올해/NNG
원칙/NNG
월드/NNG
으러/EC
으시/EP
정류장/NNG
400/SN
American/SL
Q/SL
ᆸ니까/EF
▁Christian/SL
▁George/SL
▁Hall/SL
▁Information/SL
▁Kim/SL
▁SP/SL
▁Soul/SL
▁TOP/SL
▁le/SL
▁고속버스/NNG
▁교육자/NNG
▁급속/NNG
▁끌려가/VV
▁노먼/NNP
▁노후/NNG
▁니혼/NNG
▁단면/NNG
▁대뇌/NNG
▁대대로/MAG
▁대패/NNG
▁도피/NNG
▁룸/NNG
▁마왕/NNP
▁모니터/NNG
▁모스/NNP
▁부총리/NNG
▁생리학/NNG
▁수락/NNG
▁수훈/NNG
▁심화/NNG
▁아이패드/NNP
▁알렉산드리아/NNP
▁연소/NNG
▁예고/NNG
▁오스트레일리아인/NNP
▁오클라호마/NNP
▁와카/NNP
▁왕정/NNG
▁용감/XR
▁울트라/NNG
▁위그노/NNP
▁익명/NNG
▁입헌/NNG
▁자제/NNG
▁재벌/NNG
▁전담/NNG
▁점성/NNG
▁제너럴/NNP
▁청각/NNG
▁최선/NNG
▁최소한/NNG
▁최종전/NNG
▁통일신라/NNP
▁트랜스포머/NNP
▁폴란드인/NNP
▁해마다/MAG
▁홍성군/NNP
그렇/VA-I
댄스/NNG
무늬/NNG
미/XPN
법관/NNG
살인/NNG
수술/NNG
아시아/NNP
오/IC
오프/NNG
유예/NNG
죽/VV
차관/NNG
틀/NNG
협상/NNG
회전/NNB
94/SN
THE/SL
▁LED/SL
▁게일/NNP
▁경신/NNG
▁고야/NNP
▁구단주/NNG
▁남송/NNP
▁내력/NNG
▁누리/NNG
▁뉴올리언스/NNP
▁대국/NNG
▁대시/NNG
▁데이브/NNP
▁바젤/NNP
▁배드민턴/NNG
▁보리스/NNP
▁부사장/NNG
▁부수/NNG
▁브리튼/NNP
▁셀/NNP
▁스탠드/NNG
▁시니어/NNG
▁신원/NNG
▁실권/NNG
▁아종/NNP
▁악곡/NNG
▁악성/NNG
▁안개/NNG
▁안성시/NNP
▁애덤스/NNP
▁에드/NNP
▁엔젤/NNG
▁역세권/NNG
▁오르간/NNG
▁와세다/NNP
▁원산지/NNG
▁자주/NNG
▁전동/NNP
▁전수/NNG
▁전염병/NNG
▁전학/NNG
▁주화/NNG
▁청풍/NNP
▁쿠알라룸푸르/NNP
▁파리/NNG
▁파문/NNG
▁파인/NNG
▁폴리/NNG
▁해독/NNG
▁황자/NNP
▁후원자/NNG
가지/NNG
건강/NNG
공화당/NNP
려던/ETM
숭/NNG
시립/NNG
예/IC
옹/NNB
으/NNG
인증/NNG
절차/NNG
정원/NNG
취급/NNG
폭력/NNG
폭탄/NNG
폴/NNG
한정/NNG
62/SN
SS/SL
▁1842/SN
▁1854/SN
▁1879/SN
▁240/SN
▁4,000/SN
▁AT/SL
▁CCTV/SL
▁Technology/SL
▁UFC/SL
▁감리교/NNP
▁거/MM
▁경보/NNG
▁군함/NNG
▁궤간/NNP
▁그레고리/NNP
▁녹/VV
▁대군/NNG
▁로리/NNP
▁마주치/VV
▁목판/NNG
▁몰년/NNG
▁백만/NR
▁벨라/NNP
▁보수당/NNP
▁복음서/NNG
▁볼프강/NNP
▁빌/VV
▁삼각주/NNG
▁서구/NNG
▁알아보/VV
▁앨라배마/NNP
▁양보/NNG
▁어미/NNG
▁어찌/MAG
▁이거/NP
▁인도차이나/NNP
▁잉카/NNP
▁자질/NNG
▁전구/NNG
▁정신과/NNG
▁주일/NNG
▁주임/NNG
▁주체사상/NNG
▁차우셰스쿠/NNP
▁척수/NNG
▁추/VV
▁춘천시/NNP
▁출동/NNG
▁친족/NNG
▁특전/NNG
▁파면/NNG
▁포토/NNG
▁향교/NNG
▁허베이/NNP
▁헌병/NNG
▁황소/NNG
가요제/NNG
개편/NNG
고/XPN
단편/NNG
두/VV
면역/NNG
미스/NNG
버전/NNG
뼈/NNG
스타일/NNG
연금/NNG
요/NNG
운동장/NNG
한국어/NNP
효율/NNG
61/SN
84/SN
International/SL
colspan/SL
ᆯ게/EF
℃/SW
▁2011-12/W_SERIAL
▁2루수/NNG
▁CIA/SL
▁CP/SL
▁Human/SL
▁feat./SL
▁가중/NNG
▁경찰청/NNG
▁국어/NNG
▁근세/NNG
▁급/NNG
▁김윤/NNP
▁김홍/NNP
▁깨어나/VV
▁나리타/NNP
▁대표자/NNG
▁도보/NNG
▁레이건/NNP
▁루시엔/NNP
▁마루/NNG
▁메가/NNB
▁바이오/NNG
▁버틀러/NNP
▁벤처/NNG
▁상경/NNG
▁설문/NNG
▁성/NNP
▁세례/NNG
▁순차/NNG
▁시몬/NNP
▁시정/NNG
▁실드/NNP
▁안톤/NNP
▁엘리엇/NNP
▁여유/NNG
▁연천군/NNP
▁오타/NNG
▁온타리오/NNP
▁유마/NNP
▁음경/NNG
▁절약/NNG
▁정적/NNG
▁제곱/NNG
▁제조사/NNG
▁줄무늬/NNG
▁중일/NNG
▁지선/NNP
▁직관/NNG
▁창녕군/NNP
▁코퍼레이션/NNP
▁탄약/NNG
▁파/VV
▁포식자/NNG
▁포커/NNG
▁하남/NNP
▁환승역/NNG
결/NNG
북부/NNG
사법/NNG
생성/NNG
영웅/NNG
이여/JKV
인수/NNG
취/NNG
텔레비전/NNG
하트/NNG
합격/NNG
92/SN
▁1855/SN
▁2004./SN
▁Foundation/SL
▁OB/SL
▁Service/SL
▁int/SL
▁가극단/NNG
▁간략/XR
▁감찰/NNG
▁광도/NNG
▁그릇/NNG
▁금강산/NNP
▁깨끗하/VA
▁눕/VV-I
▁니콜라/NNP
▁동조/NNG
▁램프/NNG
▁레즈비언/NNG
▁로드리게스/NNP
▁로마자/NNG
▁마이니치/NNP
▁면/XR
▁모금/NNG
▁목적지/NNG
▁밸런스/NNG
▁변증법/NNG
▁병과/NNG
▁보조금/NNG
▁보좌관/NNG
▁북극/NNP
▁산시성/NNP
▁세월호/NNP
▁소방서/NNG
▁소행성대/NNP
▁슬로바키아의/NNG
▁신문사/NNG
▁아가씨/NNG
▁악단/NNG
▁에스토니아의/NNG
▁역사학/NNG
▁외과/NNG
▁운수/NNG
▁이를테면/MAG
▁잃/VA
▁저해/NNG
▁조던/NNP
▁종래/NNG
▁종묘/NNG
▁중학/NNG
▁증폭/NNG
▁차용/NNG
▁촉발/NNG
▁총통/NNG
▁치루/VV
▁카간/NNP
▁카이로/NNP
▁카프/NNP
▁쿼크/NNG
▁타이거/NNP
▁터/NNG
▁포탄/NNG
▁필연/NNG
▁항우/NNP
▁황색/NNG
구단/NNG
니/EF
또/MAG
롱/NNG
멤버/NNG
면적/NNG
변속기/NNG
보궐/NNG
블/VX
자산/NNG
판/NNB
120/SN
University/SL
▁1심/NNG
▁CM/SL
▁IP/SL
▁Reference/SL
▁Studies/SL
▁vocal/SL
▁故/SH
▁가가와/NNP
▁결/NNG
▁결별/NNG
▁고흥군/NNP
▁관내/NNG
▁관현악단/NNG
▁구금/NNG
▁군도/NNG
▁그래미/NNP
▁글렌/NNP
▁끊기/VV
▁넷째/NR
▁농/NNG
▁대리인/NNG
▁대좌/NNG
▁던전/NNP
▁되도록/MAG
▁드디어/MAG
▁레드삭스/NNP
▁로큰롤/NNP
▁막시밀리안/NNP
▁말단/NNG
▁몰타/NNP
▁무관/NNG
▁무라카미/NNP
▁바리/NNP
▁바퀴/NNG
▁배트맨/NNP
▁버나드/NNP
▁버진/NNP
▁번갈/VV
▁보복/NNG
▁보수주의/NNG
▁분사/NNG
▁불변/NNG
▁브리티시/NNP
▁사암/NNG
▁서자/NNG
▁시트/NNG
▁안방/NNG
▁양육/NNG
▁언어학/NNG
▁에드먼드/NNP
▁에밀리/NNP
▁연정/NNG
▁워크/NNG
▁윗/NNG
▁유우/NNP
▁은평구/NNP
▁의논/NNG
▁일러스트/NNG
▁일요/NNG
▁자아/NNG
▁잔여/NNG
▁잠입/NNG
▁절벽/NNG
▁채취/NNG
▁초안/NNG
▁카운터/NNG
▁컷/NNG
▁콜로니/NNP
▁크릭/NNP
▁테너/NNG
▁파병/NNG
▁파직/NNG
▁패킷/NNP
▁해파리/NNG
が/SW
新羅/SH
공정/NNG
노트/NNG
리터/NNB
복음/NNG
아래/NNG
이/NNG
종목/NNG
좌석/NNG
주로/MAG
퍼/NNG
호텔/NNG
ᆸ시다/EF
▁--/SO
▁03/SN
▁1814/SN
▁Cup/SL
▁League/SL
▁감금/NNG
▁거제/NNP
▁겁/NNG
▁결과물/NNG
▁경계선/NNG
▁계몽/NNG
▁구/MM
▁군위군/NNP
▁균/NNG
▁그래픽스/NNG
▁급격/XR
▁나오키/NNP
▁낭독/NNG
▁능동/NNG
▁다면체/NNG
▁다툼/NNG
▁대부/NNG
▁더블린/NNP
▁데이먼/NNP
▁도발/NNG
▁디렉터/NNG
▁모함/NNG
▁미인/NNG
▁미주리/NNP
▁미첼/NNP
▁민/NNG
▁배리/NNP
▁번개/NNG
▁보루시아/NNG
▁분수/NNG
▁비행장/NNG
▁사로잡히/VV
▁사이클론/NNP
▁사회민주당/NNP
▁살인자/NNG
▁살피/VV
▁삼척시/NNP
▁성주/NNP
▁슬로건/NNG
▁실사/NNG
▁쌍방울/NNP
▁암흑/NNG
▁오카다/NNP
▁우연/NNG
▁유년기/NNG
▁유아기/NNG
▁응우옌/NNG
▁잠기/VV
▁장래/NNG
▁제갈량/NNP
▁제레미/NNP
▁조합상/NNG
▁좀비/NNG
▁중년/NNG
▁진수/NNP
▁천천히/MAG
▁첫사랑/NNG
▁출판물/NNG
▁친위대/NNG
▁타구/NNG
▁턴/NNG
▁톈진/NNP
▁파주/NNP
▁포터블/NNP
▁합천군/NNP
▁해킹/NNG
▁환경부/NNG
▁황산/NNG
계층/NNG
빵/NNG
상담/NNG
수상/NNG
여우/NNG
전지/NNG
증후군/NNG
Paul/SL
ha/SL
†/SW
▁04./SN
▁1592/SN
▁175/SN
▁2007./SN
▁2014-15/W_SERIAL
▁6./SB
▁GT/SL
▁ISU/SL
▁NGC/SL
▁States/SL
▁U.C./SL
▁Volume/SL
▁love/SL
▁…/SE
▁○/SW
▁간단하/VA
▁간혹/MAG
▁거꾸로/MAG
▁거문고/NNG
▁건네/VV
▁고고/NNG
▁공연장/NNG
▁과자/NNG
▁교제/NNG
▁농산물/NNG
▁능하/VA
▁닭/NNG
▁두바이/NNP
▁라라/NNP
▁레고/NNP
▁룰/NNG
▁망/NNG
▁모션/NNG
▁문자열/NNP
▁방사능/NNG
▁방화/NNG
▁보류/NNG
▁보은군/NNP
▁북서/NNG
▁뷰/NNG
▁브레이브스/NNP
▁서울역/NNP
▁습지/NNG
▁아르/NNP
▁어스/NNP
▁언어학자/NNG
▁여정/NNG
▁역습/NNG
▁오나라/NNP
▁온화/XR
▁이메일/NNG
▁자라나/VV
▁잘못/NNG
▁잠들/VV
▁전세/NNG
▁절정/NNG
▁제창/NNG
▁제헌/NNG
▁집착/NNG
▁천거/NNG
▁카스티야/NNP
▁케인/NNP
▁풍속/NNG
▁하비/NNP
▁학칙/NNG
▁할리/NNP
▁허블/NNP
▁헤어/NNG
▁횡령/NNG
겨울/NNG
군정/NNG
발전소/NNG
방지/NNG
복지부/NNG
사원/NNG
상대/NNG
습니까/EF
여부/NNG
왕국/NNG
주인/NNG
태권도/NNG
하루/NNG
하이/NNG
혈압/NNG
화음/NNG
ANIS/SL
g./SL
▁07/SN
▁2012-13/W_SERIAL
▁2020-21/W_SERIAL
▁Green/SL
▁Money/SL
▁Oxford/SL
▁So/SL
▁Web/SL
▁Website/SL
▁s/SL
▁거미/NNG
▁겐지/NNP
▁관제/NNG
▁광역시/NNG
▁구경/NNG
▁군벌/NNG
▁기장/NNG
▁긴테쓰/NNG
▁김준/NNP
▁나름/NNB
▁나오미/NNP
▁댄서/NNG
▁드래곤즈/NNP
▁레닌/NNP
▁못/NNG
▁미카엘/NNP
▁반성/NNG
▁방치/NNG
▁번창/NNG
▁불행/NNG
▁사이즈/NNG
▁사회학자/NNG
▁삼림/NNG
▁삽입곡/NNG
▁생식/NNG
▁서태지/NNP
▁석조/NNG
▁송환/NNG
▁수교/NNG
▁수크로스/NNP
▁신도비/NNP
▁압둘/NNP
▁약점/NNG
▁영정/NNG
▁오리건/NNP
▁용산구/NNP
▁원화/NNG
▁인터/NNG
▁자외선/NNG
▁장쑤성/NNP
▁장원/NNG
▁재편/NNG
▁저격/NNG
▁중등/NNG
▁중앙부/NNG
▁중앙일보/NNP
▁진료/NNG
▁찍히/VV
▁출격/NNG
▁커리/NNP
▁켈트/NNP
▁타락/NNG
▁펠릭스/NNP
▁하산/NNG
▁하이드/NNP
▁학장/NNG
▁한양대/NNP
▁한족/NNP
고양이/NNG
기술부/NNG
명탐정/NNG
솔/NNG
약/MM
오픈/NNG
와/IC
우편/NNG
전문학교/NNG
정주/NNG
조작/NNG
출신/NNG
코스/NNG
포트/NNG
현황/NNG
회계/NNG
Feat./SL
GB/SL
▁00/SN
▁1851/SN
▁1867/SN
▁2013-14/W_SERIAL
▁NBC/SL
▁Smith/SL
▁version/SL
▁±/SL
▁거품/NNG
▁게시판/NNG
▁경상/NNP
▁고소/NNG
▁관청/NNG
▁그거/NP
▁그라운드/NNG
▁그레고리오/NNP
▁농협/NNP
▁다케다/NNP
▁대니얼/NNP
▁대상자/NNG
▁대영제국/NNP
▁대타/NNG
▁라파엘/NNP
▁릴/NNG
▁매사추세츠주/NNP
▁무궁화/NNG
▁바오로/NNP
▁받치/VV
▁밸리/NNP
▁버터/NNG
▁베드로/NNP
▁베스타/NNP
▁본국/NNG
▁셈/NNB
▁수녀/NNG
▁쉬페르리그/NNP
▁스틸러스/NNP
▁시모노세키/NNP
▁시흥시/NNP
▁신데렐라/NNP
▁썰/VV
▁아열대/NNG
▁엘비스/NNP
▁옥천군/NNP
▁유고/NNP
▁유족/NNG
▁의례/NNG
▁일람/NNP
▁자결/NNG
▁조경/NNG
▁중상/NNG
▁지청/NNG
▁창립자/NNG
▁총기/NNG
▁충청도/NNP
▁침체/NNG
▁캔/NNG
▁테드/NNP
▁퇴직/NNG
▁패자/NNG
▁퍼펙트/NNG
▁편안/NNG
▁프란체스코/NNP
▁필하모닉/NNP
▁할인/NNG
▁후쿠이/NNP
▁휘두르/VV
▁휴관/NNG
▁휴일/NNG
い/SW
가격/NNG
경상남도/NNP
고교/NNG
공작/NNG
도움/NNG
맹/NNP
몸/NNG
발사/NNG
버그/NNG
연수원/NNG
예방/NNG
예산/NNG
완성/NNG
총/NNG
▁1820/SN
▁1853/SN
▁2016./SN
▁270/SN
▁I./SL
▁Little/SL
▁Online/SL
▁PS/SL
▁People/SL
▁SA/SL
▁Space/SL
▁border/SL
▁«/SL
▁가브리엘/NNP
▁간신히/MAG
▁강화/NNP
▁건전/NNG
▁결말/NNG
▁극본/NNG
▁기량/NNG
▁김유/NNP
▁노이즈/NNG
▁단서/NNG
▁당내/NNG
▁대접/NNG
▁대치/NNG
▁들/NNG
▁레나/NNP
▁만점/NNG
▁메우/VV
▁모니터링/NNG
▁묘비/NNG
▁무명/NNG
▁바르/VV
▁받침/NNG
▁보살/NNG
▁보이즈/NNG
▁북측/NNG
▁불륜/NNG
▁브리타니아/NNP
▁사무라이/NNG
▁쇼크/NNG
▁신조어/NNG
▁오스카/NNP
▁완수/NNP
▁왕건/NNP
▁이제/MAG
▁일화/NNG
▁자가/NNG
▁자작/NNG
▁저상/NNG
▁종식/NNG
▁청장/NNG
▁치하/NNG
▁카렌/NNP
▁타로/NNP
▁펌프/NNG
▁하남시/NNP
▁항원/NNG
▁해설자/NNG
▁행운/NNG
같이/JKB
교육원/NNG
근/NNB
담/NNG
라고/EF
본명/NNG
심리학/NNG
싱/NNP
어사/NNG
유공자/NNG
재정/NNG
지소/NNG
텐/NNG
National/SL
▁1-1/W_SERIAL
▁102/SN
▁2021./SN
▁Awards/SL
▁CW/SL
▁Guide/SL
▁Home/SL
▁nm/SL
▁건/NNB
▁겨루/VV
▁경호/NNG
▁곁들이/VV
▁공안/NNG
▁광선/NNG
▁구실/NNG
▁국방군/NNG
▁그릴/NNG
▁기무라/NNP
▁기밀/NNG
▁달서구/NNP
▁대표단/NNG
▁뛰어넘/VV
▁맨/NNG
▁무성/NNG
▁미녀/NNG
▁미드/NNP
▁미주리주/NNP
▁방문객/NNG
▁벤치/NNG
▁변광성/NNP
▁분교/NNG
▁분출/NNG
▁샐리/NNP
▁섬세/XR
▁쇼군/NNG
▁신시/NNP
▁아이파크/NNP
▁알프레드/NNP
▁언더/NNG
▁얼/NNG
▁연잇/VV-I
▁염소/NNG
▁옆면/NNG
▁유가/NNG
▁입수/NNG
▁전각/NNG
▁정관/NNG
▁정읍시/NNP
▁종군/NNG
▁중수/NNG
▁천도/NNG
▁춘계/NNG
▁케리/NNP
▁클럭/NNG
▁팔달문/NNP
▁팰컨/NNP
▁페텔/NNG
▁풍습/NNG
▁프레디/NNP
▁플루토늄/NNG
▁피라미드/NNG
▁하인/NNG
▁항소/NNG
▁헬렌/NNP
▁회고/NNG
공공/NNG
밀/NNG
불/NNB
아내/NNG
이것/NP
제조/NNG
중계/NNG
04/SN
▁1758/SN
▁1856/SN
▁2010-11/W_SERIAL
▁Charles/SL
▁EMI/SL
▁Les/SL
▁Year/SL
▁경종/NNG
▁고/NNP
▁고난/NNG
▁관문/NNG
▁기사단/NNP
▁김옥균/NNP
▁낚시/NNG
▁뉴욕시/NNP
▁단/NNG
▁대인/NNG
▁독수리/NNG
▁로널드/NNP
▁마디/NNG
▁마침/MAG
▁명곡/NNG
▁명분/NNG
▁모양/NNB
▁미야기현/NNG
▁미터/NNG
▁밀리/NNB
▁바로크/NNG
▁발목/NNG
▁부수/VV
▁분과/NNG
▁뾰족/MAG
▁서대문구/NNP
▁숙소/NNG
▁슈퍼히어로/NNP
▁스타워즈/NNP
▁스태미너/NNG
▁스트로/NNP
▁시네마즈/NNG
▁시마네/NNP
▁식스/NNG
▁야스시/NNG
▁외교부/NNG
▁요건/NNG
▁요코하마시/NNP
▁유즈/NNP
▁의성군/NNP
▁이룩/XR
▁이언/NNP
▁자기/NNG
▁정작/NNG
▁조회/NNG
▁채굴/NNG
▁최진영/NNP
▁충칭/NNP
▁컨트롤러/NNG
▁크리스티나/NNP
▁타이어/NNG
▁파블로/NNP
▁프란시스코/NNP
▁핵분열/NNG
▁헤더/NNG
▁혁명가/NNG
▁환관/NNG
▁후세인/NNP
▁후지와라/NNP
【/SSO
관찰사/NNG
나요/EF
문/NNB
방위군/NNG
방정식/NNG
소서/EF
신인/NNG
음악회/NNG
이드/NNG
일치/NNG
최초/NNG
칼/NNG
터/NNB
푸르/VA-I
필/NNB
행위자/NNG
회원국/NNG
ᆯ로/JKB
▁107/SN
▁135/SN
▁1839/SN
▁1844/SN
▁About/SL
▁GSL/SL
▁His/SL
▁TOUR/SL
▁c./SL
▁die/SL
▁가루/NNG
▁국수/NNG
▁국한/NNG
▁김제시/NNP
▁남용/NNG
▁눈치/NNG
▁니콜/NNP
▁달력/NNG
▁도약/NNG
▁도에이/NNP
▁돼지고기/NNG
▁떠올리/VV
▁라이프치히/NNP
▁매도/NNG
▁묘역/NNG
▁물리/VV
▁미식축구/NNG
▁밀려나/VV
▁바레인/NNP
▁베르디/NNP
▁베이시스트/NNP
▁복위/NNG
▁부각/NNG
▁북동/NNG
▁사마/NNP
▁사본/NNG
▁사영/NNG
▁세네갈/NNP
▁소대/NNG
▁송진우/NNP
▁쇄골/NNG
▁수상/XR
▁수시/NNG
▁스펜서/NNP
▁시게루/NNP
▁시냅스/NNG
▁쓰/VA
▁안성/NNP
▁양주/NNP
▁양평군/NNP
▁여객기/NNG
▁우울증/NNG
▁웨이브/NNG
▁윌리/NNP
▁인치/NNB
▁자본가/NNG
▁재판관/NNG
▁주역/NNP
▁측실/NNG
▁침대/NNG
▁칭송/NNG
▁크리스탈/NNP
▁클릭/NNG
▁탐험대/NNG
▁태수/NNP
▁품/NNG
▁프롬/NNP
▁항공대/NNP
▁호러/NNP
▁후지와라노/NNG
가량/NNG
검/VA
결성/NNG
고도/NNG
공립/NNG
군인/NNG
마루/NNG
선거법/NNG
아카데미/NNG
유리/NNG
인터넷/NNG
한글/NNG
화물/NNG
63/SN
93/SN
96/SN
▁09/SN
▁1798/SN
▁2020.07/SN
▁Can/SL
▁Days/SL
▁Development/SL
▁KTX/SL
▁SV/SL
▁강변/NNG
▁고창군/NNP
▁공격력/NNG
▁공상/NNG
▁구두/NNG
▁권하/VV
▁그리드/NNP
▁기묘/XR
▁기쁘/VA
▁기차역/NNG
▁나날/NNG
▁낙태/NNG
▁난이도/NNG
▁낯설/VA
▁내포/NNG
▁녀석/NNB
▁노론/NNG
▁노엘/NNP
▁녹이/VV
▁눈동자/NNG
▁닐센/NNP
▁도사/NNG
▁돋보이/VV
▁동맹군/NNG
▁말미암/VV
▁명/NNP
▁모세/NNP
▁모욕/NNG
▁무사히/MAG
▁문교부/NNG
▁민주자유당/NNP
▁반감/NNG
▁반항/NNG
▁버디/NNG
▁번역본/NNG
▁복소/NNG
▁본점/NNG
▁사탄/NNG
▁삼진/NNG
▁상주/NNG
▁생계/NNG
▁서북/NNG
▁성령/NNG
▁세분/NNG
▁수호/NNG
▁스위트/NNG
▁스윙/NNG
▁실재/NNG
▁쓰리/NR
▁악명/NNG
▁안내문/NNG
▁열린우리당/NNP
▁예컨대/MAG
▁오사카시/NNP
▁오토바이/NNG
▁유클리드/NNP
▁음식점/NNG
▁이례/NNG
▁일각/NNG
▁자재/NNG
▁조각가/NNG
▁중엽/NNG
▁질투/NNG
▁청취자/NNG
▁체내/NNG
▁추후/NNG
▁측량/NNG
▁크리에이티브/NNP
▁타협/NNG
▁트라야누스/NNP
▁포화/NNG
▁필/NNP
▁하얼빈/NNP
▁항쟁/NNG
▁해머/NNP
▁헬/NNP
▁호기심/NNG
▁회중/NNG
▁휘/MAG
前/SH
경영자/NNG
기억/NNG
뉴/NNG
마이/NNP
발생/NNG
않/VX
예정자/NNG
유형/NNG
주제/NNG
탈삼진/NNG
페이지/NNG
하/XSN
현실/NNG
화가/NNG
황금/NNG
1931/SN
No/SL
▁007/SN
▁08/SN
▁1-2/W_SERIAL
▁151/SN
▁155/SN
▁1849/SN
▁Fire/SL
▁Free/SL
▁Law/SL
▁Long/SL
▁More/SL
▁Open/SL
▁Summer/SL
▁Thomas/SL
▁UK/SL
▁WCS/SL
▁가라앉/VV
▁거주자/NNG
▁고온/NNG
▁고정점/NNP
▁공영/NNG
▁교동/NNP
▁국문/NNG
▁김천시/NNP
▁김화/NNP
▁나탈리/NNP
▁낭만주의/NNG
▁내/NNG
▁내면/NNG
▁대명사/NNG
▁대통령직/NNG
▁동인도/NNP
▁디나모/NNG
▁로도스/NNP
▁리프트/NNG
▁마르크/NNP
▁마에다/NNP
▁마일스/NNP
▁머리카락/NNG
▁모델링/NNG
▁모질/VA
▁미합중국/NNP
▁미호/NNP
▁바흐/NNP
▁베스트셀러/NNG
▁북경/NNP
▁북송/NNP
▁살짝/MAG
▁생도/NNG
▁선진/NNG
▁술집/NNG
▁스케치/NNG
▁스토어/NNG
▁실정/NNG
▁쌍성/NNP
▁아칸소/NNP
▁알아차리/VV
▁야마자키/NNP
▁에어버스/NNP
▁엔터프라이즈/NNP
▁우월/NNG
▁장애물/NNG
▁재차/MAG
▁점진/NNG
▁정화/NNG
▁조선소/NNG
▁지질학/NNG
▁직물/NNG
▁최우수상/NNG
▁축구팀/NNG
▁카툰/NNP
▁코미디언/NNG
▁쿠라키/NNG
▁클로드/NNP
▁튜브/NNG
▁펀치/NNG
▁해부학/NNG
▁해치/VV
▁홈경기/NNG
▁히로시마현/NNG
가문/NNG
강화/NNG
구동/NNG
니까/EC
매체/NNG
명예/NNG
사업자/NNG
사인/NNG
신청/NNG
아니/VCN
아침/NNG
인원/NNG
조례/NNG
종이/NNG
▁1801/SN
▁Books/SL
▁Christmas/SL
▁Global/SL
▁RCA/SL
▁SK텔레콤/NNP
▁al/SL
▁system/SL
▁van/SL
▁가와사키/NNP
▁개정안/NNG
▁건륭제/NNP
▁결번/NNG
▁공방전/NNG
▁괌/NNP
▁괴/VV
▁군정/NNG
▁급증/NNG
▁김인/NNP
▁내걸/VV
▁니카라과/NNP
▁닛산/NNP
▁덮개/NNG
▁덴쇼/NNP
▁도어/NNG
▁돌궐/NNP
▁등등/NNB
▁마음작용/NNP
▁모의/NNG
▁불러들이/VV
▁사들이/VV
▁사슴/NNG
▁사중주/NNG
▁사쿠라이/NNG
▁상호/NNP
▁색소폰/NNG
▁서거/NNG
▁선양/NNP
▁선율/NNP
▁심리학자/NNG
▁아우/IC
▁아우구스티누스/NNP
▁에리/NNP
▁오오/IC
▁와이드/NNG
▁왕관/NNG
▁요스/NNP
▁유기체/NNG
▁적발/NNG
▁전년도/NNG
▁짐승/NNG
▁채색/NNG
▁철폐/NNG
▁커티스/NNP
▁컨설팅/NNG
▁킹덤/NNP
▁파르마/NNP
▁퍼플/NNP
▁편하/VA
▁하시모토/NNP
▁홀로코스트/NNG
네/EC
두/JX
발표/NNG
부정/NNG
붉/VA
선교/NNG
수행/NNG
연극/NNG
열전/NNG
운용/NNG
윤리/NNG
이탈리아/NNP
정규/NNG
촬영/NNG
출/NNG
태종/NNP
핑/NNG
현감/NNG
혼/NNG
105/SN
@STER/W_MENTION
PM/SL
Robert/SL
α/SW
▁1.1/SN
▁122/SN
▁Encyclopedia/SL
▁Richard/SL
▁Windows/SL
▁YTN/SL
▁public/SL
▁강력/XR
▁개화/NNG
▁객실/NNG
▁거성/NNG
▁경영자/NNG
▁경질/NNG
▁국교/NNG
▁군사력/NNG
▁금산/NNP
▁급성/NNG
▁기고/NNG
▁나카노/NNP
▁논평/NNG
▁니키/NNP
▁다카시/NNP
▁단양/NNP
▁대금/NNG
▁듀엣/NNG
▁마사키/NNP
▁마술사/NNG
▁매기/NNG
▁맥심/NNP
▁메신저/NNG
▁모루/NNG
▁몰두/NNG
▁바쁘/VA
▁발명품/NNG
▁배드/NNG
▁백악기/NNP
▁법전/NNP
▁벚꽃/NNG
▁벵골/NNP
▁변종/NNG
▁복종/NNG
▁사치/NNG
▁상고/NNG
▁서해/NNP
▁소드/NNP
▁쇼트/NNG
▁수식/NNG
▁수프/NNG
▁슛/NNG
▁스톰/NNP
▁시제/NNG
▁시직경/NNP
▁신민당/NNP
▁실각/NNG
▁실은/MAG
▁심근/NNG
▁아라곤/NNP
▁아우르/VV
▁아이스크림/NNG
▁약수/NNG
▁양주시/NNP
▁여류/NNG
▁연방군/NNG
▁요코야마/NNG
▁위조/NNG
▁유로파리그/NNG
▁음주/NNG
▁인지도/NNG
▁자생/NNG
▁장갑차/NNG
▁저조/NNG
▁전락/NNG
▁정선/NNP
▁조나단/NNP
▁주머니/NNG
▁중력파/NNG
▁지치/VV
▁지탱/NNG
▁차녀/NNG
▁챔피언스/NNG
▁천/NNP
▁체크/NNG
▁최익현/NNP
▁침식/NNG
▁클리어/NNG
▁튀어나오/VV
▁포뮬러/NNG
▁폭주/NNG
▁피의자/NNG
▁하급/NNG
▁항체/NNG
▁황해/NNP
▁후사/NNG
▁후천/NNG
▁히로유키/NNP
감각/NNG
강당/NNG
경북/NNP
경상북도/NNP
공군/NNG
권역/NNG
동의/NNG
드리/VX
든지/EC
리라/EF
마/EF
몰/NNG
묵/NNG
새롭/VA-I
쇼핑/NNG
애니박스/NNP
장소/NNG
측정/NNG
파워/NNG
09/SN
All/SL
World/SL
▁1792/SN
▁2000./SN
▁2002./SN
▁2017./SN
▁2019-20/W_SERIAL
▁Blues/SL
▁Boy/SL
▁End/SL
▁How/SL
▁MX/SL
▁감축/NNG
▁개구리/NNG
▁걸그룹/NNG
▁고아/NNG
▁과반/NNG
▁과실/NNG
▁구슬/NNG
▁남단/NNG
▁대한축구협회/NNP
▁도래/NNG
▁등대/NNG
▁라마/NNP
▁리스/NNP
▁리하르트/NNP
▁린/NNG
▁마술/NNG
▁마차/NNG
▁막대/NNG
▁매달리/VV
▁멀티미디어/NNG
▁밀양시/NNP
▁박용/NNP
▁발터/NNP
▁발트/NNP
▁부르/VA
▁부스터/NNP
▁북벌/NNG
▁빠져나가/VV
▁사관/NNG
▁서비스/NNP
▁시속/NNG
▁아카데미상/NNG
▁알/NNP
▁양극/NNG
▁연회/NNG
▁영동군/NNP
▁예산군/NNP
▁왕성/NNG
▁외전/NNG
▁우익수/NNG
▁워/NNG
▁원로/NNG
▁유수/NNG
▁이성계/NNP
▁작센/NNP
▁잔존/NNG
▁잠비아/NNP
▁잼/NNG
▁전란/NNG
▁접어들/VV
▁정재/NNG
▁중소/NNG
▁천지/NNG
▁최다/NNG
▁치료법/NNG
▁침수/NNG
▁칼럼/NNG
▁케이크/NNG
▁콜럼버스/NNP
▁클러스터/NNP
▁틀/VV
▁퍼스/NNP
▁프라임/NNP
▁해저/NNG
▁휘/VV
▁흡사/MAG
人/SH
고백/NNG
국/NNB
뉴욕/NNP
등기/NNG
뜨/VV
명종/NNP
언니/NNG
인자/NNG
전달/NNG
트럭/NNG
▁1.6/SN
▁2019./SN
▁Baby/SL
▁Big/SL
▁Come/SL
▁ID/SL
▁J3리그/NNP
▁MD/SL
▁U.S./SL
▁가까이/NNG
▁간디/NNP
▁감기/NNG
▁게이밍/NNG
▁격리/NNG
▁경부고속도로/NNP
▁경의/NNG
▁곱/VA-I
▁구문/NNG
▁구획/NNG
▁그러면/MAJ
▁급하/VA
▁꾸리/VV
▁내재/NNG
▁너무나/MAG
▁달성군/NNP
▁당수/NNG
▁등기/NNG
▁리본/NNG
▁마키/NNP
▁밤하늘/NNG
▁베르나르/NNP
▁분당/NNP
▁사역/NNG
▁사키/NNP
▁선동/NNG
▁세자/NNG
▁순환선/NNP
▁스님/NNG
▁스칼라/NNP
▁스쿼드/NNG
▁시마즈/NNG
▁심문/NNG
▁안드레아/NNP
▁양력/NNG
▁어종/NNG
▁얼터너티브/NNP
▁에러/NNG
▁에미/NNG
▁에스컬레이터/NNG
▁엘리스/NNP
▁예비역/NNG
▁온게임넷/NNG
▁외무부/NNG
▁위클리/NNP
▁유의/NNG
▁율/NNG
▁이뤄지/VV
▁이산화/NNG
▁이홍/NNP
▁자진/NNG
▁잠깐/MAG
▁전자기/NNG
▁정변/NNG
▁제네시스/NNP
▁조에쓰/NNP
▁중산/NNG
▁참의/NNG
▁청도군/NNP
▁쿠빌라이/NNP
▁태백시/NNP
▁파월/NNP
▁편제/NNG
▁하타/NNP
▁학설/NNG
▁한국방송통신대학교/NNP
▁한중/NNP
▁헤이그/NNP
▁혼돈/NNG
▁후진/NNG
고려/NNP
방어/NNG
보내/VV
새/MM
생/XPN
샤/NNG
서원/NNG
양성/NNG
엄/XR
여/EC
웨어/NNG
일/MM
전라남도/NNP
침/NNG
팔/NNG
학파/NNG
형성/NNG
ᆺ/Z_CODA
▁123/SN
▁129/SN
▁2007-08/W_SERIAL
▁3-1/W_SERIAL
▁3.0/SN
▁3루수/NNG
▁4000/SN
▁Daum/SL
▁Engineering/SL
▁IOC/SL
▁Public/SL
▁Sky/SL
▁history/SL
▁information/SL
▁music/SL
▁Ⅱ/SW
▁①/SW
▁가곡/NNG
▁갑옷/NNG
▁고성/NNP
▁공주/NNP
▁기스/NNG
▁나미/NNP
▁네르바/NNP
▁다윗/NNP
▁대나무/NNG
▁데이즈/NNP
▁라이온스/NNG
▁레지옹/NNG
▁루소/NNP
▁마리우스/NNP
▁마법소녀/NNP
▁마초/NNP
▁모차르트/NNP
▁몬태나/NNP
▁무신/MM
▁박진/NNP
▁방대/XR
▁백과사전/NNG
▁베텔게우스/NNP
▁비트코인/NNP
▁사할린/NNP
▁삼국지/NNP
▁서강대학교/NNP
▁성악가/NNG
▁수호/NNP
▁스탠퍼드/NNP
▁시멘트/NNG
▁쓰시마/NNP
▁예편/NNG
▁오하이오/NNP
▁왕좌/NNG
▁우아/XR
▁음악원/NNG
▁의령군/NNP
▁이와테현/NNG
▁접전/NNG
▁정수/NNG
▁줄리/NNP
▁진천군/NNP
▁징후/NNG
▁참의원/NNG
▁초록색/NNG
▁최고인민회의/NNP
▁친절/NNG
▁키예프/NNP
▁탄수화물/NNG
▁투르크메니스탄/NNP
▁팀원/NNG
▁팜/NNP
▁플로이드/NNP
▁해석학/NNG
▁호르몬/NNG
▁화약/NNG
唐/SH
가운데/NNG
고용/NNG
내각/NNG
룰/NNG
링크/NNG
명사/NNG
베/VV
세/EC
소스/NNG
쇼와/NNP
스페인/NNP
열/NR
정기/NNG
정차/NNG
폴리스/NNG
플레이오프/NNG
PC/SL
What/SL
With/SL
pop/SL
ᆯ러/EC
▁3-0/W_SERIAL
▁Get/SL
▁LG전자/NNP
▁N./SL
▁Now/SL
▁SD/SL
▁Studio/SL
▁me/SL
▁world/SL
▁②/SW
▁가평군/NNP
▁강풍/NNG
▁건달/NNG
▁고로/MAG
▁공법/NNG
▁광업/NNG
▁교감/NNG
▁굳/VA-R
▁규탄/NNG
▁그나마/MAG
▁기악/NNG
▁김선/NNP
▁나오코/NNP
▁당황/NNG
▁동남/NNG
▁레닌그라드/NNP
▁레지스터/NNG
▁료코/NNP
▁메츠/NNP
▁묻/VV-R
▁미소녀/NNP
▁박경/NNP
▁박정/XR
▁버즈/NNP
▁브래드/NNP
▁사서/NNG
▁사진집/NNG
▁서울고등법원/NNP
▁서장/NNG
▁선데이/NNP
▁선명/NNG
▁선진국/NNG
▁쇼핑몰/NNG
▁수력/NNG
▁수색/NNG
▁순창군/NNP
▁스크린도어/NNP
▁승천/NNG
▁아키모토/NNG
▁안드레이/NNP
▁앨버트/NNP
▁에리카/NNP
▁여타/NNG
▁용암/NNG
▁원활/NNG
▁유성구/NNP
▁은거/NNG
▁이적료/NNG
▁자켓/NNG
▁조시/NNP
▁증강/NNG
▁지방산/NNG
▁질주/NNG
▁집적/NNG
▁징수/NNG
▁참패/NNG
▁총사령관/NNG
▁카지노/NNG
▁카탈루냐/NNP
▁파워FM/NNP
▁피루브/NNP
▁호크/NNP
▁홈즈/NNP
▁휴대폰/NNG
▁히카루/NNP
강사/NNG
관리자/NNG
구/EF
글자/NNG
대중/NNG
방안/NNG
부상/NNG
부호/NNG
삼성/NNP
세이브/NNG
심판/NNG
아빠/NNG
이온/NNG
자기/NNG
창작/NNG
캠프/NNG
털/NNG
편/NNG
포장/NNG
학술/NNG
히트/NNG
150/SN
1929/SN
J/SL
cc/SL
ᆯ가/EC
▁1776/SN
▁CSI/SL
▁Chicago/SL
▁Dead/SL
▁Fashion/SL
▁Jean/SL
▁RD/SL
▁Radio/SL
▁Sound/SL
▁Station/SL
▁TOHO/SL
▁new/SL
▁가이아/NNP
▁거제시/NNP
▁건너오/VV
▁결제/NNG
▁결투/NNG
▁고시엔/NNP
▁고찰/NNG
▁교육청/NNG
▁규명/NNG
▁금색/NNG
▁깎/VV
▁끌리/VV
▁논산시/NNP
▁다듬/VV
▁대공국/NNP
▁대종상/NNP
▁돌격/NNG
▁랜/NNG
▁레슬리/NNP
▁로베르토/NNP
▁릴레이/NNG
▁마그마/NNG
▁만인/NNG
▁머큐리/NNP
▁메이드/NNG
▁메이슨/NNP
▁모노이드/NNP
▁몰리/NNP
▁몽/NNP
▁미도리/NNP
▁바디/NNG
▁반대편/NNG
▁발기인/NNG
▁빈도/NNG
▁사외/NNG
▁상훈/NNP
▁서포터/NNG
▁슈페어/NNG
▁신중/NNG
▁신한국당/NNP
▁아즈치모모야마/NNG
▁안소니/NNP
▁알베르트/NNG
▁양수/NNG
▁어시스트/NNG
▁엇갈리/VV
▁영광/NNP
▁영성/NNG
▁예명/NNG
▁요하네스/NNP
▁우디/NNP
▁월/NNB
▁윈터/NNP
▁유틸리티/NNG
▁재외/NNG
▁전전/NNG
▁제이미/NNP
▁주자/NNP
▁즐거움/NNG
▁지령/NNG
▁쫓기/VV
▁챙기/VV
▁처치/NNG
▁충청/NNP
▁카타니아/NNP
▁커플링/NNG
▁콘셉트/NNP
▁탄/NNG
▁평론/NNG
▁프라이/NNP
▁합창단/NNG
回/SH
거리/NNB
그러나/MAJ
미술관/NNG
사태/NNG
연수/NNG
전력/NNG
참여/NNG
캐나다/NNP
81/SN
▁114/SN
▁121/SN
▁2/3/W_SERIAL
▁2003./SN
▁2017-18/W_SERIAL
▁260/SN
▁Network/SL
▁가나자와/NNP
▁거세/VA
▁게오르크/NNP
▁광산구/NNP
▁교관/NNG
▁군역/NNG
▁귀속/NNG
▁급속히/MAG
▁김종/NNP
▁남북조/NNP
▁남하/NNG
▁달려가/VV
▁당기/VV
▁대담/NNG
▁대북/NNG
▁데뷔작/NNG
▁데스크톱/NNP
▁도망가/VV
▁돌출/NNG
▁라벨/NNG
▁라이더/NNG
▁라인강/NNP
▁러시아군/NNG
▁리포트/NNG
▁마도/NNP
▁마이클스/NNG
▁마츠모토/NNG
▁말리/NNP
▁모잠비크/NNP
▁문집/NNG
▁뮤/NNP
▁미쓰비시/NNP
▁방어력/NNG
▁벌레/NNG
▁베스트극장/NNP
▁변/NNP
▁보라색/NNG
▁부산대학교/NNP
▁불분명하/VA
▁불신/NNG
▁사리/NNG
▁사무국/NNG
▁상반/NNG
▁서산시/NNP
▁세/NNB
▁섹션/NNG
▁소용돌이/NNG
▁소피/NNP
▁수필/NNG
▁스마일/NNG
▁스케이트/NNG
▁스티븐스/NNP
▁슬라브/NNP
▁승용차/NNG
▁시공간/NNG
▁아유미/NNP
▁알아내/VV
▁야수/NNG
▁여러분/NP
▁유길준/NNP
▁유년/NNG
▁이수/NNG
▁익/VV
▁익산/NNP
▁인테르나치오날레/NNG
▁일제히/MAG
▁입술/NNG
▁정당하/VA
▁정월/NNG
▁주디/NNP
▁지소/NNG
▁짝사랑/NNG
▁척도/NNG
▁출품/NNG
▁치/NNG
▁카레/NNG
▁캡콤/NNP
▁타나카/NNG
▁통영시/NNP
▁파라오/NNG
▁푸에르토리코/NNP
▁한국은행/NNP
▁한문/NNG
▁헤비웨이트/NNG
고리/NNG
곰/NNG
나누/VV
날개/NNG
방위/NNG
뷰/NNG
수명/NNG
숲/NNG
실/NNB
어족/NNG
엔/NNG
여객/NNG
여기/NP
옆면/NNG
원조/NNG
전원/NNG
채/NNG
치/NNB
텔/NNG
틱/NNG
▁05./SN
▁1.3/SN
▁1/2/W_SERIAL
▁1857/SN
▁2010.07/SN
▁2016-17/W_SERIAL
▁Corporation/SL
▁Design/SL
▁GS칼텍스/NNP
▁IATA/SL
▁Management/SL
▁u/SL
▁w/SL
▁가입자/NNG
▁간장/NNG
▁갈리/VV
▁경무/NNP
▁경시청/NNG
▁곤/NNP
▁공석/NNG
▁공용/NNG
▁관악구/NNP
▁교과/NNG
▁교의/NNG
▁국사/NNG
▁기운/NNG
▁기울어지/VV
▁길거리/NNG
▁깃털/NNG
▁끊어지/VV
▁끼우/VV
▁납부/NNG
▁낸시/NNP
▁단결/NNG
▁단속/NNG
▁도시권/NNP
▁독살/NNG
▁동작을/NNP
▁뒤늦/VA
▁런칭/NNG
▁로베르트/NNP
▁리포터/NNG
▁매디슨/NNP
▁매킨토시/NNP
▁메모/NNG
▁물/VV
▁미겔/NNP
▁미학/NNG
▁발발/MAG
▁버마/NNP
▁베이징시/NNP
▁변모/NNG
▁변호/NNG
▁보령시/NNP
▁본상/NNG
▁부화/NNG
▁비준/NNG
▁사나/NNG
▁성북구/NNP
▁성품/NNG
▁소극/NNG
▁수복/NNG
▁수페르코파/NNG
▁시부야/NNP
▁시키/XSV
▁식용/NNG
▁씌우/VV
▁아리아/NNG
▁아카리/NNP
▁알맞/VA
▁엉덩이/NNG
▁에미상/NNP
▁엠넷/NNP
▁여객선/NNG
▁여의도/NNP
▁오이/NNG
▁왕래/NNG
▁원더/NNP
▁윤리학/NNG
▁임/NNG
▁자립/NNG
▁잔혹/NNG
▁장학/NNG
▁정황/NNG
▁제공자/NNG
▁집사/NNG
▁청룡/NNG
▁케이코/NNP
▁케이프/NNP
▁태블릿/NNP
▁파이터스/NNG
▁폐차/NNG
▁플라톤/NNP
▁한국외국어대학교/NNP
▁한의학/NNG
▁해안가/NNG
▁헌장/NNG
▁화교/NNG
▁화상/NNG
▁흉노/NNP
듯/NNB
레인저/NNP
모/MM
목록/NNG
신학교/NNG
영장/NNG
오리/NNG
자위대/NNG
제/MM
천국/NNG
JTBC/SL
▁1/3/W_SERIAL
▁104/SN
▁117/SN
▁1845/SN
▁708/SN
▁Battle/SL
▁China/SL
▁Control/SL
▁Data/SL
▁Olympedia/SL
▁San/SL
▁That/SL
▁VERBAL/SL
▁are/SL
▁가뭄/NNG
▁강렬/XR
▁게임보이/NNP
▁결여/NNG
▁계약자/NNG
▁공리/NNG
▁그만큼/MAG
▁극찬/NNG
▁김수현/NNP
▁꺼리/VV
▁남측/NNG
▁넘겨주/VV
▁동아리/NNG
▁동해안/NNP
▁뒤따르/VV
▁로렌/NNP
▁마한/NNP
▁막말/NNG
▁만지/VV
▁말러/NNP
▁미네소타주/NNP
▁바바라/NNP
▁박인덕/NNP
▁반납/NNG
▁비누/NNG
▁상기/NNG
▁서두르/VV
▁성동구/NNP
▁세간/NNG
▁소량/NNG
▁순교자/NNG
▁순항/NNG
▁시즈오카/NNP
▁아카이브/NNG
▁악당/NNG
▁애벌레/NNG
▁언젠가/MAG
▁여명/NNP
▁염려/NNG
▁영/NNP
▁영종/NNP
▁오산/NNP
▁오세훈/NNP
▁올랭피크/NNG
▁울산시/NNP
▁유자/NNG
▁의병장/NNG
▁인위/NNG
▁입법부/NNG
▁종자/NNG
▁주둥이/NNG
▁진지/NNG
▁짜/VV
▁창시/NNG
▁철저히/MAG
▁청일/NNP
▁코팅/NNG
▁콜린스/NNP
▁크리스티/NNP
▁클라리넷/NNG
▁태안/NNP
▁투고/NNG
▁트레이너/NNG
▁패딩턴/NNP
▁페터/NNP
▁프란치스코/NNP
▁하동/NNP
▁학술지/NNG
▁혁/NNP
▁확진자/NNG
▁힐러리/NNP
개/NNG
공관/NNG
관왕/NNG
교섭/NNG
국립/NNG
기한/NNG
깊/VA
남매/NNG
레슬러/NNG
루/JKB
마당/NNG
마디/NNG
벤처/NNG
수입/NNG
어리/VA
어머니/NNG
엇/EP
연/MM
영문/NNG
온천/NNG
웰/NNG
체험/NNG
칙/NNG
130/SN
87/SN
A./SL
»/SL
ᆫ다며/EC
▁1803/SN
▁1835/SN
▁1852/SN
▁Korean/SL
▁Publishing/SL
▁Systems/SL
▁Winter/SL
▁all/SL
▁off/SL
▁vs./SL
▁간호/NNG
▁경작/NNG
▁고은/NNP
▁공학자/NNG
▁남해군/NNP
▁낭/NNG
▁다이아/NNP
▁대성전/NNG
▁대진/NNP
▁댓글/NNG
▁동인/NNP
▁동정/NNG
▁동탄/NNP
▁롱기누스/NNP
▁매드/NNP
▁머니/NNG
▁메카/NNP
▁면하/VV
▁모노/NNP
▁모리슨/NNP
▁몹시/MAG
▁뭉치/VV
▁미쿠/NNP
▁미토콘드리아/NNG
▁배수/NNG
▁벨트/NNG
▁변질/NNG
▁부치/VV
▁브레멘/NNP
▁비오/NNP
▁빔/NNP
▁샌드위치/NNG
▁석권/NNG
▁선수상/NNG
▁성화/NNG
▁세/VV
▁세단/NNG
▁소아/NNG
▁소연/NNP
▁소품/NNG
▁수로/NNG
▁수분/NNG
▁스위프트/NNP
▁승강/NNG
▁시야/NNG
▁십자/NNG
▁아키코/NNP
▁안무/NNG
▁약혼/NNG
▁양면/NNG
▁양평/NNP
▁엄/XR
▁에세이/NNG
▁옥상/NNG
▁용액/NNG
▁우먼/NNG
▁유이치/NNP
▁윤보선/NNP
▁윤휴/NNP
▁이바지/NNG
▁자이언트/NNP
▁자행/NNG
▁잡음/NNG
▁재판소/NNG
▁접미사/NNG
▁주심/NNG
▁준하/VV
▁징병/NNG
▁처칠/NNP
▁천수/NNG
▁철종/NNP
▁철학사/NNG
▁체리/NNG
▁탄두/NNP
▁테네시/NNP
▁포르투갈어/NNP
▁피살/NNG
▁헤라클레스/NNP
▁호모/NNG
▁호투/NNG
▁혼혈/NNG
▁황폐/NNG
▁후지타/NNP
▁흑해/NNP
▁흥분/NNG
근무/NNG
내리/VV
디/EF
레벨/NNG
모드/NNG
모임/NNG
민사/NNG
세조/NNP
요법/NNG
위험/NNG
융합/NNG
이사회/NNG
장수/NNG
죽/NNG
직업/NNG
코미디/NNG
환자/NNG
후지/NNP
▁2.4/SN
▁Asia/SL
▁Martin/SL
▁O./SL
▁Saint/SL
▁갈릴레오/NNP
▁격려/NNG
▁결전/NNG
▁과시/NNG
▁글래스고/NNP
▁금연/NNG
▁낙하/NNG
▁내기/NNG
▁내야수/NNG
▁넷/NR
▁농담/NNG
▁다큐/NNG
▁대사헌/NNG
▁도부/NNG
▁독소/NNG
▁동률/NNG
▁되돌아가/VV
▁레버쿠젠/NNP
▁레오나르도/NNP
▁메소포타미아/NNP
▁모스크/NNG
▁몰리에르/NNP
▁박히/VV
▁백업/NNG
▁범죄자/NNG
▁베네딕토/NNP
▁사옥/NNG
▁산스크리트어/NNP
▁산조/NNG
▁상설/NNG
▁서사시/NNG
▁세컨드/NNG
▁시력/NNG
▁신선/NNG
▁신세/NNG
▁알폰소/NNP
▁애도/NNG
▁에번스/NNP
▁엘리/NNP
▁염색/NNG
▁영화인/NNG
▁오만/NNP
▁요즘/NNG
▁원정대/NNG
▁위생/NNG
▁이의/NNG
▁임팩트/NNG
▁입시/NNG
▁짓/NNG
▁쫓아내/VV
▁치료제/NNG
▁치킨/NNG
▁침례교/NNP
▁특별법/NNG
▁특사/NNG
▁패치/NNG
▁펠리페/NNP
▁포틀랜드/NNP
▁폭우/NNG
▁폴/NNG
▁프란시스/NNP
▁플랑크톤/NNG
▁합병증/NNG
▁해왕성/NNG
▁후난성/NNP
개념/NNG
계통/NNG
남성/NNG
네임/NNG
라이트/NNG
리스/NNP
바둑/NNG
북스/NNG
신호/NNG
연장/NNG
옛/MM
오르/VV
오사카/NNP
온도/NNG
외교/NNG
원사/NNG
임무/NNG
재료/NNG
중종/NNP
컴/NNG
프로젝트/NNG
DVD/SL
David/SL
M./SL
▁7./SB
▁MIT/SL
▁Peter/SL
▁SE/SL
▁West/SL
▁bgcolor/SL
▁가변/NNG
▁각룡/NNG
▁강행/NNG
▁겹/NNG
▁경시/NNG
▁공훈/NNG
▁김일/NNP
▁깁슨/NNP
▁꽂/VV
▁나카/NNG
▁낭만/NNG
▁낭비/NNG
▁노원구/NNP
▁논증/NNG
▁대원군/NNP
▁대항전/NNG
▁레이크/NNP
▁루스벨트/NNP
▁마담/NNG
▁마사/NNP
▁말레이/NNP
▁맛보/VV
▁면모/NNG
▁묵/NNG
▁바이트/NNG
▁반다이/NNP
▁뱅크/NNG
▁베르너/NNP
▁보정/NNP
▁산투스/NNP
▁선우/NNP
▁세미나/NNG
▁소녀시대/NNP
▁솜씨/NNG
▁수은/NNG
▁수호자/NNG
▁스크립트/NNG
▁아부/NNG
▁아톰/NNP
▁알레산드/NNG
▁어뢰/NNP
▁어웨이/NNG
▁에든버러/NNP
▁오리/NNG
▁온난/NNG
▁외화/NNG
▁워즈/NNG
▁위구르/NNP
▁위로/NNG
▁인기상/NNG
▁일렉트로닉/NNP
▁잔해/NNG
▁재발/NNG
▁재앙/NNG
▁재키/NNP
▁재화/NNG
▁적법/NNG
▁절도사/NNG
▁종가/NNG
▁증식/NNG
▁징집/NNG
▁충당/NNG
▁커비/NNP
▁타도/NNG
▁타악기/NNG
▁터보/NNP
▁퇴치/NNG
▁튀기/VV
▁특정도서/NNP
▁평지/NNG
▁프리츠/NNP
▁필사/NNG
▁해남군/NNP
▁해내/VV
▁호쿠리쿠/NNG
▁환산/NNG
▁환율/NNG
▁활/NNG
높/VA
는데/EF
마비/NNG
미/NNP
벌/NNB
보물/NNG
블랙/NNG
수산부/NNG
스쿨/NNG
승리/NNG
예정/NNG
일식/NNG
잔디/NNG
전북/NNP
증권/NNG
체육관/NNG
컷/NNG
콘텐츠/NNG
파티/NNG
106/SN
LG/SL
▁1802/SN
▁1836/SN
▁195/SN
▁Berlin/SL
▁Education/SL
▁Future/SL
▁IOS/SL
▁JAPAN/SL
▁Real/SL
▁St./SL
▁가령/MAG
▁가오슝/NNP
▁강동구/NNP
▁경호원/NNG
▁고독/NNG
▁고생/NNG
▁관절/NNG
▁광둥성/NNP
▁국물/NNG
▁기니/NNP
▁기장군/NNP
▁꿀/NNG
▁남조/NNP
▁대구시/NNP
▁도검/NNG
▁두드러지/VV
▁라스/NNP
▁로런스/NNP
▁로컬/NNG
▁리쌍록/NNP
▁메트로폴리탄/NNP
▁목회/NNG
▁물고기자리/NNP
▁미주/NNP
▁민정/NNG
▁반감기/NNG
▁배반/NNG
▁버펄로스/NNG
▁병자호란/NNP
▁보유자/NNG
▁부안군/NNP
▁부평/NNP
▁붉은색/NNG
▁사유리/NNP
▁사하구/NNP
▁상식/NNG
▁샤론/NNP
▁서아시아/NNP
▁석가모니/NNP
▁셰퍼드/NNP
▁소주/NNG
▁수인/NNG
▁시크릿/NNP
▁실격/NNG
▁아오키/NNP
▁아이다호/NNP
▁앙드레/NNP
▁양제/NNP
▁언론사/NNG
▁에바/NNP
▁엘니뇨/NNG
▁엠마/NNP
▁예종/NNP
▁오징어/NNG
▁완비/NNG
▁왕궁/NNG
▁우물/NNG
▁원심/NNG
▁원통/NNG
▁위패/NNG
▁인하대학교/NNP
▁일레븐/NNG
▁임정/NNG
▁자수/NNG
▁전염/NNG
▁정치학자/NNG
▁조심/NNG
▁조영/NNG
▁중사/NNG
▁짜/VA
▁짝수/NNG
▁초의/NNP
▁총수/NNG
▁추종자/NNG
▁축복/NNG
▁출국/NNG
▁칸나바로/NNG
▁크리스찬/NNG
▁토토/NNP
▁투하/NNG
▁트윈/NNG
▁특/NNG
▁포룸/NNP
▁포켓/NNG
▁하의/NNG
▁한국방송/NNP
▁허준/NNP
▁화소/NNG
▁휴먼/NNG
▁흘러가/VV
거의/MAG
길/VA
나이/NNG
대전/NNP
마이클/NNP
마케팅/NNG
물리학/NNG
밭/NNG
수도/NNG
을수록/EC
적절/XR
쥐/NNG
타이/NNG
해방군/NNG
혁명군/NNG
1000/SN
700/SN
Live/SL
TBS/SL
Y/SL
ᆯ지라도/EC
▁07./SN
▁165/SN
▁GS/SL
▁Game/SL
▁IN/SL
▁OP/SL
▁Report/SL
▁Say/SL
▁Union/SL
▁r/SL
▁가디언/NNP
▁건너편/NNG
▁경기고등학교/NNP
▁경쟁자/NNG
▁공통점/NNG
▁과연/MAG
▁광명시/NNP
▁교통부/NNG
▁구청/NNG
▁권/NNG
▁급히/MAG
▁능가/NNG
▁다가가/VV
▁담양군/NNP
▁덮치/VV
▁도기/NNG
▁도로시/NNP
▁독신/NNG
▁독주/NNG
▁랜디/NNP
▁레이더스/NNP
▁로스쿨/NNG
▁리그컵/NNP
▁마인드/NNG
▁문화재청/NNG
▁방위군/NNG
▁배척/NNG
▁베르사유/NNP
▁부왕/NNG
▁사이언스/NNP
▁산정/NNG
▁상시/NNG
▁셰필드/NNP
▁속력/NNG
▁숙/NNG
▁순사/NNG
▁신정/NNP
▁심슨/NNP
▁아연/NNG
▁야구부/NNG
▁양지/NNG
▁언더그라운드/NNG
▁영월/NNP
▁영주시/NNP
▁요충지/NNG
▁용의/NNG
▁우에노/NNP
▁위배/NNG
▁유머/NNG
▁유익/NNG
▁유키오/NNP
▁음악회/NNG
▁의자/NNG
▁의정/NNG
▁이은/NNP
▁이이/NNP
▁인플레이션/NNG
▁일산/NNP
▁자신감/NNG
▁전대/NNG
▁절개/NNG
▁접종/NNG
▁정세/NNG
▁정윤/NNP
▁조석/NNG
▁조우/NNP
▁지면/NNG
▁진도군/NNP
▁차르/NNP
▁천마/NNG
▁철원군/NNP
▁취향/NNG
▁치/IC
▁카르타고/NNP
▁캔자스시티/NNP
▁컨텐츠/NNG
▁코일/NNG
▁콜드/NNP
▁테두리/NNG
▁퇴사/NNG
▁파샤/NNG
▁파출소/NNG
▁펴내/VV
▁폐간/NNG
▁포피/NNP
▁프레임워크/NNG
▁함양/NNG
▁함양군/NNP
▁항공편/NNG
▁형벌/NNG
▁후렴/NNG
▁후회/NNG
공학자/NNG
관심/NNG
군부/NNG
도지사/NNG
물리학자/NNG
베스트/NNG
보안법/NNG
수면/NNG
신/NNP
악단/NNG
이번/NNG
찾/VV
토요일/NNG
＞/SSC
111/SN
Rock/SL
valign/SL
▁1300/SN
▁1806/SN
▁1831/SN
▁1837/SN
▁2006-07/W_SERIAL
▁Arts/SL
▁ISIL/SL
▁Land/SL
▁OBS/SL
▁one/SL
▁was/SL
▁가세/NNG
▁개그맨/NNG
▁고유종/NNP
▁과반수/NNG
▁괄호/NNG
▁귀인/NNG
▁금고/NNG
▁기념관/NNG
▁누/NNG
▁덥/VA-I
▁동차/NNG
▁들여오/VV
▁띄우/VV
▁럭키/NNP
▁막판/NNG
▁맥도널드/NNP
▁메모리얼/NNG
▁면담/NNG
▁물론/NNG
▁미군정/NNG
▁미야모토/NNP
▁박진영/NNP
▁발리/NNP
▁배분/NNG
▁버락/NNP
▁병장/NNG
▁브리즈/NNG
▁삼키/VV
▁상주시/NNP
▁샤를/NNP
▁서리/NNG
▁선대/NNG
▁성내/NNG
▁수량/NNG
▁슐츠/NNP
▁스테파니/NNP
▁스팀/NNG
▁신시내티/NNP
▁앞세우/VV
▁오즈/NNP
▁오프라인/NNG
▁요시노/NNP
▁유포/NNG
▁윤석열/NNP
▁이륙/NNG
▁이심률/NNP
▁인디언스/NNP
▁자리매김/NNG
▁자처/NNG
▁장흥군/NNP
▁전액/NNG
▁조롱/NNG
▁주름/NNG
▁첨/NNG
▁최성/NNP
▁출퇴근/NNG
▁카리브/NNP
▁카리브해/NNP
▁칼초/NNG
▁칼초/NNP
▁컴파일러/NNG
▁키네이스/NNP
▁키리/NNG
▁탁/MAG
▁테러리스트/NNG
▁토기/NNG
▁토르/NNP
▁통역/NNG
▁판명/NNG
▁팻/NNP
▁폰트/NNG
▁필명/NNG
▁하동군/NNP
▁향신료/NNG
▁헌납/NNG
▁황족/NNP
▁흉/NNG
金/SH
결핍/NNG
과학부/NNG
도구/NNG
모험/NNG
물자/NNG
빗/NNG
삼/VV
삼국사기/NNP
생태/NNG
소장/NNG
수업/NNG
습/NNG
싱글/NNG
일기/NNG
정보원/NNG
지휘자/NNG
피트/NNB
항해/NNG
501/SN
83/SN
97/SN
One/SL
▁06/SN
▁1834/SN
▁18:00/W_SERIAL
▁2009-10/W_SERIAL
▁280/SN
▁Culture/SL
▁XHTML/SL
▁your/SL
▁金氏/SH
▁강진/NNP
▁개간/NNG
▁거창/NNP
▁게/NNG
▁경멸/NNG
▁계시/NNG
▁공소/NNG
▁괴롭/VA-I
▁교우/NNG
▁국부/NNG
▁기부금/NNG
▁꾸/VV
▁낙양/NNP
▁남궁/NNP
▁니켈/NNG
▁단자/NNG
▁도뇌르/NNP
▁도제/NNG
▁독립운동가/NNG
▁딱/MAG
▁레이커스/NNP
▁르노/NNP
▁린치/NNG
▁마농/NNP
▁마미/NNG
▁만세/IC
▁맥/NNP
▁목표물/NNG
▁무등산/NNP
▁바빌로니아/NNP
▁박수/NNG
▁박테리아/NNG
▁반점/NNG
▁발진/NNG
▁배양/NNG
▁백지/NNG
▁버/NNG
▁버크/NNP
▁부등식/NNG
▁부실/NNG
▁비엔나/NNP
▁비자/NNG
▁사진가/NNP
▁소론/NNG
▁수류탄/NNG
▁슈투트가르트/NNP
▁스타트/NNG
▁신안군/NNP
▁심각/XR
▁아파치/NNP
▁양위/NNG
▁여주인공/NNG
▁연달/VV
▁열람/NNG
▁오키/NNP
▁왕녀/NNG
▁웅진/NNP
▁이데올로기/NNG
▁자일대우/NNG
▁잡/NNG
▁재원/NNG
▁전문의/NNG
▁중앙당/NNG
▁차츰/MAG
▁충렬왕/NNP
▁커크/NNP
▁켈빈/NNP
▁쿠루루/NNP
▁쿡/MAG
▁크리켓/NNP
▁클라인/NNP
▁타케시/NNG
▁탑신/NNG
▁트루먼/NNP
▁티저/NNP
▁평안도/NNP
▁풍부/XR
▁프랑코/NNP
▁프론트/NNG
▁필두/NNG
▁한국어판/NNG
▁합천/NNP
▁합체/NNG
▁해안선/NNG
▁호화/NNG
▁홍/NNG
▁환초/NNP
▁회귀/NNG
▁휴/IC
가사/NNG
경험/NNG
과거/NNG
교환/NNG
달리기/NNG
도사/NNG
도어/NNG
리/EC
마미/NNG
보도/NNG
비/VV
비서/NNG
사유/NNG
싶/VX
안전부/NNG
어느/MM
을지/EF
입/NNG
전철/NNG
정조/NNP
징/NNG
토크/NNG
혐의/NNG
1928/SN
Le/SL
z/SL
←/SW
▁138/SN
▁1753/SN
▁2008-09/W_SERIAL
▁2014.07/SN
▁2015-16/W_SERIAL
▁210/SN
▁4.0/SN
▁Academy/SL
▁BSD/SL
▁Concert/SL
▁Full/SL
▁General/SL
▁Social/SL
▁Theory/SL
▁this/SL
▁à/SL
▁거시공동/NNP
▁고을/NNG
▁고집/NNG
▁공시/NNG
▁공지/NNG
▁굴복/NNG
▁궁수/NNG
▁근래/NNG
▁기/VV
▁농성/NNG
▁다카/NNP
▁대입/NNG
▁대제/NNG
▁도치기/NNP
▁독재자/NNG
▁랭크/NNG
▁마린/NNP
▁매진/NNG
▁머레이/NNP
▁무궁화호/NNP
▁무용가/NNG
▁문의/NNG
▁미에현/NNG
▁민감/XR
▁발하/VV
▁백금/NNG
▁뱀파이어/NNG
▁변호인/NNG
▁본교/NNG
▁부마/NNP
▁부양/NNG
▁비올라/NNG
▁사간원/NNP
▁사주/NNG
▁서기관/NNG
▁선제/NNG
▁선제후/NNP
▁송도/NNP
▁수증기/NNG
▁시외/NNG
▁실습/NNG
▁쓰러뜨리/VV
▁아이즈/NNP
▁악역/NNG
▁안네/NNP
▁애초/NNG
▁야마구치현/NNG
▁어빌리티/NNG
▁열풍/NNG
▁완치/NNG
▁외손자/NNG
▁용역/NNG
▁워치/NNG
▁워킹/NNG
▁유충/NNG
▁이사금/NNG
▁이항/NNG
▁익스플로러/NNP
▁일/VV
▁자오선/NNG
▁점거/NNG
▁정광/NNP
▁정당/XR
▁젤다/NNP
▁주고쿠/NNG
▁주둔지/NNG
▁중견수/NNG
▁중생대/NNG
▁중앙정보부/NNG
▁지니/NNP
▁천명/NNG
▁최정/NNP
▁출자/NNG
▁케네스/NNP
▁켄트/NNP
▁크루즈/NNG
▁토요타/NNP
▁통계청/NNG
▁투데이/NNP
▁투르/NNP
▁튼튼/XR
▁페로/NNP
▁폐/XPN
▁프레스/NNG
▁프렌치/NNP
▁하구/NNG
▁학제/NNG
▁해금/NNG
▁홍천군/NNP
▁흥덕/NNP
교차로/NNG
구청장/NNG
권력/NNG
니/JC
담당관/NNG
맥/NNG
모으/VV
미니/NNG
방송인/NNG
봄/NNG
부르/VV
분/NNG
붙이/VV
사단장/NNG
사회주의/NNG
성과/NNG
수사대/NNG
유통/NNG
의약품/NNG
잘/MAG
제어/NNG
출구/NNG
캘리포니아주/NNP
탐정/NNG
탕/NNG
태평양/NNP
합창단/NNG
회복/NNG
AA/SL
Hello/SL
▁109/SN
▁1847/SN
▁2.1/SN
▁2018./SN
▁BJ/SL
▁Force/SL
▁GOT/SL
▁Gray/SL
▁K7리그/NNG
▁Light/SL
▁Teams/SL
▁Women/SL
▁가해자/NNG
▁강경/NNG
▁경산시/NNP
▁고갈/NNG
▁고령군/NNP
▁고용주/NNG
▁곱하/VV
▁공/NNP
▁국민연금/NNG
▁권혁/NNP
▁깔리/VV
▁노무라/NNP
▁농가/NNG
▁다시금/MAG
▁다이/NNG
▁달리기/NNG
▁당무/NNG
▁도미/NNG
▁도핑/NNP
▁듀크/NNP
▁드미트리/NNP
▁디자인과/NNG
▁마/VX
▁만찬/NNG
▁매복/NNG
▁모리세이/NNP
▁모모/NNP
▁문맥/NNG
▁물려주/VV
▁민심/NNG
▁바닷가/NNG
▁버추얼/NNG
▁베테랑/NNG
▁복숭아/NNG
▁부사관/NNG
▁북군/NNG
▁북조선/NNP
▁뷰티/NNP
▁빅뱅/NNG
▁소방관/NNG
▁손바닥/NNG
▁순종/NNG
▁스캔/NNG
▁스파이크/NNG
▁승선/NNG
▁시비/NNG
▁시진/NNP
▁썸머/NNG
▁씬/NNG
▁아랍인/NNG
▁아야카/NNP
▁알렉산드라/NNP
▁애국/NNG
▁야드비가/NNP
▁야심/NNG
▁어쿠스틱/NNP
▁영아/NNG
▁옹진군/NNP
▁외면/NNG
▁요리토모/NNP
▁윈드/NNP
▁이경/NNP
▁입맞춤/NNG
▁저장성/NNP
▁전기장/NNG
▁정오/NNG
▁죄인/NNG
▁주선/NNG
▁주창/NNG
▁중앙아메리카/NNP
▁증오/NNG
▁직류/NNG
▁짐바브웨/NNP
▁청두/NNP
▁첸/NNP
▁최상/NNG
▁카롤루스/NNP
▁케이지/NNP
▁코바야시/NNG
▁코스트코/NNP
▁큐/NNG
▁크로스컨트리/NNG
▁키트/NNP
▁테무르/NNP
▁평양시/NNP
▁프록시마/NNG
▁플레이스/NNP
▁하이브리드/NNG
▁핵탄두/NNG
▁헌트/NNP
▁후계/NNG
▁히카리/NNP
高麗/SH
노/XPN
롤링/NNP
마트/NNG
미군/NNG
바위/NNG
발의/NNG
봇/NNG
분리/NNG
서로/MAG
성기/NNG
소프트웨어/NNG
시구/NNG
애니원/NNP
용어/NNG
원자/NNG
유물/NNG
인생/NNG
전라도/NNP
조선/NNG
총국/NNG
추/NNG
향상/NNG
STARS/SL
We/SL
▁1400/SN
▁1825/SN
▁2,500/SN
▁2022-23/W_SERIAL
▁Historical/SL
▁Machine/SL
▁Our/SL
▁Over/SL
▁TBN/SL
▁There/SL
▁UTC/SL
▁xn/SL
▁°F/SL
▁μ/SW
▁간직/NNG
▁건반/NNG
▁경감/NNG
▁경기대학교/NNP
▁경부/NNP
▁공손/XR
▁관동/NNP
▁괴멸/NNG
▁교란/NNG
▁국학/NNG
▁군포시/NNP
▁기어/NNP
▁기울/VV
▁농지/NNG
▁니벨룽/NNP
▁다이쇼/NNP
▁도표/NNG
▁돌려주/VV
▁돌아보/VV
▁릴리스/NNP
▁마더/NNG
▁마하/NNP
▁막걸리/NNG
▁무적/NNG
▁밀워키/NNP
▁바울/NNP
▁벨리/NNP
▁변이/NNG
▁보르도/NNP
▁보행자/NNG
▁복직/NNG
▁본초/NNP
▁부결/NNG
▁부평구/NNP
▁사절단/NNG
▁산후/NNG
▁삼남/NNP
▁삼지연/NNP
▁성조/NNG
▁세련/NNG
▁소중하/VA
▁스타드/NNG
▁스파/NNP
▁신동/NNG
▁신선/XR
▁아브라함/NNP
▁아사노/NNG
▁알렉세이/NNP
▁야마나시현/NNG
▁양조/NNG
▁어기/VV
▁연작/NNG
▁염/NNP
▁영업소/NNG
▁예수회/NNP
▁올드필드/NNG
▁올리베이라/NNG
▁왕명/NNG
▁외조부/NNG
▁우/IC
▁웨딩/NNG
▁유니코드/NNP
▁윤정/NNP
▁은폐/NNG
▁인덱스/NNG
▁인자/NNP
▁인조/NNG
▁자명/XR
▁자취/NNG
▁장흥/NNP
▁재심/NNG
▁점포/NNG
▁정년/NNG
▁정인/NNP
▁중성/NNG
▁지로/NNG
▁초이스/NNP
▁충숙/NNP
▁칠/NNG
▁침범/NNG
▁카나/NNP
▁칼륨/NNG
▁컨퍼런스/NNG
▁케이블카/NNG
▁코넬/NNP
▁쿠페/NNP
▁크레딧/NNG
▁테이크/NNG
▁파시즘/NNG
▁펭귄/NNG
▁포대/NNG
▁폴리스/NNG
▁표출/NNG
▁풀이/NNG
▁프레슬리/NNP
▁피스톤/NNG
▁피타고라스/NNP
▁픽션/NNG
▁한의사/NNG
▁합하/VV
▁헌종/NNP
▁협의회/NNG
▁호적/NNG
▁휩쓸/VV
高句麗/SH
경비/NNG
구나/EF
구속/NNG
귀족/NNG
나쁘/VA
농민/NNG
대하/VV
도전/NNG
모토/NNG
박람회/NNG
병기/NNG
삼국지/NNP
상승/NNG
설정/NNG
소재/NNG
시내/NNG
시작/NNG
영사/NNG
이중/NNG
주부/NNG
지붕/NNG
표현/NNG
프로/NNB
휴/NNG
Come/SL
UTC/SL
width/SL
▁118/SN
▁1653/SN
▁192/SN
▁1996./SN
▁Health/SL
▁MPEG/SL
▁North/SL
▁Old/SL
▁Orchestra/SL
▁Theological/SL
▁not/SL
▁o/SL
▁story/SL
▁−/SW
▁가두/VV
▁가치관/NNG
▁강아지/NNG
▁개발사/NNG
▁개헌/NNG
▁게시물/NNG
▁경마/NNG
▁경지/NNP
▁과세/NNG
▁광양시/NNP
▁교목/NNG
▁급격하/VA
▁긋/VV-I
▁긴밀하/VA
▁당당/MAG
▁데포르티보/NNP
▁동대문/NNP
▁땀/NNG
▁랜드마크/NNP
▁레이첼/NNP
▁로페스/NNP
▁마운틴/NNP
▁마크/NNG
▁맞춤/NNG
▁무형/NNG
▁반입/NNG
▁버펄로/NNP
▁법제/NNG
▁본뜨/VV
▁분류학/NNG
▁불러오/VV
▁비스트/NNP
▁비치/VV
▁사오리/NNP
▁사천시/NNP
▁삭감/NNG
▁산책/NNG
▁새턴/NNP
▁성악/NNG
▁성원/NNG
▁성자/NNG
▁성행/NNG
▁소프라노/NNG
▁손잡이/NNG
▁수련/NNG
▁실리콘/NNG
▁애리조나주/NNP
▁앳/NNG
▁앵/MAG
▁야전/NNG
▁엔지니어링/NNG
▁오카모토/NNP
▁옥천/NNP
▁외래어/NNG
▁우왕/NNP
▁원한/NNG
▁의령/NNP
▁이복/NNG
▁이산화탄소/NNG
▁인성/NNG
▁인테리어/NNG
▁일부러/MAG
▁일설/NNG
▁저축/NNG
▁정국/NNG
▁제단/NNG
▁주나라/NNP
▁준동형/NNP
▁천구/NNG
▁총영사관/NNG
▁추장/NNG
▁치/NNB
▁카오리/NNP
▁커트/NNP
▁콥트/NNP
▁퀸스/NNP
▁타카시/NNG
▁테레사/NNP
▁테크놀로지/NNG
▁토로/NNG
▁트리니티/NNP
▁파푸아뉴기니/NNP
▁함장/NNG
▁혐오/NNG
▁후드/NNP
▁＜/SSO
百濟/SH
가합전/NNG
게이트/NNG
국악/NNG
굿/NNG
기증/NNG
드리/VV
렉/NNG
박/NNP
벨/NNG
부부/NNG
사업소/NNG
성종/NNP
시키/VV
안내/NNG
옵서버/NNG
왜/MAG
의미/NNG
일보/NNG
중/NNP
캐스터/NNG
쿠/NNG
톰/NNP
평의회/NNG
LOVE/SL
Michael/SL
▁06./SN
▁126/SN
▁AH/SL
▁Act/SL
▁Air/SL
▁Century/SL
▁IL/SL
▁Mark/SL
▁NBGI/SL
▁NEW/SL
▁Second/SL
▁function/SL
▁his/SL
▁text/SL
▁각/NNG
▁개성공단/NNP
▁건/NNG
▁검정/NNG
▁경기도의회/NNP
▁경향신문/NNP
▁고노/NNP
▁구강/NNG
▁구애/NNG
▁그리피스/NNP
▁기관지/NNG
▁남방/NNG
▁내구/NNG
▁네브래스카/NNP
▁능숙/XR
▁다득점/NNG
▁닫/VV-I
▁달/VX
▁담그/VV
▁대학로/NNP
▁동종/NNG
▁되풀이/NNG
▁등단/NNG
▁루이지/NNP
▁리타/NNP
▁멜/NNG
▁몰입/NNG
▁미터/NNB
▁바지/NNG
▁방공/NNG
▁법학자/NNG
▁봉고/NNP
▁부리/NNG
▁비스위스계/NNG
▁생제르/NNG
▁소켓/NNP
▁순식간/NNG
▁스타트업/NNG
▁싱어/NNP
▁아주대학교/NNP
▁알렉산데르/NNP
▁양주/NNG
▁양천구/NNP
▁에이/NNG
▁연주회/NNG
▁엿보/VV
▁외할아버지/NNG
▁욕/NNG
▁운전자/NNG
▁원문/NNG
▁위/NNP
▁유능/NNG
▁의주/NNP
▁이뇨제/NNG
▁이시이/NNP
▁잘/VA
▁장병/NNG
▁재물/NNG
▁적정/NNG
▁전이/NNG
▁점프/NNP
▁접합/NNG
▁죽임/NNG
▁준이치/NNP
▁중거리/NNG
▁중건/NNG
▁철근/NNG
▁촛불/NNG
▁출입문/NNG
▁출항/NNG
▁친일반민족행위 진상규명위원회/NNP
▁켜/VV
▁토륨/NNP
▁팬텀/NNP
▁포워드/NNG
▁프로그레시브/NNP
▁프로토타입/NNP
▁피자/NNG
▁피크/NNG
▁피트/NNP
▁픽업/NNG
▁합당/NNG
▁항저우/NNP
▁행방불명/NNG
▁행정관/NNG
▁향수/NNG
▁현감/NNG
▁획기적/NNG
▁힙/NNG
る/SW
가을/NNG
관료/NNG
그/IC
그리스/NNP
기법/NNG
낙/NNG
녹음/NNG
다음/NNG
동화/NNG
라기/ETN
방침/NNG
보존/NNG
선사/NNG
설치/NNG
스페이스/NNG
아프리카/NNP
우체국/NNG
위치/NNG
전문가/NNG
초기/NNG
카메라/NNG
코리아/NNP
페스티벌/NNG
1919/SN
James/SL
▁1,200/SN
▁1597/SN
▁1789/SN
▁1832/SN
▁1998./SN
▁2014.06/SN
▁3-2/W_SERIAL
▁Archive/SL
▁BEST/SL
▁Biography/SL
▁Family/SL
▁HTTP/SL
▁Happy/SL
▁Never/SL
▁Side/SL
▁Town/SL
▁Us/SL
▁over/SL
▁z/SL
▁갈래/NNG
▁갑각/NNG
▁개기/NNG
▁걸작/NNG
▁게임기/NNG
▁고바야시/NNP
▁골격/NNG
▁과당/NNG
▁교수형/NNG
▁교통량/NNG
▁교훈/NNG
▁귀족원/NNP
▁금환일식/NNG
▁기뻐하/VV
▁김규식/NNP
▁김수/NNP
▁김원/NNP
▁김제/NNP
▁남동/NNP
▁냉정/NNG
▁노트북/NNG
▁노하/VV
▁농심/NNP
▁느슨/XR
▁담당자/NNG
▁당명/NNG
▁대략/NNG
▁대원방송/NNP
▁데스노트/NNP
▁도끼/NNG
▁도나/NNP
▁도망/NNG
▁동남부/NNG
▁동성애자/NNG
▁드레스/NNG
▁딸리/VV
▁랴오닝성/NNP
▁마츠/NNG
▁몰도바/NNP
▁미러/NNG
▁밀어내/VV
▁버밍엄/NNP
▁별장/NNG
▁브리/NNP
▁뻔/NNB
▁사탕수수/NNG
▁샤이니/NNP
▁서보장/NNP
▁서울시장/NNG
▁수비대/NNG
▁스몰/NNG
▁시그마/NNG
▁싱/NNP
▁아오야마/NNP
▁아이티/NNP
▁아프간/NNP
▁안녕/NNG
▁안팎/NNG
▁알렉산드로스/NNP
▁애프터/NNG
▁연극과/NNG
▁열강/NNG
▁열렬/XR
▁예천군/NNP
▁오키나와현/NNP
▁외벽/NNG
▁요동/NNP
▁우에스기/NNG
▁우즈/NNP
▁위계/NNG
▁윗부분/NNG
▁윤도현/NNP
▁의정부시/NNP
▁이윽고/MAG
▁장성군/NNP
▁조계종/NNP
▁조교/NNG
▁조르주/NNP
▁증세/NNG
▁취직/NNG
▁태안군/NNP
▁통계학/NNG
▁트림/NNG
▁폐암/NNG
▁포르투/NNP
▁퓨처/NNG
▁하츠/NNP
▁항아리/NNG
▁해운/NNG
▁혈청/NNG
▁호프/NNP
▁홀수/NNG
▁화학상/NNG
▁효능/NNG
▁후반부/NNG
▁히데오/NNP
가슴/NNG
개시/NNG
고령/NNG
관하/VV
그린/NNG
기통/NNG
데/EF
만족/NNG
멀/VA
문의/NNG
미팅/NNG
민법/NNG
발견/NNG
보고서/NNG
보증/NNG
사격/NNG
원인/NNG
의지/NNG
입학/NNG
재정부/NNG
전환/NNG
제곱/NNG
진출/NNG
책임자/NNG
케이/NNG
파트너/NNG
판례/NNG
한화/NNP
할아버지/NNG
환원/NNG
103/SN
N.EX.T/SL
TP/SL
rowspan/SL
▁116/SN
▁1796/SN
▁2012.07/SN
▁256/SN
▁ED/SL
▁France/SL
▁Google/SL
▁HMS/SL
▁ICBM/SL
▁Louis/SL
▁Woman/SL
▁^/SW
▁void/SL
▁가방/NNG
▁갈릴레이/NNP
▁겨냥/NNG
▁경부선/NNP
▁경북대학교/NNP
▁고층/NNG
▁관우/NNP
▁국산/NNG
▁굳히/VV
▁궤적/NNG
▁균등/NNG
▁글러브/NNG
▁기피/NNG
▁길버트/NNP
▁김연/NNP
▁김효/NNP
▁꾸준/XR
▁내몽골/NNG
▁노르망디/NNP
▁뉴런/NNG
▁다이어리/NNG
▁다행히/MAG
▁당역/NNG
▁당진/NNP
▁동성/NNG
▁되게/MAG
▁두목/NNG
▁레인저/NNP
▁리키/NNP
▁마이어/NNP
▁매월/MAG
▁모니카/NNP
▁문체/NNG
▁베텔게우스의/NNG
▁복역/NNG
▁봉화군/NNP
▁브래들리/NNP
▁사교/NNG
▁사야카/NNP
▁삼척/NNP
▁상냥/XR
▁상당구/NNP
▁서클/NNG
▁손목/NNG
▁스/VV
▁스탭/NNG
▁시온/NNP
▁실점/NNG
▁알렌/NNP
▁알린/NNP
▁엘살바도르/NNP
▁역암/NNP
▁염두/NNG
▁위민스/NNG
▁유스/NNP
▁인더스/NNP
▁인천시/NNP
▁일당/NNG
▁일본국/NNP
▁입출력/NNG
▁자궁/NNG
▁자료형/NNP
▁자정/NNG
▁장쑤/NNP
▁저온/NNG
▁준수/XR
▁지바현의/NNG
▁직통/NNG
▁직할시/NNG
▁채플린/NNP
▁청도/NNP
▁초등학생/NNG
▁출루/NNG
▁카바유/NNG
▁코코넛/NNG
▁콕스/NNP
▁크리스천/NNG
▁터너/NNP
▁튀르크/NNP
▁파올로/NNP
▁패권/NNG
▁패망/NNG
▁표상/NNG
▁푸/NNP
▁프렌즈/NNP
▁프로듀스/NNG
▁피스/NNG
▁하지/NNG
▁한쪽/NNG
▁핸콕/NNP
▁행보/NNG
▁혈/NNG
▁형용사/NNG
▁후쿠이현/NNG
▁（/SSO
강도/NNG
농/NNG
단원/NNG
또한/MAG
러브/NNP
렌/NNP
센티미터/NNB
수익/NNG
으려는/ETM
이용/NNG
재해/NNG
전향/NNG
집권/NNG
코너/NNG
119/SN
1922/SN
600/SN
800/SN
‧/SW
▁1.8/SN
▁2022.07/SN
▁230/SN
▁330/SN
▁8./SB
▁8000/SN
▁Business/SL
▁Co./SL
▁FIBA/SL
▁IUCN/SL
▁Know/SL
▁Max/SL
▁Movie/SL
▁PHP/SL
▁Queen/SL
▁SI/SL
▁article/SL
▁hPa/SL
▁下/SH
▁가내/NNG
▁가미/NNG
▁개혁주의/NNP
▁공무/NNG
▁공예/NNG
▁공화/NNP
▁관구/NNG
▁그래/IC
▁넘어지/VV
▁네로/NNP
▁니나/NNP
▁니스/NNP
▁다짐/NNG
▁대등/NNG
▁데/VV
▁돌기/NNG
▁드레이크/NNP
▁라그나로크/NNP
▁러시/NNG
▁로키/NNP
▁루터교/NNP
▁리어/NNP
▁마스/NNP
▁마스코트/NNG
▁만장일치/NNG
▁모교/NNG
▁몽고메리/NNP
▁미라/NNP
▁미요시/NNG
▁반기문/NNP
▁반론/NNG
▁법관/NNG
▁샷/NNG
▁센티미터/NNB
▁수도회/NNG
▁수차례/NNG
▁수퍼/NNG
▁스노우/NNP
▁스코어/NNG
▁스텔스/NNG
▁습하/VA
▁시차/NNG
▁신년/NNG
▁신세계/NNP
▁신작/NNG
▁쓰촨성/NNP
▁아바스/NNP
▁아스널/NNP
▁아츠/NNG
▁어우러지/VV
▁억제제/NNG
▁영암군/NNP
▁요하/VV
▁유골/NNG
▁유공/NNP
▁일반부/NNG
▁전문학교/NNG
▁전생/NNG
▁점하/VV
▁정당화/NNG
▁정맥/NNG
▁젖/NNG
▁조공/NNP
▁즉각/NNG
▁증원/NNG
▁지선/NNG
▁진흥왕/NNP
▁청양군/NNP
▁첼로/NNG
▁카불/NNP
▁코멘트/NNG
▁클라이맥스/NNG
▁테헤란/NNP
▁토비/NNP
▁퍼/NNG
▁폭스바겐/NNP
▁품목/NNG
▁피사/NNP
▁피어스/NNP
▁필사본/NNG
▁해남/NNP
▁헤모글로빈/NNG
▁확충/NNG
▁후면/NNG
교리/NNG
껍질/NNG
네덜란드/NNP
네트워크/NNG
다만/MAG
당국/NNG
대응/NNG
도덕/NNG
동시/NNG
부품/NNG
비행사/NNG
소방서/NNG
수용/NNG
시위/NNG
오염/NNG
이서/JKS
이치/NNG
임시/NNG
점프/NNG
제트/NNG
혈/NNG
1914/SN
Let/SL
London/SL
px/SL
▁163/SN
▁168/SN
▁1790/SN
▁1791/SN
▁1793/SN
▁1809/SN
▁1818/SN
▁1819/SN
▁1828/SN
▁185/SN
▁2016.07/SN
▁2025/SN
▁BSM/SL
▁California/SL
▁Code/SL
▁Name/SL
▁RCS/SL
▁Sweet/SL
▁if/SL
▁〜/SO
▁강타/NNG
▁거룩/XR
▁걸즈/NNG
▁결사/NNG
▁경색/NNG
▁경인방송/NNP
▁고이즈미/NNP
▁공판/NNG
▁교구장/NNG
▁교향악단/NNG
▁국세청/NNG
▁규/NNG
▁규율/NNG
▁끌어올리/VV
▁나레이션/NNG
▁날으/VV
▁낡/VA
▁뉘른베르크/NNP
▁늪/NNG
▁다량/NNG
▁대여/NNG
▁도리/NNG
▁도립/NNG
▁두텁/VA-I
▁드롭/NNG
▁레몬/NNG
▁레베카/NNP
▁리서치/NNG
▁마마/NNG
▁마모루/NNP
▁마피아/NNG
▁맹활약/NNG
▁명성/NNP
▁목격자/NNG
▁무주군/NNP
▁물리학상/NNG
▁미라클/NNP
▁미아/NNG
▁미카/NNP
▁밀가루/NNG
▁발트해/NNP
▁보육/NNG
▁보호자/NNG
▁부서지/VV
▁불어/NNP
▁비늘/NNG
▁빅토리/NNP
▁사단장/NNG
▁사쓰마/NNP
▁상환/NNG
▁소박/XR
▁손쉽/VA-I
▁송정/NNP
▁수급/NNG
▁수영장/NNG
▁스콜라/NNG
▁슬래시/NNP
▁심복/NNG
▁아뢰/VV
▁아서/NNP
▁악몽/NNG
▁알라/NNP
▁알란/NNP
▁애슐리/NNP
▁애슬론/NNP
▁연꽃/NNG
▁영월군/NNP
▁오버워치/NNP
▁완도군/NNP
▁요법/NNG
▁우산/NNG
▁울진군/NNP
▁윔블던/NNP
▁유독/MAG
▁유전학/NNG
▁인피니티/NNP
▁작년/NNG
▁장안문/NNP
▁재기/NNG
▁저널리스트/NNG
▁적시타/NNG
▁정선군/NNP
▁정예/NNG
▁정주/NNP
▁조슈아/NNP
▁조연출/NNG
▁주스/NNG
▁지킬/NNP
▁직제/NNG
▁최면/NNG
▁카일/NNP
▁컨디션/NNG
▁테라/NNP
▁파시스트/NNG
▁편향/NNG
▁함량/NNG
▁합금/NNG
▁허구/NNG
▁헤븐/NNP
▁현급시/NNP
▁현악기/NNG
▁호프만/NNP
▁홉킨스/NNP
▁홍주/NNG
▁히말라야/NNP
개미/NNG
국사/NNG
녹/NNG
대교/NNG
대형/NNG
도심/NNG
많/VA
망원경/NNG
모르/VV
문화사/NNG
반대/NNG
보호법/NNG
서울/NNG
셋/NR
소/EC
수리/NNG
스토리/NNG
시계/NNG
연도/NNG
열람실/NNG
영향/NNG
위대/XR
입법/NNG
장조/NNG
전시/NNG
정확/NNG
첩/NNG
탈출/NNG
하천/NNG
합리/NNG
！/SF
1920/SN
AKB/SL
Music/SL
vs/SL
▁08./SN
▁154/SN
▁1824/SN
▁2.8/SN
▁320/SN
▁650/SN
▁Al/SL
▁Death/SL
▁Joseph/SL
▁MLB/SL
▁Only/SL
▁Site/SL
▁Study/SL
▁Theology/SL
▁UI/SL
▁UP/SL
▁into/SL
▁간판/NNG
▁감속/NNG
▁강북구/NNP
▁개최지/NNG
▁거장/NNG
▁검독수리/NNP
▁경복궁/NNP
▁골짜기/NNG
▁교육학/NNG
▁교인/NNG
▁교차점/NNG
▁구비/NNG
▁구타/NNG
▁국공/NNG
▁군마현/NNG
▁균열/NNG
▁균일/NNG
▁금기/NNG
▁금산군/NNP
▁기념식/NNG
▁끓/VV
▁나카지마/NNG
▁남해/NNP
▁납품/NNG
▁노리코/NNP
▁다양/XR
▁동맥/NNG
▁동아프리카/NNP
▁딸기/NNG
▁레이놀즈/NNP
▁레프트/NNG
▁로미오/NNP
▁리치먼드/NNP
▁리튬/NNG
▁마사히로/NNG
▁마오/NNP
▁맞물리/VV
▁멕시코시티/NNP
▁명상/NNG
▁모반/NNG
▁모태/NNG
▁무척/MAG
▁바람직/XR
▁박자/NNG
▁발뷔에나/NNG
▁범용/NNG
▁벤자민/NNP
▁보나파르트/NNP
▁보르네오/NNP
▁복부/NNG
▁부끄럽/VA-I
▁빈번/XR
▁사관학교/NNG
▁상행/NNG
▁새정치국민회의/NNP
▁생생/XR
▁서당/NNG
▁선거인단/NNG
▁선영/NNP
▁세레소/NNG
▁숙취/NNG
▁스프리/NNG
▁식이/NNG
▁심신/NNG
▁아픔/NNG
▁애비/NNG
▁앨리슨/NNP
▁양산박/NNP
▁엄밀/XR
▁에릭슨/NNP
▁여행자/NNG
▁연임/NNG
▁연표/NNG
▁열악/XR
▁오아시스/NNG
▁외상/NNG
▁워싱턴주/NNP
▁위도/NNP
▁윈난성/NNP
▁유계/NNP
▁유나/NNP
▁유명세/NNG
▁음색/NNG
▁의원직/NNG
▁이코마/NNG
▁일광/NNG
▁일선/NNG
▁재판부/NNG
▁접근법/NNG
▁정동/NNP
▁정유재란/NNP
▁졸/NNG
▁좌천/NNG
▁중개/NNG
▁중앙은행/NNG
▁차명/NNG
▁채권자/NNG
▁청자/NNG
▁콤비/NNG
▁클루브/NNG
▁테란/NNP
▁통신사/NNG
▁퇴출/NNG
▁특명/NNG
▁파이터즈/NNG
▁페르/NNP
▁펫/NNG
▁포천/NNP
▁푸/VV
▁플루트/NNG
▁행위자/NNG
▁협곡/NNG
▁화순군/NNP
▁휩싸이/VV
▁희귀/NNG
字/SH
끈/NNG
남/VV
노예/NNG
농장/NNG
다/NNG
단백질/NNG
들이/VV
떼/NNG
레코드/NNG
려다/EC
리더/NNG
리오/EF
모음/NNG
미션/NNG
번역/NNG
법정/NNG
보고/NNG
비례/NNG
사이버/NNG
생/NNG
소총/NNG
수영/NNG
애/EF
좌상/NNG
주석/NNG
차선/NNG
참고/NNG
첨/NNG
폭발/NNG
호기/NNB
113/SN
III/SL
tr/SL
▁0.1/SN
▁1.4/SN
▁132/SN
▁1810/SN
▁1833/SN
▁2-3/W_SERIAL
▁Dr./SL
▁East/SL
▁Entertainment/SL
▁IMF/SL
▁Media/SL
▁Military/SL
▁ON/SL
▁Songs/SL
▁South/SL
▁XML/SL
▁YOU/SL
▁el/SL
▁③/SW
▁가독/NNP
▁가야/NNP
▁갑신정변/NNP
▁강세/NNG
▁게이오/NNP
▁게이초/NNP
▁계승자/NNG
▁곱셈/NNG
▁관찰자/NNG
▁교도/NNP
▁교육감/NNG
▁권익/NNG
▁그림책/NNG
▁근거지/NNG
▁놓/VX
▁다이어트/NNG
▁다케시/NNP
▁대문자/NNG
▁도식/NNG
▁도지사/NNG
▁동탁/NNP
▁되돌아오/VV
▁라이스/NNP
▁레스터/NNP
▁로니/NNP
▁루프트한자/NNP
▁릴리즈/NNG
▁마틸다/NNP
▁막강/NNG
▁무관/XR
▁밀턴/NNP
▁바나나/NNG
▁바이스/NNP
▁반정/NNG
▁발단/NNG
▁발작/NNG
▁방학/NNG
▁백조/NNP
▁번지/NNG
▁복면가왕/NNG
▁부에노스아이레스/NNP
▁비기/VV
▁사도/NNP
▁사샤/NNP
▁사소/XR
▁사업부/NNG
▁상세히/MAG
▁샐러드/NNG
▁서역/NNP
▁서영/NNP
▁선비/NNG
▁성우극회/NNG
▁손권/NNP
▁숙박/NNG
▁슈퍼스타/NNG
▁스케줄/NNG
▁스포르팅/NNP
▁승낙/NNG
▁실효/NNG
▁아나톨리아/NNP
▁아론/NNP
▁아오모리/NNP
▁아즈마/NNP
▁아틀라스/NNP
▁안토니/NNP
▁안티/NNG
▁알칼리/NNG
▁역동/NNG
▁오구라/NNP
▁왜성/NNG
▁외롭/VA-I
▁외척/NNG
▁우두머리/NNG
▁운영자/NNG
▁웅장/XR
▁원안/NNG
▁위크/NNG
▁유림/NNP
▁유서/NNG
▁의복/NNG
▁이정/NNP
▁전망대/NNG
▁전산/NNG
▁정부군/NNG
▁정직/NNG
▁제니/NNP
▁젠더/NNG
▁줄곧/MAG
▁지뢰/NNG
▁지수/NNP
▁처방/NNG
▁처지/NNG
▁청룡영화상/NNP
▁친화/NNG
▁콜레라/NNG
▁트레이시/NNP
▁특공대/NNG
▁파이리츠/NNP
▁프레드릭/NNP
▁프리즘/NNG
▁해수욕장/NNG
▁현무/NNG
▁후백제/NNP
▁후에/NNP
▁후임자/NNG
部/SH
가루/NNG
간장/NNG
경력/NNG
고기/NNG
곡선/NNG
공헌/NNG
구멍/NNG
국내/NNG
기상/NNG
나비/NNG
대로/NNB
듣/VV-I
무상/NNG
부족/NNG
브랜드/NNG
악마/NNG
에요/EF
영화학과/NNG
용품/NNG
이유/NNG
이인/NNG
이행/NNG
자동/NNG
총액/NNG
턱/NNG
해설/NNG
1924/SN
Jan/SL
▁136/SN
▁146/SN
▁1799/SN
▁1841/SN
▁2-2/W_SERIAL
▁AV/SL
▁Airport/SL
▁Anniversary/SL
▁August/SL
▁Council/SL
▁Hot/SL
▁Jones/SL
▁List/SL
▁NADH/SL
▁NLP/SL
▁OSCE/SL
▁PHR/SL
▁PSV/SL
▁Range/SL
▁Seoul/SL
▁da/SL
▁가든/NNP
▁강물/NNG
▁개찰/NNG
▁거시/NNG
▁검출기/NNG
▁경매/NNG
▁경합/NNG
▁고인/NNG
▁고조선/NNP
▁고추/NNG
▁공관/NNG
▁괴산군/NNP
▁금전/NNG
▁기이/XR
▁노사/NNG
▁님/NNG
▁다카히로/NNG
▁당뇨병/NNG
▁레스/NNP
▁마키노/NNP
▁맘/NNG
▁망루/NNG
▁매리/NNP
▁모자이크/NNG
▁무사시/NNP
▁바이마르/NNP
▁배향/NNG
▁벌어들이/VV
▁벗기/VV
▁베넷/NNP
▁비서관/NNG
▁비어/NNG
▁빛내/VV
▁사르데냐/NNP
▁사울/NNP
▁생태학/NNG
▁샤먼/NNG
▁성단/NNG
▁소프트뱅크/NNP
▁수도사/NNG
▁수백만/NR
▁수양버들/NNG
▁슈퍼리그/NNP
▁신이치/NNG
▁아랑전설/NNP
▁안드로메다/NNP
▁앨/NNP
▁야채/NNG
▁에버/NNP
▁에히메현/NNG
▁엑스맨/NNP
▁영사/NNG
▁예제/NNG
▁요일/NNG
▁운용/NNP
▁운임/NNG
▁원더걸스/NNP
▁원제/NNP
▁월북/NNG
▁웨버/NNP
▁이누야샤/NNP
▁이마트/NNP
▁익숙하/VA
▁자막/NNG
▁적기/NNG
▁전멸/NNG
▁전집/NNG
▁점심/NNG
▁제위/NNG
▁제작비/NNG
▁조인/NNG
▁조지타운/NNP
▁주세페/NNP
▁직렬/NNG
▁차드/NNP
▁출사/NNG
▁캣/NNP
▁쿠파/NNP
▁클레멘스/NNP
▁클론/NNG
▁킥복싱/NNP
▁타임즈/NNP
▁탄성/NNG
▁테일즈/NNP
▁투병/NNG
▁특선/NNG
▁파라과이의/NNG
▁판권/NNG
▁패닉/NNG
▁평영/NNP
▁폐허/NNG
▁한국사/NNG
▁해자/NNG
▁허나/MAJ
▁허니/NNP
▁헤겔/NNP
▁호소카와/NNP
▁확장팩/NNP
▁황도/NNG
▁횡성군/NNP
▁흑색/NNG
明/SH
감시/NNG
공유/NNG
과학자/NNG
광해군/NNP
구장/NNG
기부/NNG
네/IC
도호부/NNG
메이드/NNG
멸/XR
무형/NNG
미스터/NNG
미스터리/NNG
보상/NNG
선형/NNG
시외버스/NNG
어떤/MM
인상/NNG
전남/NNP
제임스/NNP
조절/NNG
중주/NNG
지리/NNG
초대/NNG
촉진/NNG
출시/NNG
칩/NNG
풍/NNG
함께/MAG
항목/NNG
해결/NNG
홈/NNG
1910/SN
1926/SN
George/SL
MS/SL
▁162/SN
▁1805/SN
▁1813/SN
▁1822/SN
▁1826/SN
▁201/SN
▁2022./SN
▁Australia/SL
▁CHF/SL
▁KO/SL
▁Language/SL
▁NMB/SL
▁Sun/SL
▁WORLD/SL
▁Works/SL
▁강성/NNG
▁강희/NNP
▁개개인/NNG
▁거란/NNP
▁게놈/NNG
▁격화/NNG
▁계양구/NNP
▁공고/NNG
▁공모전/NNG
▁과/XPN
▁관개/NNG
▁구로구/NNP
▁구전/NNG
▁귀비/NNP
▁금광/NNG
▁기어/NNG
▁날인/NNG
▁남학생/NNG
▁뇌졸중/NNG
▁단양군/NNP
▁대관식/NNG
▁덕수/NNP
▁데이지/NNP
▁도색/NNG
▁동체/NNG
▁등각/NNP
▁렉스/NNP
▁루체른/NNP
▁리드/NNG
▁마가렛/NNP
▁맥아더/NNP
▁메시/NNP
▁모터쇼/NNG
▁몸집/NNG
▁바닷물/NNG
▁바른/NNP
▁박격포/NNG
▁박지원/NNP
▁백관/NNG
▁복도/NNG
▁본드/NNP
▁부관/NNG
▁부역/NNG
▁분홍색/NNG
▁붕어/NNG
▁산부인과/NNG
▁삼총사/NNP
▁서기장/NNG
▁서해안/NNP
▁선구/NNG
▁선별/NNG
▁성주군/NNP
▁소학교/NNG
▁슈트라우스/NNP
▁스노보드/NNG
▁시그널/NNP
▁시어도어/NNP
▁시영/NNP
▁썬더/NNP
▁아이티/NNG
▁애쓰/VV
▁약/MM
▁어부/NNG
▁엘프/NNP
▁여건/NNG
▁여럿/NNG
▁연행/NNG
▁영광군/NNP
▁영남대학교/NNP
▁오딘/NNP
▁온실/NNG
▁외삼촌/NNG
▁외출/NNG
▁요/NNG
▁워털루/NNP
▁유전체/NNP
▁이루마/NNP
▁이희/NNP
▁인계/NNG
▁인문학/NNG
▁일병/NNG
▁일삼/VV
▁잊히/VV
▁자각/NNG
▁자백/NNG
▁전도사/NNG
▁전투력/NNG
▁정의당/NNP
▁정확도/NNG
▁제러미/NNP
▁제반/NNG
▁조나라/NNP
▁종교인/NNG
▁종실/NNG
▁주제곡/NNG
▁주황색/NNG
▁지극히/MAG
▁지대하/VA
▁쩐/NNG
▁쪼개/VV
▁창업자/NNG
▁천왕/NNP
▁최진실/NNP
▁축일/NNG
▁출생지/NNG
▁출장소/NNG
▁칼라/NNG
▁커브/NNG
▁콘라트/NNP
▁크리스털/NNG
▁태백/NNP
▁털/VV
▁테/NNG
▁퇴적물/NNG
▁트와이스/NNP
▁펜티엄/NNG
▁포즈/NNG
▁플랑크/NNP
▁플랜/NNG
▁피고/NNG
▁한나/NR
▁한정판/NNP
▁호건/NNP
▁호모토피/NNP
▁호찌민/NNP
▁홍백/NNG
가량/XSN
검색/NNG
고/MM
나중/NNG
네/MM
대항전/NNG
못/MAG
물리/NNG
비평/NNG
사기/NNP
사례/NNG
소동/NNG
스튜디오/NNG
신화/NNG
실업/NNG
알/VV
월간/NNG
입자/NNG
장미/NNG
재생/NNG
중단/NNG
중요/NNG
지배/NNG
진단/NNG
추정/NNG
치/NNG
타이틀/NNG
피/VV
1921/SN
Charles/SL
PDF/SL
off/SL
on/SL
▁1700/SN
▁1804/SN
▁2500/SN
▁2600/SN
▁4.5/SN
▁DAY/SL
▁DFB/SL
▁French/SL
▁July/SL
▁Kiss/SL
▁Mind/SL
▁NTV/SL
▁River/SL
▁ft/SL
▁k/SL
▁main/SL
▁return/SL
▁season/SL
▁£/SL
▁가결/NNG
▁가산/NNG
▁가창력/NNG
▁감당/NNG
▁강우/NNG
▁거북/NNG
▁게임즈/NNG
▁경영학과/NNG
▁곡면/NNG
▁관심사/NNG
▁구석/NNG
▁구약/NNP
▁국방대학교/NNP
▁군체/NNP
▁길들이/VV
▁끊이/VV
▁낙원/NNG
▁다카오/NNG
▁단수/NNG
▁닭고기/NNG
▁당진시/NNP
▁도요타/NNP
▁동명/NNP
▁동해시/NNP
▁레이아웃/NNG
▁로프/NNG
▁루가/NNP
▁르완다/NNP
▁만류/NNG
▁맥도날드/NNP
▁먼로/NNP
▁미라이/NNP
▁미야기/NNP
▁미이라/NNG
▁민물/NNG
▁박/VV
▁박카스/NNP
▁배선/NNG
▁백기/NNG
▁버섯/NNG
▁베니/NNP
▁베오그라드/NNP
▁보주/NNG
▁본/NNG
▁봉산/NNP
▁부추기/VV
▁브로/NNP
▁비긴/NNP
▁빙그레/NNP
▁빠뜨리/VV
▁사업장/NNG
▁사하라/NNP
▁산림청/NNG
▁서천군/NNP
▁서체/NNG
▁성폭행/NNG
▁셀프/NNG
▁소망/NNG
▁스루/NNG
▁스틱/NNG
▁심상/NNG
▁아놀드/NNP
▁아라이/NNP
▁아명/NNG
▁아쉽/VA-I
▁아워/NNG
▁아이팟/NNP
▁아킬레스/NNP
▁안타깝/VA-I
▁앞뒤/NNG
▁어택/NNG
▁열기/NNG
▁영위/NNG
▁오래전/NNG
▁오차/NNG
▁옥사/NNG
▁와이/NNG
▁원점/NNG
▁의왕시/NNP
▁의학부/NNG
▁이리하여/MAJ
▁이사벨/NNP
▁인도주의/NNG
▁적합/XR
▁전화기/NNG
▁정현/NNP
▁조직원/NNG
▁지하역/NNP
▁찬스/NNG
▁체이스/NNP
▁촌락/NNG
▁총격/NNG
▁총액/NNG
▁카리스마/NNG
▁케이준/NNP
▁코덱/NNP
▁쿠프/NNG
▁퀴어/NNP
▁타선/NNG
▁토이/NNP
▁토크쇼/NNG
▁투신/NNG
▁팬클럽/NNG
▁편의점/NNG
▁평형/NNG
▁프로페셔널/NNG
▁피규어/NNG
▁피플/NNG
▁필리스/NNG
▁핑계/NNG
▁하지메/NNG
▁한나라/NNP
▁함평군/NNP
▁호스팅/NNP
▁화이트/NNP
▁회유/NNG
▁효자/NNG
▁히데키/NNP
▁히로인/NNP
り/SW
道/SH
과제/NNG
교장/NNG
남단/NNG
돌아오/VV
동부/NNG
동쪽/NNG
마녀/NNG
멘트/NNG
보스/NNP
분배/NNG
빅/NNG
사정/NNG
성서/NNG
세/VA
양력/NNG
연구실/NNG
영업/NNG
오빠/NNG
이즈/NNG
잉/MAG
절도사/NNG
조항/NNG
주소/NNG
챔프/NNP
체전/NNG
초/NNG
파운드/NNB
패션/NNG
피해/NNG
해군/NNG
훼손/NNG
102/SN
CoA/SL
J./SL
Richard/SL
▁178/SN
▁1795/SN
▁2030/SN
▁Again/SL
▁Canada/SL
▁Central/SL
▁Field/SL
▁Internet/SL
▁June/SL
▁Let/SL
▁March/SL
▁Mi/SL
▁Protocol/SL
▁edition/SL
▁ex/SL
▁pH/SL
▁time/SL
▁Δ/SW
▁가장/NNG
▁감영/NNG
▁격투기/NNG
▁계좌/NNG
▁고가역/NNP
▁공방/NNG
▁과수원/NNG
▁그려/IC
▁글로브/NNP
▁금관/NNG
▁금나라/NNP
▁금동/NNP
▁기근/NNG
▁기세/NNG
▁기숙/NNP
▁기조/NNG
▁기한/NNG
▁깨달음/NNG
▁나가사키현/NNG
▁나이키/NNP
▁낙점/NNG
▁낫/NNG
▁냉동/NNG
▁누락/NNG
▁담수/NNG
▁대국민/NNG
▁대마/NNG
▁대법원장/NNG
▁도성/NNG
▁동경/NNG
▁뒤지/VV
▁딜/NNG
▁라몬/NNP
▁리프/NNP
▁마네킹/NNG
▁마유미/NNP
▁마이크로프로세서/NNG
▁맛있/VA
▁매스/NNG
▁민권/NNG
▁바빌론/NNP
▁반대파/NNG
▁발가락/NNG
▁발레리/NNP
▁베스/NNP
▁보안관/NNG
▁북극해/NNP
▁불거지/VV
▁브란덴부르크/NNP
▁브르타뉴/NNP
▁비너스/NNP
▁사모아/NNP
▁사실주의/NNG
▁삼성화재/NNP
▁상서/NNP
▁선착장/NNG
▁성가/NNG
▁솔직/XR
▁슈퍼맨/NNP
▁스테이트/NNG
▁시역/NNG
▁신갈/NNG
▁신나/VV
▁신진/NNG
▁아리마/NNP
▁아이누/NNP
▁알베르토/NNP
▁야마시타/NNP
▁양산/NNP
▁언약/NNG
▁에드워즈/NNP
▁여관/NNG
▁여순/NNP
▁열성/NNG
▁열의/NNG
▁예언자/NNG
▁완봉/NNG
▁왜관/NNG
▁요시키/NNP
▁윈스턴/NNP
▁유리코/NNP
▁유태인/NNG
▁유희/NNG
▁육식/NNG
▁의제/NNG
▁익사/NNG
▁입후보/NNG
▁자연사/NNG
▁재적/NNG
▁적혈구/NNG
▁전년/NNG
▁전범/NNG
▁절멸/NNG
▁점토/NNG
▁접시/NNG
▁정읍/NNP
▁정형/NNG
▁제롬/NNP
▁조개/NNG
▁조너선/NNP
▁좌상/NNG
▁지체/NNG
▁지파/NNP
▁질의/NNG
▁창자/NNG
▁채무자/NNG
▁체첸/NNP
▁축약/NNG
▁충선왕/NNP
▁카피/NNG
▁캐/VV
▁크로/NNG
▁킥/NNG
▁태양광/NNG
▁톤/NNB
▁파르티잔/NNP
▁팔꿈치/NNG
▁표식/NNG
▁플라자/NNP
▁하룻밤/NNG
▁헐버트/NNP
▁현대건설/NNP
▁황혼/NNG
▁회견/NNG
★/SW
급행/NNG
기념물/NNG
누나/NNG
도루/NNG
독일어/NNP
디스크/NNG
람/EC
물류/NNG
북단/NNG
사쿠라/NNG
울/VV
웹/NNG
이념/NNG
이스트/NNG
전통/NNG
주자/NNG
충청북도/NNP
퀴즈/NNG
클래스/NNP
통산/NNG
퍼센트/NNG
하츠네/NNP
확대/NNG
1925/SN
1927/SN
De/SL
EP/SL
KST/SL
On/SL
▁153/SN
▁173/SN
▁1838/SN
▁2018.06/SN
▁2021-22/W_SERIAL
▁550/SN
▁705/SN
▁757/SN
▁9./SB
▁AB/SL
▁DESTINY/SL
▁FF/SL
▁FX/SL
▁Here/SL
▁Series/SL
▁Track/SL
▁UAE/SL
▁no/SL
▁감마/NNG
▁강구/NNG
▁견고/XR
▁경이/NNG
▁계시/VV
▁고고학자/NNG
▁곧이어/MAG
▁공제/NNG
▁교내/NNG
▁교부/NNG
▁국무부/NNG
▁군림/NNG
▁군비/NNG
▁극장판/NNG
▁기울기/NNG
▁김기현/NNP
▁김성수/NNP
▁김원봉/NNP
▁꺼지/VV
▁나카가와/NNP
▁남동구/NNP
▁내란/NNG
▁네이션스리그/NNG
▁노던/NNG
▁단과/NNG
▁당장/NNG
▁대구부/NNP
▁대전차/NNG
▁도이치/NNP
▁동의어/NNG
▁드레스덴/NNP
▁떨/VV
▁뚫리/VV
▁라이즈/NNG
▁러브FM/NNP
▁루지/NNP
▁리바운드/NNG
▁명백히/MAG
▁명부/NNG
▁모리/NNP
▁무너뜨리/VV
▁무단/NNG
▁민족주의자/NNG
▁밀레니엄/NNG
▁바퀴/NNB
▁박헌영/NNP
▁발산/NNG
▁발판/NNG
▁벌리/VV
▁범행/NNG
▁변속기/NNG
▁부산진구/NNP
▁부파불교/NNP
▁사절/NNG
▁사형수/NNG
▁산문/NNG
▁살아나/VV
▁생김새/NNG
▁서울특별시의회/NNP
▁석기/NNP
▁석좌/NNG
▁세키가하라/NNP
▁소위/NNG
▁속/VV
▁수렵/NNG
▁수수/NNG
▁숙명여자대학교/NNP
▁스타스/NNP
▁스포츠카/NNG
▁승상/NNP
▁안과/NNG
▁안시/NNP
▁안채/NNG
▁애슬레틱스/NNP
▁액티브/NNG
▁앵글로색슨/NNP
▁야코프/NNP
▁억류/NNG
▁여담/NNG
▁영변/NNP
▁오산시/NNP
▁오정/NNG
▁오토모/NNG
▁올리브/NNG
▁외가/NNG
▁요리토모/NNG
▁원술/NNP
▁원스/NNP
▁원유/NNG
▁위시/NNG
▁위연/NNP
▁유괴/NNG
▁유두/NNG
▁유현/NNG
▁윤영/NNP
▁입찰/NNG
▁자그레브/NNP
▁작자/NNG
▁잔재/NNG
▁장본인/NNG
▁재판장/NNG
▁저스티스/NNP
▁전곡/NNG
▁제방/NNG
▁조용히/MAG
▁종사자/NNG
▁줄리언/NNP
▁증발/NNG
▁지온군/NNG
▁직사각형/NNG
▁진흙/NNG
▁채팅/NNG
▁천적/NNG
▁총알/NNG
▁최우/NNP
▁충고/NNG
▁카트/NNG
▁컨소시엄/NNG
▁타고나/VV
▁터미네이터/NNP
▁테일/NNG
▁튀김/NNG
▁트라우마/NNG
▁페르난데스/NNP
▁푸젠/NNP
▁하라/NNP
▁하비에르/NNP
▁하이웨이/NNG
▁한꺼번에/MAG
▁합산/NNG
▁해트트릭/NNG
▁현판/NNG
▁후생/NNG
㎒/SW
개발원/NNG
검토/NNG
국수/NNG
기력/NNG
녹색/NNG
동아자동차/NNP
문과/NNG
병력/NNG
부모/NNG
소유/NNG
순조/NNP
연애/NNG
일명/NNG
지휘/NNG
차이/NNG
천황/NNG
최대/NNG
컬럼비아/NNP
통화/NNG
1923/SN
Project/SL
re/SL
′/SW
▁08-09/W_SERIAL
▁1100/SN
▁137/SN
▁145/SN
▁1816/SN
▁187/SN
▁1:1/W_SERIAL
▁365/SN
▁Chinese/SL
▁Commission/SL
▁Deep/SL
▁Girls/SL
▁NEC/SL
▁Sciences/SL
▁Wild/SL
▁Years/SL
▁film/SL
▁’/SSC
▁간섭계/NNG
▁개척자/NNG
▁경덕왕/NNP
▁경마장/NNG
▁공병/NNG
▁공화정/NNG
▁과선교/NNP
▁관용/NNG
▁귀순/NNG
▁그리핀/NNP
▁글리/NNP
▁기후현/NNP
▁까다롭/VA-I
▁나라현/NNG
▁남반구/NNG
▁납북/NNG
▁다키아/NNP
▁대표곡/NNG
▁랭/NNP
▁리처드슨/NNP
▁매슈/NNP
▁메/VV
▁메탄/NNG
▁모란/NNG
▁목적어/NNG
▁목판본/NNG
▁문경시/NNP
▁뮐러/NNP
▁뮤즈/NNP
▁미묘/XR
▁미안/NNG
▁믹/NNG
▁민주통합당/NNP
▁바하마/NNP
▁반향/NNG
▁발톱/NNG
▁베리야/NNG
▁병풍/NNG
▁볼트/NNP
▁부러지/VV
▁부탄/NNG
▁붓/NNG
▁붓다/NNP
▁블룸/NNP
▁빼내/VV
▁사법부/NNG
▁샌디/NNP
▁서아프리카/NNP
▁성주/NNG
▁성행위/NNG
▁수레/NNG
▁수로/NNP
▁수성구/NNP
▁숙련/NNG
▁순례/NNG
▁스타벅스/NNP
▁습성/NNG
▁시간표/NNG
▁실증/NNG
▁싸이/NNP
▁아비/NNG
▁아우구스투스/NNP
▁에두아르/NNP
▁여과/NNG
▁역사서/NNG
▁연수구/NNP
▁열망/NNG
▁올랜도/NNP
▁왜구/NNG
▁우주인/NNG
▁원예/NNG
▁월급/NNG
▁위축/NNG
▁윙/NNG
▁유니온/NNP
▁유보/NNG
▁유스케/NNG
▁읍성/NNG
▁의사당/NNG
▁이양/NNG
▁일인/NNG
▁읽히/VV
▁자존심/NNG
▁잠재력/NNG
▁장강/NNP
▁쟁점/NNG
▁전조/NNG
▁접두사/NNG
▁정정/NNG
▁주앙/NNP
▁줍/VV-I
▁중용/NNG
▁지장/NNP
▁직함/NNG
▁진안군/NNP
▁책상/NNG
▁철기/NNG
▁청교도/NNG
▁체르마트/NNP
▁충돌구/NNP
▁충동/NNG
▁치프/NNG
▁컬링/NNP
▁코나미/NNP
▁코트디부아르/NNP
▁클라우스/NNP
▁타겟/NNG
▁탄력/NNG
▁태연/NNG
▁태평/NNG
▁템포/NNG
▁투/NNG
▁트래픽/NNP
▁파랑/NNG
▁파이트/NNP
▁패러다임/NNG
▁패스트/NNG
▁퍼블릭/NNG
▁펠로폰네소스/NNP
▁표준시/NNG
▁풋살/NNP
▁프린터/NNG
▁하강/NNG
▁하모니/NNG
▁하행/NNG
▁할양/NNP
▁항문/NNG
▁허버트/NNP
▁헤이룽장/NNP
▁호족/NNG
▁홀리/VV
▁홋스퍼/NNG
▁화합/NNG
▁환생/NNG
後黎朝/SH
간호/NNG
개통/NNG
고등판무관/NNP
규명/NNG
극단/NNG
기후/NNG
낭/NNG
대금/NNG
메가/NNG
메이트/NNG
보국/NNG
북한/NNP
비평가/NNG
상사/NNG
소개/NNG
시효/NNG
심리/NNG
역할/NNG
연결/NNG
이슬람/NNG
자매/NNG
참조/NNG
칙/MAG
콜/NNG
타입/NNG
토지/NNG
특정/NNG
페이/NNG
평균/NNG
화면/NNG
화재/NNG
회색/NNG
회차/NNG
104/SN
160/SN
NC/SL
OS/SL
▁09-10/W_SERIAL
▁133/SN
▁152/SN
▁156/SN
▁157/SN
▁380/SN
▁==/SW
▁@/SW
▁APG/SL
▁EF/SL
▁Gabbana/SL
▁Page/SL
▁Stage/SL
▁TOKYO/SL
▁Three/SL
▁Water/SL
▁Zone/SL
▁printf/SL
▁profile/SL
▁【/SSO
▁거듭나/VV
▁격/NNB
▁경비원/NNG
▁고르/VA
▁고맙/VA-I
▁곤살레스/NNP
▁과업/NNG
▁교복/NNG
▁국정원/NNG
▁남문/NNP
▁너희/NP
▁노블/NNP
▁농어촌/NNG
▁다이안/NNP
▁대통령령/NNG
▁레이지/NNP
▁렌더링/NNG
▁루이즈/NNP
▁류조/NNP
▁링고/NNP
▁말버러/NNP
▁메르세데스/NNP
▁무작위/NNG
▁문단/NNG
▁문어/NNG
▁미모/NNG
▁밀착/NNG
▁밉/VA-I
▁바덴/NNP
▁반값/NNG
▁발부/NNG
▁번복/NNG
▁보궐/NNG
▁비스타/NNG
▁비옥/NNG
▁빗물/NNG
▁사무관/NNG
▁서비스업/NNG
▁선언문/NNG
▁섭외/NNG
▁세이지/NNP
▁소시지/NNG
▁송강/NNP
▁숭실대학교/NNP
▁스왈로스/NNG
▁스카/NNP
▁스털링/NNP
▁습도/NNG
▁승패/NNG
▁시즈오카현/NNP
▁식별자/NNP
▁신호장/NNP
▁쌍선형/NNG
▁아나키스트/NNG
▁아세틸콜린/NNP
▁아즈사/NNP
▁아치/NNG
▁아타리/NNP
▁알카에다/NNP
▁여진족/NNP
▁연합뉴스/NNP
▁연희/NNP
▁온타리오주/NNG
▁올/NNG
▁용융/NNG
▁우리은행/NNP
▁원호/NNP
▁유니콘스/NNP
▁유타주/NNP
▁유타카/NNG
▁으뜸/NNG
▁음역/NNG
▁의대/NNG
▁의욕/NNG
▁이영/NNP
▁인솔/NNG
▁적절히/MAG
▁전문학사/NNP
▁정거장/NNG
▁정사각형/NNG
▁조율/NNG
▁주역/NNG
▁중공업/NNG
▁창극/NNG
▁청송군/NNP
▁추력/NNG
▁코스트/NNG
▁콘티/NNG
▁테네시주/NNP
▁테레비/NNG
▁토하/VV
▁트랜스젠더/NNG
▁트루/NNG
▁파열/NNG
▁파이프라인/NNG
▁페데리코/NNP
▁포브스/NNP
▁포위망/NNG
▁폴더/NNG
▁피쳐/NNP
▁해수/NNP
▁헬레니즘/NNG
▁형주/NNP
▁화랑/NNG
기소/NNG
기호/NNG
나인/NNG
남녀/NNG
높이/NNG
느라/EC
머/EC
밑/NNG
벌/NNG
보조/NNG
보훈처/NNG
상인/NNG
서적/NNG
씨/NNG
액션/NNG
에이/NNG
요코하마/NNP
육성/NNG
잎/NNG
질량/NNG
촉/NNG
캐릭터/NNG
커피/NNG
토의/NNG
페어/NNG
플레이어/NNG
필름/NNG
학번/NNG
합의/NNG
250/SN
Black/SL
Ernst/SL
It/SL
Win/SL
ll/SL
v/SL
ℓ/SW
▁10-11/W_SERIAL
▁124/SN
▁1680/SN
▁1807/SN
▁2루타/NNG
▁480/SN
▁750/SN
▁AD/SL
▁Army/SL
▁BMW/SL
▁BV/SL
▁Conference/SL
▁Daniel/SL
▁Federation/SL
▁KNN/SL
▁ME/SL
▁MLS/SL
▁MUSIC/SL
▁MeV/SL
▁RTSP/SL
▁Run/SL
▁URL/SL
▁VR/SL
▁Virgo/SL
▁Y./SL
▁den/SL
▁every/SL
▁lb/SL
▁les/SL
▁m./SL
▁v./SL
▁가꾸/VV
▁갈/NNP
▁강력히/MAG
▁개발도상국/NNG
▁개화파/NNG
▁거북이/NNG
▁건지/VV
▁걸음/NNG
▁견지/NNG
▁괴테/NNP
▁국력/NNG
▁국제기구/NNG
▁근방/NNG
▁글로리아/NNP
▁기함/NNP
▁다뉴브/NNP
▁다케오/NNP
▁닥치/VV
▁담장/NNG
▁대제학/NNG
▁덴버/NNP
▁도봉구/NNP
▁들르/VV
▁레귤러/NNG
▁루빈/NNP
▁마리코/NNP
▁머나멀/VA
▁모기/NNG
▁모체/NNG
▁문병호/NNP
▁민원/NNG
▁방과/NNG
▁백두대간/NNP
▁벤피카/NNP
▁병렬/NNG
▁복속/NNG
▁부시장/NNG
▁불새/NNP
▁블레어/NNP
▁사라고사/NNP
▁사비/NNP
▁생가/NNG
▁섀넌/NNP
▁섀도우/NNP
▁서하/NNP
▁슈미트/NNP
▁승지/NNP
▁시럽/NNG
▁시안/NNG
▁신/VV
▁신관/NNG
▁실명/NNG
▁싱크/NNP
▁썩/VV
▁알렉상드르/NNP
▁알베르/NNP
▁암모니아/NNG
▁여대/NNG
▁영산/NNP
▁오리온스/NNP
▁오목/MAG
▁오슬로/NNP
▁오자키/NNG
▁우디네/NNP
▁운석/NNG
▁원만/XR
▁유우키/NNG
▁율령/NNG
▁음악인/NNG
▁읍내/NNG
▁의성/NNP
▁이랜드/NNP
▁이즈모/NNP
▁이황/NNP
▁인자/NNG
▁인출/NNG
▁일체/MAG
▁자치현/NNP
▁작용기/NNP
▁장자/NNP
▁재빨리/MAG
▁전극/NNG
▁정박/NNG
▁정혜원/NNP
▁제노바/NNP
▁제지/NNG
▁주가/NNG
▁주저/NNG
▁죽/NNG
▁지평/NNG
▁참여자/NNG
▁철제/NNG
▁초록/NNG
▁축전기/NNG
▁출근/NNG
▁커넥션/NNG
▁코인/NNG
▁크리에이터/NNP
▁키릴/NNG
▁키클롭스/NNP
▁토모코/NNG
▁툴/NNG
▁트리오/NNG
▁파헤치/VV
▁팽/MAG
▁포에버/NNP
▁프라이드/NNG
▁프론티어/NNG
▁하우/IC
▁하퍼/NNP
▁혜종/NNP
▁호송/NNG
▁호우/NNG
▁후지이/NNG
▁힐베르트/NNG
反/SH
號/SH
가톨릭/NNG
같이/MAG
경우/NNG
규제/NNG
김/NNG
능/NNG
라이프/NNG
모두/MAG
바로/MAG
선승/NNG
솜/NNG
스테이지/NNG
시/VA
심/XR
연령/NNG
영원/NNG
조리/NNG
주말/NNG
처벌/NNG
청춘/NNG
투명/NNG
포고/NNG
표창/NNG
301/SN
United/SL
ᆯ라/EF
ᆯ래/EF
▁0.2/SN
▁1598/SN
▁1829/SN
▁1843/SN
▁193/SN
▁2005-06/W_SERIAL
▁2022.06/SN
▁April/SL
▁Band/SL
▁Blood/SL
▁Cool/SL
▁Edward/SL
▁Make/SL
▁Modern/SL
▁Profile/SL
▁Stars/SL
▁WOWOW/SL
▁first/SL
▁name/SL
▁각시탈/NNP
▁강가/NNG
▁강희제/NNP
▁결탁/NNG
▁경/NNP
▁계략/NNG
▁고헤이/NNP
▁공보/NNG
▁관목/NNG
▁광화문/NNP
▁구리/NNG
▁국립중앙박물관/NNP
▁규합/NNG
▁근본주의/NNG
▁금정구/NNP
▁기물/NNG
▁기아자동차/NNP
▁깔/VV
▁깜짝/MAG
▁나시오날/NNP
▁나오토/NNP
▁녹지/NNG
▁다마스쿠스/NNP
▁대면/NNG
▁대청/NNG
▁도일/NNP
▁독성/NNG
▁동래구/NNP
▁따내/VV
▁레지스탕스/NNP
▁로랑/NNP
▁리카/NNG
▁리히텐슈타인/NNP
▁만루/NNG
▁맞히/VV
▁메디컬/NNG
▁면도/NNG
▁면직/NNG
▁명성황후/NNP
▁명수/NNP
▁모국어/NNG
▁미미/XR
▁미술가/NNG
▁민가/NNG
▁민제/NNP
▁바이든/NNP
▁박승/NNP
▁박준/NNP
▁발사대/NNG
▁발포/NNG
▁버블/NNG
▁베일/NNG
▁변한/NNP
▁비단/MAG
▁뺏/VV-R
▁사가/NNG
▁사돈/NNG
▁상상력/NNG
▁생리/NNG
▁샤를로트/NNP
▁서울고등학교/NNP
▁서주/NNP
▁선발전/NNG
▁세/NNG
▁세실/NNP
▁수온/NNG
▁스레드/NNP
▁스피릿/NNP
▁시편/NNP
▁신인왕/NNG
▁실린더/NNG
▁심야/NNG
▁심정/NNG
▁심포니/NNG
▁쓰나미/NNG
▁앉히/VV
▁애기/NNG
▁양원/NNG
▁에덴/NNP
▁엔리케/NNP
▁연승/NNG
▁오메가/NNG
▁오성/NNG
▁오하라/NNP
▁올리비아/NNP
▁왕인/NNP
▁우대/NNG
▁유러피언컵/NNG
▁유민/NNG
▁융/NNP
▁의금부/NNG
▁이광/NNP
▁이질/NNG
▁이태원/NNP
▁일간지/NNG
▁잔디/NNG
▁재림/NNG
▁저가/NNG
▁전과/NNG
▁주거지/NNG
▁중문/NNP
▁중앙대/NNP
▁중원/NNG
▁지/NNP
▁지번/NNG
▁집전/NNG
▁참배/NNG
▁책정/NNG
▁추축국/NNP
▁캔터베리/NNP
▁클라라/NNP
▁테오도르/NNP
▁퇴진/NNG
▁툴루즈/NNP
▁트랜지스터/NNG
▁트위스트/NNG
▁페인/NNP
▁포상/NNG
▁푸드/NNG
▁피랍/NNG
▁하마마쓰/NNG
▁하버/NNP
▁하우/NNP
▁한창/MAG
▁함부로/MAG
▁합격자/NNG
▁행방/NNG
▁향리/NNG
▁협찬/NNG
▁홍준표/NNP
▁황녀/NNP
▁희/NNG
강원/NNP
경관/NNG
고급/NNG
공병/NNG
공포/NNG
궤/NNG
꼬리/NNG
넘/VV
네거리/NNG
노동부/NNG
달리/VV
대표부/NNG
대화/NNG
미상/NNG
서기관/NNG
소형/NNG
신라/NNP
아사히/NNP
아이/IC
언어학/NNG
에다가/JKB
여/MM
오스트레일리아/NNP
원작/NNG
원정/NNG
위크/NNG
이요/JX
젊/VA
조/MM
조명/NNG
진영/NNG
처음/NNG
학명/NNG
할머니/NNG
1918/SN
AB/SL
Jean/SL
Mr./SL
▁143/SN
▁1788/SN
▁1999./SN
▁2001./SN
▁Age/SL
▁British/SL
▁Change/SL
▁Dreams/SL
▁Forever/SL
▁GPS/SL
▁LCK/SL
▁Legionella/SL
▁SKY/SL
▁Sea/SL
▁Swift/SL
▁au/SL
▁개월/NNB
▁거머쥐/VV
▁결렬/NNG
▁결장/NNG
▁계파/NNG
▁고승/NNG
▁곶/NNG
▁과천시/NNP
▁관상/NNG
▁관원/NNG
▁광주군/NNP
▁그렉/NNP
▁기성/NNG
▁남서/NNG
▁노르드/NNP
▁노릇/NNG
▁농경/NNG
▁농축/NNG
▁다각형/NNG
▁다운타운/NNP
▁다이렉트/NNG
▁델리/NNP
▁동산/NNG
▁로만/NNP
▁마트/NNG
▁만화책/NNG
▁매리너스/NNP
▁멤피스/NNP
▁목동/NNP
▁무능/NNG
▁무인도/NNG
▁무주/NNP
▁물방울/NNG
▁미정/NNP
▁반유대주의/NNP
▁반일/NNG
▁베니스/NNP
▁베라/NNP
▁병원체/NNG
▁부풀/VV
▁불평/NNG
▁브리지/NNP
▁사춘기/NNG
▁상관관계/NNG
▁상기/MAG
▁새해/NNG
▁샘플링/NNG
▁생포/NNG
▁서남/NNG
▁성부/NNG
▁세계대전/NNG
▁세르비아인/NNG
▁세미/NNP
▁소유주/NNG
▁스탠/NNP
▁슬퍼하/VV
▁승소/NNG
▁아리랑/NNG
▁아시안게임/NNG
▁아우구스트/NNP
▁아이드/NNG
▁암행/NNG
▁애착/NNG
▁양양/NNP
▁언/NNG
▁연례/NNG
▁영양군/NNP
▁온건/NNG
▁옵티머스/NNP
▁완투/NNG
▁외손녀/NNG
▁외환/NNG
▁용/NNP
▁웨이트/NNG
▁윤상/NNP
▁은신처/NNG
▁응원가/NNG
▁이끌리/VV
▁이제현/NNP
▁일본공산당/NNP
▁일상생활/NNG
▁쟈니즈/NNG
▁저장소/NNG
▁적절하/VA
▁전기철도/NNP
▁점성가/NNP
▁정호/NNP
▁젖/VV
▁제고/NNG
▁주향/NNG
▁중앙역/NNP
▁지문/NNG
▁채/MAG
▁청정/NNG
▁촉한/NNP
▁최승/NNP
▁칭기즈/NNP
▁카누/NNG
▁캐니언/NNG
▁캡슐/NNG
▁코모도/NNP
▁콘스탄티노플/NNP
▁콩쿠르/NNG
▁타카히로/NNG
▁트랙터/NNG
▁팁/NNG
▁페르디난트/NNP
▁하시바/NNG
▁한류/NNG
▁한마디/NNG
▁합장/NNG
▁해수면/NNG
▁헐리우드/NNP
▁현대자동차그룹/NNP
▁혼합물/NNG
▁흉내/NNG
公演数/SH
경연/NNG
고사/NNG
공석/NNG
굴/NNG
단어/NNG
데이비드/NNP
델/NNG
래/EF
방학/NNG
보이/NNG
보통/MAG
복음주의/NNG
분할/NNG
분화/NNG
비스포스포글리세르산/NNP
상자/NNG
성인/NNG
성적/NNG
소방/NNG
승인/NNG
아메리칸/NNP
엠/NNG
유도/NNG
음식/NNG
좌파/NNG
중화/NNG
탄생/NNG
통과/NNG
팩/NNG
행진/NNG
호실/NNG
::/SP
AX/SL
▁At/SL
▁Hill/SL
▁LCD/SL
▁Morning/SL
▁Set/SL
▁Stone/SL
▁Together/SL
▁so/SL
▁theory/SL
▁가군/NNG
▁강좌/NNG
▁개개/NNG
▁거/IC
▁걸프/NNP
▁결론짓/VV-I
▁고산/NNP
▁공녀/NNP
▁광동/NNP
▁군의관/NNG
▁귀향/NNG
▁규현/NNP
▁그늘/NNG
▁그린란드/NNP
▁근사/NNG
▁급식소/NNG
▁김철/NNP
▁나체/NNG
▁네임/NNG
▁녹색당/NNP
▁누층군/NNG
▁다쓰노/NNP
▁대리석/NNG
▁대진표/NNG
▁도산/NNG
▁독실/XR
▁들판/NNG
▁라리가/NNG
▁라이센스/NNG
▁라크로스/NNP
▁레전더/NNG
▁록히드/NNP
▁루즈/NNG
▁리뉴얼/NNG
▁리콴유/NNP
▁마돈나/NNP
▁마음대로/MAG
▁마켓/NNG
▁맞닿/VV
▁맞선/NNG
▁메가/NNG
▁목욕/NNG
▁미란다/NNP
▁미시/NNG
▁반역/NNG
▁뱅크스/NNP
▁버니/NNP
▁번지/VV
▁벌써/MAG
▁베가/NNP
▁변경백/NNP
▁불쾌/XR
▁브루나이/NNP
▁블라디보스토크/NNP
▁비숍/NNP
▁비하/NNG
▁빗/NNG
▁사령/NNG
▁사병/NNG
▁사토루/NNP
▁샌드/NNG
▁생사/NNG
▁생산자/NNG
▁서울특별시장/NNP
▁소정/NNP
▁소탕/NNG
▁소현세자/NNP
▁속초/NNP
▁수감자/NNG
▁수신기/NNG
▁수현/NNP
▁슈가/NNP
▁스물/NR
▁스트롱/NNP
▁시어터/NNG
▁신분당선/NNP
▁신비주의/NNG
▁신생아/NNG
▁써니/NNP
▁씨름/NNG
▁아민/NNP
▁아벤타도르/NNG
▁안건/NNG
▁안드레/NNP
▁안시성/NNP
▁압송/NNG
▁어선/NNG
▁엑스포/NNG
▁여/NNP
▁열전/NNG
▁온대/NNG
▁월리스/NNP
▁위선/NNG
▁위태/XR
▁유다/NNP
▁유모/NNG
▁유정/NNG
▁은신/NNG
▁이승기/NNP
▁이지스/NNG
▁익/NNG
▁임베디드/NNG
▁임업/NNG
▁재주/NNG
▁정반대/NNG
▁정승/NNG
▁조교수/NNG
▁조준/NNG
▁지하드/NNG
▁채집/NNG
▁청하/VV
▁충신/NNG
▁카스/NNP
▁캐피틀/NNP
▁킬링/NNP
▁타사/NNG
▁타타르/NNP
▁탈피/NNG
▁트래비스/NNP
▁트리거/NNP
▁티토/NNP
▁파이브/NR
▁판타스틱/NNG
▁펩타이드/NNG
▁풍선/NNG
▁필살기/NNP
▁하마드/NNG
▁하우스도르프/NNG
▁하카타/NNP
▁한국대중음악상/NNP
▁항소심/NNG
▁해/VV
▁해머스미스/NNP
▁행군/NNG
▁헨드릭스/NNG
▁현생/NNG
○/SW
가공/NNG
가량/NNB
공과/NNG
금속/NNG
남편/NNG
단/NNB
독재/NNG
라며/EF
료/NNG
매니저/NNG
무사/NNG
바이올린/NNG
방영/NNG
방해/NNG
사리/NNG
사업단/NNG
상속/NNG
소비/NNG
수정/NNG
인도/NNP
전라북도/NNP
지하/NNG
총리대신/NNG
톨/NNB
폐교/NNG
하지만/MAJ
107/SN
1917/SN
DJ/SL
Good/SL
Les/SL
Red/SL
SP/SL
ref/SL
˚/SW
▁0-1/W_SERIAL
▁144/SN
▁147/SN
▁1593/SN
▁174/SN
▁20,000/SN
▁205/SN
▁310/SN
▁AND/SL
▁After/SL
▁Dictionary/SL
▁Energy/SL
▁IEEE/SL
▁Interview/SL
▁MHz/SL
▁Magazine/SL
▁Planet/SL
▁Rec./SL
▁Su/SL
▁TG/SL
▁]/SSC
▁published/SL
▁가인/NNG
▁강민/NNP
▁개체군/NNP
▁거액/NNG
▁걷/VV-R
▁게이오기주쿠/NNG
▁겨울철/NNG
▁결단/NNG
▁고생대/NNG
▁고아/NNP
▁곧/VA-R
▁골자/NNG
▁광진구/NNP
▁광택/NNG
▁교재/NNG
▁구식/NNG
▁글리코젠/NNP
▁금남고속/NNP
▁기공/NNG
▁기판/NNG
▁김기식/NNP
▁꿈/NNP
▁남경/NNP
▁노르만/NNP
▁당연/XR
▁대교/NNP
▁도깨비/NNG
▁도쿠시마/NNP
▁도태/NNG
▁돌아서/VV
▁돌연/MAG
▁동북부/NNG
▁동티모르/NNP
▁동해선/NNP
▁드나들/VV
▁들키/VV
▁떠돌/VV
▁랜스/NNP
▁레볼루션/NNP
▁로이스/NNP
▁리베르타도레스/NNG
▁리부트/NNP
▁리우/NNP
▁마르티네스/NNP
▁마스터즈/NNG
▁명지대학교/NNP
▁모리타니/NNP
▁몸체/NNG
▁무스타파/NNP
▁바이올리니스트/NNG
▁박동/NNG
▁발광/NNG
▁발기/NNG
▁베즈/NNG
▁보니파시오/NNP
▁볼넷/NNG
▁부동/NNG
▁부분군/NNG
▁부식/NNG
▁분화구/NNG
▁브룩/NNP
▁비둘기/NNG
▁비우/VV
▁사이보그/NNG
▁사투리/NNG
▁산체스/NNP
▁샤크/NNP
▁서품/NNG
▁선라이즈/NNP
▁선회/NNG
▁센추리/NNG
▁셀레우코스/NNP
▁셸/NNP
▁소꿉친구/NNP
▁소아시아/NNP
▁수주/NNG
▁수하/NNG
▁스테레오/NNG
▁승정원/NNG
▁시문/NNG
▁심상정/NNP
▁아사미/NNP
▁애비뉴/NNP
▁액수/NNG
▁에딩턴/NNG
▁엘튼/NNP
▁예식/NNG
▁예의/NNG
▁오노촌/NNG
▁오로라/NNP
▁올라서/VV
▁올려놓/VV
▁외래/NNG
▁용매/NNG
▁원판/NNG
▁유니언/NNP
▁유무/NNG
▁유희왕/NNP
▁윤지/NNP
▁인류학/NNG
▁인자/IC
▁인하/NNG
▁일대기/NNG
▁작품상/NNG
▁잔치/NNG
▁점화/NNG
▁정병/NNG
▁조이스/NNP
▁조합원/NNG
▁종단/NNG
▁종신/NNG
▁줄임/NNG
▁지급시/NNP
▁진동수/NNG
▁참모장/NNG
▁천공/NNG
▁철강/NNG
▁청중/NNG
▁출세/NNG
▁코린토스/NNP
▁코시/NNP
▁콤플렉스/NNG
▁쿠키/NNG
▁탐/NNP
▁텔아비브/NNP
▁패/VV
▁패미컴/NNP
▁퍼붓/VV-I
▁퍼센트/NNB
▁폴리네시아/NNP
▁플랑드르/NNP
▁플랫/NNP
▁학부모/NNG
▁한센/NNP
▁한옥/NNG
▁해커/NNG
▁호위함/NNG
▁효용/NNG
▁후미/NNG
개년/NNB
게스트/NNG
공고/NNG
관리국/NNG
금요일/NNG
기병/NNG
남우/NNG
내역/NNG
대명사/NNG
동굴/NNG
드래곤/NNG
땅/NNG
라면서/EC
모/NP
민속/NNG
바이트/NNB
배급/NNG
분별/NNG
사범/NNG
사이드/NNP
상급/NNG
성분/NNG
셋/NNG
소대/NNG
손실/NNG
신학자/NNG
암시/NNG
여사/NNG
의도/NNG
의학과/NNG
자비/NNG
족제비/NNG
총독/NNG
충남/NNP
텍사스주/NNP
현종/NNP
흑/NNG
This/SL
to/SL
▁1.7/SN
▁1420/SN
▁1783/SN
▁1817/SN
▁1821/SN
▁197/SN
▁2004-05/W_SERIAL
▁3.2/SN
▁370/SN
▁Grand/SL
▁IF/SL
▁NT/SL
▁Nature/SL
▁Pop/SL
▁Royal/SL
▁Secret/SL
▁Snow/SL
▁Van/SL
▁man/SL
▁가파르/VA
▁강탈/NNG
▁개정판/NNG
▁견훤/NNP
▁경동/NNP
▁계약금/NNG
▁고문서/NNG
▁고분군/NNG
▁공동묘지/NNG
▁관위/NNP
▁광교/NNP
▁교지/NNG
▁근간/NNG
▁급습/NNG
▁기아/NNG
▁기욤/NNP
▁김정우/NNP
▁꺾이/VV
▁남코/NNP
▁낭트/NNP
▁농경지/NNG
▁뇌진탕/NNG
▁누명/NNG
▁뉴기니/NNP
▁뉴잉글랜드/NNP
▁늦추/VV
▁니시무라/NNP
▁대각선/NNG
▁대중문화/NNG
▁덕진구/NNP
▁데스매치/NNG
▁도합/NNG
▁돌고래/NNG
▁동면/NNP
▁동아대학교/NNP
▁뒤셀도르프/NNP
▁디오/NNP
▁땃쥐과/NNG
▁류성룡/NNP
▁리코/NNP
▁매개변수/NNP
▁매번/MAG
▁매트릭스/NNP
▁모리토모/NNG
▁모여들/VV
▁모음집/NNG
▁모후/NNG
▁몰디브/NNP
▁무색/NNG
▁무어/NNP
▁뮤직비디오/NNG
▁미미/NNP
▁미카사/NNP
▁밀스/NNP
▁바른정당/NNP
▁발췌/NNG
▁백자/NNG
▁범/NNG
▁법규/NNG
▁베로나/NNP
▁베이스타스/NNG
▁벨/MM
▁보도국/NNG
▁보성군/NNP
▁복면가왕/NNP
▁볼트/NNG
▁부두/NNG
▁블루윙즈/NNP
▁비서실장/NNG
▁비욘/NNG
▁사변/NNG
▁사죄/NNG
▁사지/NNG
▁사토미/NNP
▁살롱/NNG
▁살아오/VV
▁상과/NNG
▁새정치민주연합/NNP
▁서북쪽/NNG
▁선상/NNG
▁설계자/NNG
▁셰이크/NNP
▁소/NNP
▁소포/NNG
▁스킨/NNG
▁스타크/NNP
▁스턴트/NNG
▁스톤스/NNG
▁시원하/VA
▁신빙/NNG
▁실책/NNG
▁실황/NNG
▁심층/NNG
▁싸이월드/NNP
▁아바타/NNP
▁아우렐리우스/NNP
▁아코/NNP
▁암수/NNG
▁약학/NNG
▁어리석/VA
▁여가/NNG
▁여행기/NNG
▁연구진/NNG
▁영도/NNP
▁오가와/NNG
▁올리비에/NNP
▁요양/NNG
▁울/NP
▁이극균/NNP
▁이산/NNG
▁이승환/NNP
▁이오니아/NNP
▁이치카와/NNG
▁이학/NNG
▁익스트림/NNP
▁잉여/NNG
▁잔당/NNG
▁전단/NNG
▁전편/NNG
▁절친/XR
▁정당성/NNG
▁정유/NNG
▁조사관/NNG
▁조차/NNG
▁중증/NNG
▁증류/NNG
▁증손자/NNG
▁지느러미/NNG
▁진주/NNG
▁처남/NNG
▁처마/NNG
▁철원/NNP
▁청구인/NNG
▁청문회/NNG
▁체스터/NNP
▁침착/NNG
▁캐머런/NNP
▁켈러/NNP
▁코브/NNP
▁크레인/NNG
▁클로버/NNG
▁탈주/NNG
▁탱고/NNG
▁토호/NNG
▁통합진보당/NNP
▁트리니다드/NNP
▁틈타/VV
▁퍼거슨/NNP
▁퍼뜨리/VV
▁펀드/NNG
▁페미니스트/NNG
▁평점/NNG
▁폐업/NNG
▁포스트시즌/NNG
▁포트리스/NNP
▁표어/NNG
▁표준궤/NNP
▁풍요/NNG
▁피코/NNP
▁하이드리히/NNG
▁한니발/NNP
▁해마/NNG
▁해지/NNG
▁헬멧/NNG
▁형질/NNG
▁호빵/NNP
▁호킨스/NNP
▁화북/NNP
▁화승/NNP
▁훈민정음/NNP
▁흐루쇼프/NNP
강원특별자치도/NNP
겐/NNP
노인/NNG
누계/NNG
다큐/NNG
대공/NNG
드럼/NNG
득표/NNG
반정/NNG
번가/NNB
번주/NNG
베트남/NNP
보살/NNG
본선/NNG
부하/NNG
비율/NNG
비전/NNG
사업부/NNG
야/EC
우/EC
우선/NNG
을지/EC
작곡가/NNG
저작/NNG
제목/NNG
제철/NNG
조정실/NNG
충청남도/NNP
포켓몬스터/NNP
폴란드/NNP
플레이스테이션/NNP
ation./SL
flo/SL
self/SL
▁(사)/SB
▁**/SW
▁1,300/SN
▁1659/SN
▁176/SN
▁1775/SN
▁2:1/W_SERIAL
▁6000/SN
▁720/SN
▁Archives/SL
▁CC/SL
▁Department/SL
▁JYP/SL
▁ONE/SL
▁Original/SL
▁PDF/SL
▁Philosophy/SL
▁RGB/SL
▁SL/SL
▁Short/SL
▁Tu/SL
▁VfL/SL
▁album/SL
▁가까스로/MAG
▁가봉/NNP
▁가이드라인/NNG
▁강진군/NNP
▁개막식/NNG
▁결핵/NNG
▁곡식/NNG
▁골수/NNG
▁과감/XR
▁과다/NNG
▁과로/NNG
▁구르/VV
▁구부/NNP
▁굿바이/NNG
▁극성/NNG
▁금발/NNG
▁꽉/MAG
▁나츠미/NNG
▁남극해/NNP
▁남베트남/NNP
▁논리식/NNP
▁논산/NNP
▁누드/NNG
▁니/NNG
▁니코틴/NNG
▁다테/NNG
▁도난/NNG
▁도미닉/NNG
▁독립신문/NNP
▁돌려보내/VV
▁두근두근/MAG
▁드론/NNG
▁따돌리/VV
▁떡/NNG
▁뚜껑/NNG
▁라임/NNP
▁라치오/NNP
▁랠프/NNP
▁루키/NNG
▁리마/NNP
▁마리나/NNP
▁만연/NNG
▁말린/NNG
▁말투/NNG
▁맹렬/XR
▁메콩강/NNP
▁목걸이/NNG
▁미쓰/NNG
▁미화/NNG
▁발열/NNG
▁배틀그라운드/NNP
▁버퍼/NNP
▁보살피/VV
▁본능/NNG
▁부록/NNG
▁부총재/NNG
▁북면/NNP
▁불가피하/VA
▁비스타/NNP
▁사악/NNG
▁산간/NNG
▁새크라멘토/NNP
▁생산력/NNG
▁서로마/NNP
▁서위/NNP
▁석등/NNG
▁선체/NNG
▁설날/NNG
▁속보/NNG
▁속옷/NNG
▁수해/NNG
▁스테파노/NNP
▁스티븐슨/NNP
▁스피커/NNG
▁신창/NNP
▁실로/MAG
▁실비아/NNP
▁실종자/NNG
▁심플렉틱/NNG
▁아라시/NNP
▁아스/NNP
▁아츠시/NNG
▁아키히토/NNP
▁알브레히트/NNG
▁어시스턴트/NNG
▁엉뚱/XR
▁에디슨/NNP
▁에레디비시의/NNG
▁엘레나/NNP
▁연속극/NNG
▁열광/NNG
▁예속/NNG
▁와이프/NNG
▁욕설/NNG
▁우기/NNG
▁우랄/NNP
▁우륵/NNP
▁워낙/MAG
▁윙/MAG
▁유가족/NNG
▁유망/NNG
▁유장/NNG
▁윤회/NNG
▁이석/NNP
▁이성질체/NNP
▁임계/NNP
▁임실/NNP
▁자부/NNG
▁자위대/NNG
▁장모/NNG
▁전권/NNG
▁전라/NNP
▁전열/NNG
▁정규군/NNG
▁제시/NNP
▁직각/NNG
▁챌린저스/NNG
▁처단/NNG
▁쳐들어오/VV
▁총감독/NNG
▁추월/NNG
▁출혈/NNG
▁카노/NNP
▁캐리어/NNG
▁크라쿠프/NNP
▁클린트/NNP
▁탈수소효소/NNG
▁투사/NNG
▁트랜스/NNP
▁특파원/NNG
▁파이썬/NNP
▁판관/NNG
▁판화/NNG
▁팔작지붕/NNG
▁페르시아어/NNP
▁페이지/NNP
▁편차/NNG
▁평의원/NNG
▁포츠담/NNP
▁표류/NNG
▁피에트로/NNP
▁피질/NNG
▁하야토/NNP
▁허들/NNG
▁헤이세이/NNG
▁호르헤/NNP
▁호스/NNG
▁혼잡/NNG
▁화물선/NNG
▁환기/NNG
▁회절/NNP
▁후반전/NNG
▁후베이성/NNG
後漢/SH
고려사/NNP
공급/NNG
교육감/NNG
근육/NNG
기하학/NNG
다시피/EC
단역/NNG
당원/NNG
동력/NNG
무덤/NNG
문헌/NNG
부/XPN
부윤/NNG
사사키/NNP
성공/NNG
소원/NNG
소재지/NNG
시티/NNP
엔드/NNG
영/MAG
요인/NNG
운수/NNG
으려면/EC
정랑/NNG
정승/NNG
제공/NNG
증진/NNG
지상/NNG
진보/NNG
집필/NNG
출생/NNG
큐어/NNP
통신망/NNG
특/NNG
펜션/NNG
폴/NNP
해제/NNG
혈증/NNG
1.0/SN
140/SN
180/SN
201/SN
Mark/SL
▁148/SN
▁1610/SN
▁169/SN
▁1808/SN
▁181/SN
▁440/SN
▁6,000/SN
▁Bad/SL
▁Dolce/SL
▁EA/SL
▁Golden/SL
▁Islands/SL
▁Just/SL
▁KB/SL
▁Medicine/SL
▁Men/SL
▁Nuclear/SL
▁RCD/SL
▁Rain/SL
▁Re/SL
▁Republic/SL
▁TNA/SL
▁iTV/SL
▁q/SL
▁sur/SL
▁web/SL
▁가량/NNG
▁가역층/NNP
▁가요제/NNG
▁감마선/NNG
▁강대국/NNG
▁강압/NNG
▁개폐/NNG
▁건륭/NNP
▁겐조/NNP
▁격상/NNG
▁경인/NNP
▁고트하르트/NNP
▁공경/NNG
▁공단/NNG
▁공해/NNG
▁관광업/NNG
▁관저/NNG
▁광구/NNG
▁광시/NNP
▁괴롭힘/NNG
▁규장각/NNP
▁기린/NNG
▁길목/NNG
▁김지영/NNP
▁까마귀/NNG
▁나인/NNG
▁넘어오/VV
▁넥서스/NNP
▁노조미/NNP
▁노화/NNG
▁농림부/NNG
▁눈부시/VA
▁단조/NNG
▁단판/NNG
▁담보/NNG
▁대조표/NNG
▁대중음악/NNG
▁덩치/NNG
▁동남쪽/NNG
▁라나/NNP
▁라울/NNP
▁랄프/NNP
▁레시피/NNG
▁레즈/NNP
▁로베르/NNP
▁롬/NNG
▁루머/NNG
▁리/NNG
▁마당/NNG
▁만물/NNG
▁말/NNB
▁망명자/NNG
▁매니지먼트/NNG
▁매달/MAG
▁매점/NNG
▁미로/NNG
▁미즈노/NNP
▁박/NNG
▁박선영/NNP
▁방한/NNG
▁벤더/NNG
▁변방/NNG
▁변장/NNG
▁보타포구/NNP
▁본/NNP
▁봉오동/NNP
▁분당구/NNP
▁사산/NNG
▁사원수/NNP
▁사탕/NNG
▁새우/NNG
▁색계/NNP
▁서약/NNG
▁석굴/NNG
▁성기/NNG
▁성찰/NNG
▁세그먼트/NNP
▁세제/NNG
▁세종문화회관/NNP
▁셔틀/NNG
▁소변/NNG
▁숙명/NNG
▁순창/NNP
▁시라이시/NNG
▁식생/NNG
▁아뢰야식/NNP
▁악수/NNG
▁안타레스/NNP
▁암살자/NNG
▁양념/NNG
▁업종/NNG
▁에반스/NNP
▁역/XPN
▁연금술사/NNG
▁연유/NNG
▁영애/NNP
▁영천/NNP
▁영화사/NNG
▁오를레앙/NNP
▁오현수/NNG
▁올레/NNP
▁올슨/NNP
▁옹정제/NNP
▁외조/NNG
▁원담/NNP
▁웨슬리/NNP
▁유니버시티/NNG
▁유라실/NNP
▁읊/VV
▁이복동생/NNG
▁이숙/NNP
▁이원/NNG
▁인도인/NNG
▁인턴/NNG
▁임파서블/NNG
▁자격증/NNG
▁자책점/NNG
▁장현/NNP
▁재정난/NNG
▁저그/NNP
▁전교/NNG
▁절친/NNG
▁접견/NNG
▁정교하/VA
▁제곱수/NNG
▁제럴드/NNP
▁조밀/XR
▁조선대학교/NNP
▁중흥/NNG
▁진보당/NNP
▁진출자/NNG
▁집약/NNG
▁집합체/NNG
▁천상/NNG
▁최진/NNP
▁취임식/NNG
▁카테고리/NNG
▁캘빈/NNP
▁코이치/NNG
▁테크노/NNG
▁텔/NNG
▁토리코/NNP
▁토모/NNG
▁톱니/NNG
▁트렉/NNG
▁틀리/VV
▁틴/NNG
▁판서/NNG
▁팰리스/NNP
▁품격/NNG
▁프라이어/NNP
▁프리스타일/NNG
▁플라잉/NNG
▁피니쉬/NNG
▁하얀색/NNG
▁할렐루야/NNP
▁해운대구/NNP
▁허수아비/NNG
▁현관/NNG
▁현미경/NNG
▁협동조합/NNG
▁호감/NNG
▁혹평/NNG
▁혼슈/NNP
▁화신/NNP
▁확고하/VA
▁히노/NNG
간부/NNG
계수/NNG
공기/NNG
과목/NNG
교원/NNG
기둥/NNG
담배/NNG
드림/NNG
등장/NNG
면허/NNG
명인/NNG
민주당/NNP
발달/NNG
병사/NNG
볼넷/NNG
분쟁/NNG
수색/NNG
수호/NNG
어업/NNG
영의정/NNG
욕/NNG
유기/NNG
주행/NNG
참/MAG
창고/NNG
키스/NNG
트로트/NNG
호수/NNG
00/SN
233/SN
?!/SF
DC/SL
MC/SL
kHz/SL
kW/SL
ᆸ시오/EF
▁131/SN
▁139/SN
▁158/SN
▁1637/SN
▁164/SN
▁171/SN
▁1750/SN
▁1770/SN
▁183/SN
▁1995./SN
▁2.6/SN
▁211/SN
▁386/SN
▁4.2/SN
▁6.5/SN
▁737-800/W_SERIAL
▁AJ/SL
▁Christ/SL
▁Class/SL
▁Co/SL
▁Computer/SL
▁DF/SL
▁European/SL
▁GM/SL
▁Games/SL
▁Hox/SL
▁Mountains/SL
▁Peace/SL
▁RPG/SL
▁Roll/SL
▁SQL/SL
▁Thành/SL
▁Words/SL
▁macOS/SL
▁remix/SL
▁가려지/VV
▁가해/NNG
▁갖가지/NNG
▁거창군/NNP
▁견습/NNG
▁고요/NNG
▁고창/NNP
▁고취/NNG
▁곰TV/NNP
▁공기업/NNG
▁과천/NNP
▁관군/NNG
▁광기/NNG
▁괴팅겐/NNP
▁교회당/NNG
▁구조대/NNG
▁구청장/NNG
▁국고/NNG
▁국무원/NNP
▁국호/NNG
▁굴욕/NNG
▁권세/NNG
▁귀가/NNG
▁그라비아/NNP
▁그립/VA-I
▁글래스/NNP
▁기절/NNG
▁기타큐슈/NNP
▁김유신/NNP
▁끌어내/VV
▁노다/NNP
▁노라/NNP
▁노선도/NNP
▁녹스/NNP
▁농어촌버스/NNP
▁니코니코/NNG
▁단편집/NNG
▁당/MM
▁대정/NNP
▁대한성공회/NNP
▁덕양구/NNP
▁도도/NNP
▁동인/NNG
▁디트리히/NNP
▁라이온/NNP
▁로스엔젤레스/NNP
▁로크/NNP
▁리스트/NNP
▁많아지/VV
▁매/VV
▁명동/NNP
▁모자라/VV
▁모조리/MAG
▁모터사이클/NNG
▁무당/NNG
▁문호/NNG
▁미신/NNG
▁미실/NNP
▁방비/NNG
▁방향족/NNG
▁방황/NNG
▁배꼽/NNG
▁범죄인/NNG
▁벗/NNG
▁보/NNP
▁볼거리/NNG
▁부교수/NNG
▁북상/NNG
▁불안감/NNG
▁블레이크/NNP
▁빌리지/NNG
▁사업소/NNG
▁산재/NNG
▁삼위일체/NNG
▁석재/NNG
▁성리학자/NNG
▁세종특별자치시의/NNG
▁센타우루스/NNP
▁소대장/NNG
▁소라/NNP
▁손견/NNP
▁스킴/NNP
▁스트레이/NNG
▁시노하라/NNP
▁시흥군/NNP
▁신병/NNG
▁실상/NNG
▁아드리안/NNP
▁아약스/NNP
▁아오모리현/NNP
▁아이비/NNP
▁안구/NNG
▁암호화폐/NNP
▁앙투안/NNP
▁야권/NNG
▁양서/NNP
▁에드윈/NNP
▁여운형/NNP
▁여자부/NNG
▁연세대/NNP
▁영덕군/NNP
▁예고편/NNG
▁예문관/NNP
▁예비군/NNG
▁오다큐/NNG
▁요/NNP
▁요시나카/NNG
▁워렌/NNP
▁원/IC
▁원뿔/NNP
▁웰/NNG
▁유방/NNP
▁율법/NNG
▁의인/NNG
▁이오시프/NNG
▁인사이드/NNG
▁일진/NNG
▁일진회/NNP
▁잘츠부르크/NNP
▁잠금/NNG
▁정려/NNG
▁제갈/NNP
▁제라드/NNP
▁제트기/NNG
▁좌표계/NNG
▁주석서/NNG
▁중앙동/NNP
▁지게/NNG
▁지반/NNG
▁지부티/NNP
▁지브롤터/NNP
▁창구/NNG
▁천문단위/NNP
▁천식/NNG
▁철자/NNG
▁최장/NNG
▁친밀감/NNG
▁케보키언/NNG
▁케이시/NNP
▁쿠릴/NNP
▁쿼터/NNG
▁특이점/NNG
▁티탄/NNP
▁평화유지군/NNP
▁포르투갈인/NNP
▁포츠머스/NNP
▁포커스/NNG
▁품계/NNG
▁피터슨/NNP
▁하이퍼/NNG
▁하코다테/NNG
▁학창/NNG
▁한지/NNG
▁합성어/NNG
▁해병/NNG
▁핸드/NNG
▁화학식/NNG
▁황태후/NNP
▁회생/NNG
▁횡/NNG
生/SH
社/SH
경로/NNG
고대/NNG
광복/NNG
구/MM
구름/NNG
그림자/NNG
글로벌/NNG
다마/NNG
대로/JKB
둘/NR
디/NNB
러브/NNG
민중/NNG
보리/NNG
분포/NNG
상가/NNG
수장/NNG
슈/EC
신문사/NNG
십자/NNG
요정/NNG
용사/NNG
으라고/EC
은/EC
인종/NNG
임/NNG
장이/XSN
저항/NNG
정의당/NNP
조문/NNG
중부/NNG
천문/NNG
춤/NNG
크로스/NNG
특위/NNG
홍콩/NNP
활/NNG
희망/NNG
5000/SN
Blue/SL
High/SL
y/SL
β/SW
ᆯ게요/EF
▁0-2/W_SERIAL
▁0.3/SN
▁142/SN
▁1707/SN
▁2.3/SN
▁222/SN
▁2루타/NNP
▁340/SN
▁5.0/SN
▁ATC/SL
▁Brothers/SL
▁Clip/SL
▁DeNA/SL
▁EFL/SL
▁Earth/SL
▁Empire/SL
▁Fate/SL
▁Final/SL
▁LOGOS/SL
▁Pro/SL
▁Russian/SL
▁Stop/SL
▁Tom/SL
▁YouTube/SL
▁가닥/NNG
▁감명/NNG
▁갑상선/NNG
▁겉모습/NNG
▁격침/NNG
▁경내/NNG
▁계투/NNG
▁고흥/NNP
▁관성/NNG
▁괴산/NNP
▁구례군/NNP
▁그리니치/NNP
▁금천/NNP
▁김종직/NNP
▁나가시마/NNG
▁내친왕/NNP
▁네이트/NNP
▁논서/NNG
▁누설/NNG
▁다이앤/NNP
▁대류/NNG
▁도리어/MAG
▁도읍/NNG
▁동결/NNG
▁뒷/MM
▁등반/NNG
▁딱딱/XR
▁러버/NNP
▁마사코/NNP
▁매표소/NNG
▁명품/NNG
▁모노레일/NNG
▁모호/XR
▁몽골군/NNP
▁문학관/NNG
▁문화부/NNG
▁민생/NNG
▁민수/NNP
▁밀크/NNG
▁박지윤/NNP
▁반지의/NNG
▁발송/NNG
▁방수/NNG
▁버팔로/NNP
▁베버/NNP
▁베스파시아누스/NNP
▁별관/NNG
▁보령/NNP
▁볼보/NNP
▁봉수/NNP
▁부/NNB
▁부르봉/NNP
▁북반구/NNG
▁분양/NNG
▁불능/NNG
▁비토리아/NNP
▁빌미/NNG
▁사가미/NNP
▁사무국장/NNG
▁살균/NNG
▁상록/NNG
▁샌/NNP
▁섀시/NNG
▁서덜랜드/NNP
▁석굴암/NNP
▁섬멸/NNG
▁성룡/NNP
▁성채/NNG
▁성희롱/NNG
▁세관/NNG
▁소사/NNP
▁술어/NNG
▁스택/NNP
▁승마/NNG
▁시/NNP
▁신고식/NNG
▁실태/NNG
▁쏜/NNG
▁아편/NNG
▁아폴론/NNP
▁안데스/NNP
▁안드레아스/NNP
▁알레그로/NNG
▁앙카라/NNP
▁앞당기/VV
▁야구인/NNG
▁야스다/NNP
▁어드밴스/NNG
▁어보/NNP
▁어순/NNG
▁엄밀히/MAG
▁에스페란토/NNP
▁엡실론/NNP
▁여생/NNG
▁영사관/NNG
▁오우/IC
▁오피셜/NNG
▁와카야마현/NNG
▁요트/NNG
▁용모/NNG
▁우등/NNG
▁우라와/NNP
▁운동량/NNG
▁유전율/NNP
▁유토/NNP
▁육아/NNG
▁은색/NNG
▁이동식/NNG
▁이산/NNP
▁이준현/NNG
▁장막/NNG
▁재/VV
▁접히/VV
▁정민/NNP
▁정수장학회/NNP
▁정착민/NNG
▁조/MM
▁조선조/NNP
▁주사위/NNG
▁지병/NNG
▁직교/NNP
▁집/VV-R
▁집어넣/VV
▁찢/VV
▁차림/NNG
▁착취/NNG
▁천둥/NNG
▁최윤/NNP
▁치우치/VV
▁칠곡/NNP
▁칼리프/NNG
▁코니/NNP
▁크로노스/NNP
▁크로스오버/NNP
▁클락/NNP
▁탐욕/NNG
▁태극기/NNG
▁테르세라/NNG
▁테크닉/NNG
▁토탈/NNP
▁통솔/NNG
▁튀/VV
▁트렌드/NNG
▁파슨스/NNP
▁판/NNB
▁판매고/NNG
▁평온/NNG
▁폴란드군/NNP
▁플랜트/NNG
▁피핀/NNP
▁필기/NNG
▁한방/NNG
▁항성계/NNP
▁해럴드/NNP
▁행정학과/NNG
▁현저히/MAG
▁형편/NNG
▁홈플러스/NNP
▁활기/NNG
▁흐리/VA
▁흘러들/VV
갈래/NNG
게/NNG
고전/NNG
권한/NNG
기온/NNG
도독/NNG
로버트/NNP
박자/NNG
부의장/NNG
북미/NNP
뿌리/NNG
선전/NNG
수립/NNG
쉬/NNG
스님/NNG
신사/NNG
연주/NNG
움/NNG
인쇄/NNG
재능/NNG
재무/NNG
적/NNG
지출/NNG
집중/NNG
착하/VA
탐사/NNG
펜/NNG
표지/NNG
플래닛/NNG
흠/NNG
Bad/SL
HL/SL
MBN/SL
VIDEO/SL
∞/SW
▁172/SN
▁1777/SN
▁1827/SN
▁1994./SN
▁22:00/W_SERIAL
▁460/SN
▁Analysis/SL
▁BGM/SL
▁Classic/SL
▁Henry/SL
▁KCC/SL
▁Ltd./SL
▁MB/SL
▁Master/SL
▁RC/SL
▁Roman/SL
▁SG/SL
▁SLBM/SL
▁Style/SL
▁UC/SL
▁V-리그/NNP
▁VERSION/SL
▁VLAN/SL
▁Will/SL
▁Work/SL
▁center/SL
▁h/SL
▁var./SL
▁가지/NNB
▁각운동량/NNP
▁간담회/NNG
▁걸맞/VA
▁경상남도의회/NNP
▁경제력/NNG
▁고귀/XR
▁공물/NNG
▁공양/NNG
▁관리인/NNG
▁교직원/NNG
▁굳이/MAG
▁굽히/VV
▁그라나다/NNP
▁근대5종/NNG
▁기술력/NNG
▁기업체/NNG
▁기타구/NNG
▁김석/NNP
▁김정민/NNP
▁끔찍/XR
▁날아오/VV
▁남중국해/NNP
▁니우에/NNP
▁다다르/VV
▁다방면/NNG
▁다비트/NNG
▁대법전/NNG
▁도그/NNG
▁동복/NNG
▁동주/NNP
▁램/NNG
▁루시퍼/NNP
▁마샬/NNP
▁맞대/VV
▁멜론/NNG
▁모텔/NNG
▁무녀/NNG
▁묵/VV
▁물망/NNG
▁미오/NNP
▁박차/VV
▁벽면/NNG
▁보직/NNG
▁본디/NNG
▁본즈/NNP
▁부기/NNG
▁부안/NNP
▁비행사/NNG
▁빅데이터/NNG
▁사령탑/NNG
▁사바/NNG
▁사용법/NNG
▁사이공/NNP
▁산불/NNG
▁산사태/NNG
▁산양/NNG
▁상선/NNG
▁샬롯/NNP
▁서남부/NNG
▁서재/NNG
▁서커스/NNG
▁성범죄/NNG
▁소감/NNG
▁속명/NNG
▁슈비츠/NNP
▁스바루/NNP
▁스트립/NNP
▁습기/NNG
▁승전/NNG
▁시구/NNG
▁시동/NNG
▁식물학자/NNG
▁식재료/NNG
▁아무르/NNP
▁아부다비/NNP
▁압둘라/NNP
▁애호가/NNG
▁야드/NNB
▁어바웃/NNG
▁억/NR
▁영리/NNG
▁오세경/NNG
▁오인/NNG
▁오일/NNG
▁오진/NNG
▁완성도/NNG
▁요시히로/NNG
▁요직/NNG
▁욕심/NNG
▁용맹/NNG
▁용해/NNG
▁운암/NNP
▁월레스/NNG
▁위너스/NNP
▁위문/NNG
▁위안부/NNG
▁유명인/NNG
▁유병/NNG
▁이/NNG
▁이나바/NNG
▁이니셔티브/NNG
▁이선/NNP
▁이스라엘인/NNG
▁이재/NNP
▁이지현/NNP
▁익숙/XR
▁일본화물철도/NNP
▁임권택/NNP
▁잇달/VV
▁잎자루/NNG
▁자로/NNP
▁장준하/NNP
▁접경/NNG
▁정교/NNG
▁정규직/NNG
▁제물/NNG
▁조망/NNG
▁조위/NNP
▁주가노프/NNP
▁주희/NNP
▁줄리안/NNG
▁중앙선/NNG
▁중앙아프리카/NNP
▁쥐과/NNP
▁지도력/NNG
▁지방종/NNP
▁지평선/NNG
▁착안/NNG
▁챔피언쉽/NNG
▁초석/NNG
▁최홍만/NNP
▁출/NNG
▁코코/NNP
▁크라우드/NNG
▁크레이지/NNP
▁타슈켄트/NNP
▁탈선/NNG
▁투르크/NNP
▁팔레르모/NNP
▁평양성/NNP
▁폭염/NNG
▁표결/NNG
▁표창장/NNG
▁프레더릭/NNP
▁프리먼/NNP
▁프리메이라리가의/NNG
▁하이라이트/NNG
▁항전/NNG
▁해미/NNP
▁해산물/NNG
▁행크/NNP
▁헌병대/NNG
▁헤세/NNP
▁헬레나/NNP
▁호기/NNG
▁호빵맨과/NNG
▁훈련도감/NNG
▁휴지/NNG
▁히로부미/NNP
州/SH
第/SH
감정/NNG
계승/NNG
공/NR
관방/NNG
관할/NNG
기관차/NNG
기본법/NNG
기초/NNG
기후현/NNP
노라/EF
도피/NNG
디/VV
매/NNG
명의/NNG
무/NNB
비어/NNG
빙/MAG
사운드/NNG
삼국유사/NNP
삼국지연의/NNP
샘/NNG
솔로몬/NNP
수집/NNG
수출/NNG
쉽/VA-I
스위스/NNP
실천/NNG
앙/MAG
영사관/NNG
왕자/NNG
왜성/NNG
운송/NNG
유학/NNG
유희열/NNP
자유주의/NNG
자치부/NNG
장기/NNG
전도/NNG
정/NNP
조성/NNG
종려/NNG
죽음/NNG
중간/NNG
지평/NNG
체조/NNG
토론/NNG
파괴/NNG
패키지/NNG
헤이세이/NNP
112/SN
AIKATSU/SL
Grand/SL
PS/SL
Peter/SL
Thomas/SL
and/SL
▁1636/SN
▁1665/SN
▁167/SN
▁3.3/SN
▁4-0/W_SERIAL
▁850/SN
▁Australian/SL
▁Away/SL
▁Care/SL
▁GP/SL
▁Got/SL
▁IDOLM/SL
▁KS/SL
▁MBS/SL
▁Mk./SL
▁PV/SL
▁Prince/SL
▁SKE/SL
▁Spirit/SL
▁Standard/SL
▁Sơn/SL
▁can/SL
▁do/SL
▁für/SL
▁pizza/SL
▁”/SSC
▁가나가와/NNP
▁가필드/NNP
▁강하/NNG
▁갤러거/NNG
▁겟/NNG
▁결정짓/VV-I
▁경사면/NNG
▁경영진/NNG
▁계란/NNG
▁고릴라/NNG
▁공성전/NNP
▁공작원/NNG
▁관람객/NNG
▁교토시/NNG
▁교파/NNG
▁구리시/NNP
▁구토/NNG
▁궤멸/NNG
▁그라/VV
▁기/NNP
▁김영선/NNP
▁나그네/NNG
▁나이프/NNG
▁나카야마/NNP
▁농작물/NNG
▁대대장/NNG
▁대흥/NNP
▁도치기현/NNG
▁동덕여자대학교/NNP
▁동일/NNP
▁두부/NNG
▁뒷/NNG
▁드리프트/NNP
▁득실/NNG
▁듯이/NNB
▁라이트급/NNP
▁랑/NNP
▁러너/NNG
▁레게/NNG
▁로버트슨/NNP
▁로테르담/NNP
▁료마/NNP
▁마사오/NNP
▁말린스/NNP
▁명도/NNG
▁모어/NNP
▁모토로라/NNP
▁목욕탕/NNG
▁목화/NNG
▁뫼비우스/NNP
▁묘호/NNP
▁무라야마/NNP
▁뭄바이/NNP
▁반대쪽/NNG
▁방파제/NNG
▁배/NNP
▁변제/NNG
▁보험료/NNG
▁봉수대/NNG
▁부르주아/NNG
▁북문/NNG
▁분개/NNG
▁분담/NNG
▁블루제이스/NNG
▁비버/NNP
▁뻔하/VA
▁색소/NNG
▁서막/NNG
▁서임/NNG
▁선단/NNG
▁선봉/NNG
▁성찬/NNG
▁성층/NNG
▁세계보건기구/NNP
▁세계은행/NNP
▁센스/NNG
▁셔츠/NNG
▁션/NNP
▁순찰/NNG
▁스케일/NNG
▁스코티시/NNP
▁시바타/NNG
▁시설물/NNG
▁신주/NNG
▁실내악/NNG
▁악용/NNG
▁안젤라/NNP
▁암초/NNG
▁애스트로스/NNG
▁양분/NNG
▁양손/NNG
▁양주군/NNP
▁에스터/NNP
▁에이치/NNG
▁여름철/NNG
▁연가/NNG
▁연보/NNG
▁염화/NNG
▁오닐/NNP
▁오데사/NNP
▁오시마/NNG
▁와이어/NNG
▁우거지/VV
▁윈저/NNP
▁유대/NNG
▁유목/NNG
▁유비소프트/NNP
▁유화/NNG
▁이바라키현의/NNG
▁이승/NNG
▁이창/NNP
▁인장/NNP
▁인제군/NNP
▁임페리얼/NNG
▁자갈/NNG
▁자의/NNG
▁장서/NNG
▁전량/NNG
▁전보/NNG
▁정나라/NNP
▁정장/NNG
▁정치학과/NNG
▁조안/NNP
▁중/NNP
▁쥬얼리/NNP
▁지경/NNG
▁지방관/NNG
▁참판/NNG
▁채프먼/NNG
▁처녀자리/NNP
▁천연가스/NNG
▁천연두/NNG
▁총체/NNG
▁추위/NNG
▁친숙/NNG
▁카니발/NNP
▁캐럴/NNG
▁콘스탄티노폴/NNP
▁퀵/NNG
▁크리스토프/NNP
▁키케로/NNP
▁타치바나/NNG
▁탐지기/NNG
▁테마파크/NNG
▁투과/NNG
▁페인트/NNG
▁포니/NNP
▁포도당신생합성/NNP
▁포트폴리오/NNG
▁표범/NNG
▁표제/NNG
▁퓰리처상/NNG
▁피아/NNG
▁하디/NNP
▁하리/NNP
▁하세가와/NNG
▁한국과학기술원/NNP
▁해구/NNG
▁햄버거/NNG
▁허비/NNG
▁헝가리인/NNG
▁헤일리/NNP
▁호시노/NNP
▁호흡기/NNG
▁회개/NNG
▁회관/NNG
▁회사명/NNG
▁흥천사/NNP
▁희종/NNP
家/SH
가드/NNG
강/NNP
결선/NNG
결정전/NNG
경비대/NNG
고래/NNG
공민왕/NNP
공저/NNG
관측/NNG
그램/NNB
대수/NNG
돕/VV-I
라도/JX
바보/NNG
방/NNB
빌리지/NNG
색상/NNG
송이/NNG
신데렐라/NNP
신임/NNG
아이돌/NNP
육상/NNG
인형/NNG
입대/NNG
잡이/NNG
장로회/NNG
정책관/NNG
지나/VV
지인/NNG
총생산/NNG
택시/NNG
톱/NNG
패스/NNG
편찬/NNG
한국인/NNG
홈페이지/NNG
확장/NNG
1592/SN
BS/SL
CV/SL
d./SL
ft/SL
l/SL
ray/SL
u/SL
w/SL
ᆯ까요/EF
▁'/SSC
▁134/SN
▁1660/SN
▁186/SN
▁2.2/SN
▁2.7/SN
▁214/SN
▁7,000/SN
▁8,000/SN
▁9000/SN
▁Ass/SL
▁Boys/SL
▁Bridge/SL
▁Dark/SL
▁Gold/SL
▁H.O.T./SL
▁He/SL
▁Kids/SL
▁Lord/SL
▁MiG/SL
▁Program/SL
▁Retrieved/SL
▁SR/SL
▁ST/SL
▁SUV/SL
▁WHO/SL
▁YMCA/SL
▁life/SL
▁we/SL
▁가고시마현/NNG
▁가산/NNP
▁가출/NNG
▁개리슨/NNP
▁거사/NNG
▁겔구그/NNP
▁경북고등학교/NNP
▁계모/NNG
▁고국/NNG
▁고려조/NNG
▁고조/NNP
▁광경/NNG
▁귀양/NNG
▁기약/NNG
▁김지태/NNP
▁꾸짖/VV
▁끈질기/VA
▁낙성/NNG
▁난방/NNG
▁내리/MAG
▁노을/NNG
▁노회찬/NNP
▁니노/NNP
▁닐스/NNP
▁다낭/NNP
▁다채롭/VA-I
▁데릭/NNP
▁도망자/NNG
▁독려/NNG
▁동북쪽/NNG
▁동족/NNG
▁드와이트/NNP
▁뜯/VV-R
▁뜰/NNG
▁라이베리아/NNP
▁러닝/NNG
▁레드벨벳/NNP
▁로스/NNG
▁로테이션/NNG
▁롤러/NNG
▁룬/NNP
▁마/MAG
▁마구/MAG
▁마그네슘/NNG
▁만세/NNG
▁맞배지붕/NNG
▁머/NP
▁멘토/NNG
▁명절/NNG
▁몸돌/NNG
▁무위/NNG
▁문리/NNG
▁바바/NNP
▁반자동/NNG
▁발표회/NNG
▁배타/NNG
▁백두산/NNP
▁백혈병/NNG
▁버트/NNP
▁범람/NNG
▁법황/NNP
▁베렌/NNG
▁베이직/NNG
▁변천사/NNG
▁보아/NNP
▁보호령/NNG
▁봉화/NNP
▁불펜/NNG
▁블루윙즈/NNG
▁블리자드/NNP
▁사라센/NNP
▁사족/NNG
▁산신/NNG
▁상궁/NNG
▁상이/XR
▁생물체/NNG
▁서남쪽/NNG
▁성명서/NNG
▁세포막/NNG
▁센터/NNP
▁셀린/NNP
▁셰일/NNG
▁스트레인/NNP
▁슬라이드/NNG
▁시가현/NNG
▁시바/NNP
▁시어머니/NNG
▁시종/NNG
▁시집가/VV
▁쓰임새/NNG
▁아랫/NNG
▁아르메니아인/NNP
▁안나/NNP
▁앨프리드/NNP
▁어룡/NNP
▁에이벡스/NNG
▁에페/NNP
▁역상/NNP
▁역행/NNG
▁연령대/NNG
▁완만하/VA
▁왕망/NNP
▁왕후/NNG
▁왜군/NNG
▁외제/NNG
▁운전사/NNG
▁원망/NNG
▁위너/NNP
▁유추/NNG
▁육류/NNG
▁이견/NNG
▁이끼/NNG
▁이니셜/NNG
▁이해관계/NNG
▁익주/NNP
▁자위/NNG
▁잡아내/VV
▁장대/NNG
▁전갈자리/NNP
▁정당인/NNG
▁정도전/NNP
▁정파/NNG
▁젤리/NNG
▁좁히/VV
▁주고받/VV-R
▁지방도/NNG
▁지연/NNP
▁지우/NNP
▁질리/VV
▁청양/NNP
▁체격/NNG
▁최동/NNP
▁축산/NNG
▁카나리아/NNG
▁카메오/NNG
▁캄파니아주/NNG
▁컨벤션/NNG
▁컴뱃/NNG
▁코베인/NNP
▁코스타/NNG
▁쿠르드/NNP
▁쿠르트/NNP
▁클로/NNP
▁타오/NNP
▁타지키스탄/NNP
▁타파/NNG
▁탬파베이/NNP
▁통킹/NNP
▁트레인/NNG
▁파격/NNG
▁페니/NNP
▁페드루/NNG
▁페미니즘/NNG
▁평화상/NNG
▁표트르/NNP
▁픽사/NNP
▁필적/NNG
▁하순/NNG
▁하이든/NNP
▁학기/NNG
▁함평/NNP
▁해인사/NNP
▁행진곡/NNG
▁헤이시/NNP
▁현상금/NNG
▁홍조/NNG
▁활자/NNG
▁황보/NNP
▁회군/NNG
▁회부/NNG
▁후각/NNG
▁후문/NNG
▁희박/XR
恋/SH
花/SH
객/NNG
경보/NNG
공수/NNG
다면서/EC
대첩/NNG
데뷔/NNG
데스/NNG
레닌주의/NNG
며느리/NNG
문예/NNG
문장/NNG
미녀/NNG
부위/NNG
상실/NNG
성전/NNG
수첩/NNG
야간/NNG
옷/NNG
와트/NNB
우유/NNG
일직/NNG
정변/NNG
주름/NNG
주사/NNG
주유소/NNG
채/VV
캠페인/NNG
탱크/NNG
트레인/NNG
하얗/VA-I
혈관/NNG
264/SN
:///SP
AI/SL
San/SL
WWE/SL
^/SW
de/SL
mg/SL
scope/SL
Ⅱ/SW
▁10.5/SN
▁1755/SN
▁1784/SN
▁1797/SN
▁5.5/SN
▁AP/SL
▁BBS/SL
▁Early/SL
▁Eyes/SL
▁KeSPA/SL
▁MOS/SL
▁Magic/SL
▁Microsoft/SL
▁Mobile/SL
▁NTT/SL
▁Na/SL
▁Notes/SL
▁Office/SL
▁Play/SL
▁Rose/SL
▁SSG/SL
▁Software/SL
▁VI/SL
▁XIV/SL
▁its/SL
▁minor/SL
▁李氏/SH
▁감귤/NNG
▁감사원/NNG
▁거래소/NNG
▁격전/NNG
▁겸손/NNG
▁경동교회/NNP
▁경제학부/NNG
▁고관/NNG
▁고다이/NNG
▁공급원/NNG
▁공역/NNG
▁군마현/NNP
▁귀찮/VA
▁귀하/VA
▁그간/NNG
▁그리스도인/NNG
▁글로리/NNP
▁금하/VV
▁기꺼이/MAG
▁김정희/NNP
▁김현수/NNP
▁김홍집/NNP
▁네루/NNP
▁노바/NNP
▁노숙자/NNG
▁달팽이/NNG
▁담론/NNG
▁당구/NNG
▁대차/NNG
▁도상/NNG
▁독립협회/NNP
▁동식물/NNG
▁동작구/NNP
▁두드리/VV
▁등산/NNG
▁디아스/NNP
▁따뜻/XR
▁땅콩/NNG
▁라미/NNP
▁라일리/NNG
▁런닝/NNG
▁레너드/NNP
▁레아/NNP
▁레이나/NNP
▁레지던트/NNG
▁레퍼토리/NNG
▁리/NNB
▁리퍼/NNP
▁마일즈/NNP
▁망토/NNG
▁매사냥/NNP
▁명장/NNG
▁무관하/VA
▁무마/NNG
▁무신론/NNP
▁문산/NNP
▁미사키/NNG
▁미식/NNG
▁바다/NNP
▁배급사/NNG
▁벅스/NNP
▁법대/NNG
▁법률가/NNG
▁법학부/NNG
▁변성/NNG
▁보급품/NNG
▁볼드윈/NNP
▁북단/NNG
▁북주/NNP
▁분별/NNG
▁브레스트/NNP
▁브레이브/NNP
▁브리지스/NNG
▁비방/NNG
▁비스/NNG
▁사유지/NNG
▁사이코/NNG
▁상권/NNG
▁서귀포/NNP
▁서대문/NNP
▁서스/NNP
▁선서/NNG
▁선왕/NNG
▁섭씨/NNG
▁세무/NNG
▁소마/NNP
▁수능/NNG
▁수리남/NNP
▁수몰/NNG
▁수선/NNG
▁순양함/NNP
▁순조/NNG
▁스텔라/NNP
▁스필버그/NNP
▁슬기/NNG
▁시나노/NNG
▁시연/NNG
▁시작점/NNG
▁신숙주/NNP
▁실록/NNG
▁실바/NNP
▁아씨/NNP
▁안기부/NNG
▁알레한드/NNG
▁암벽/NNG
▁약어/NNG
▁억울/XR
▁억지로/MAG
▁엎드리/VV
▁에로/NNG
▁엑스트라/NNG
▁여진/NNG
▁여흥/NNG
▁연좌/NNG
▁염색질/NNP
▁오비/NNP
▁오웬/NNP
▁옥외/NNG
▁완행/NNG
▁웅/NNP
▁웰컴/NNG
▁위상수학/NNP
▁유로파/NNP
▁유실/NNG
▁윤곽/NNG
▁이교도/NNG
▁이지/NNG
▁임종/NNG
▁장금/NNP
▁장수군/NNP
▁재귀/NNG
▁저희/NP
▁전소/NNG
▁정성/NNG
▁정시/NNG
▁제나/NNP
▁존호/NNG
▁주공/NNP
▁중전/NNG
▁지구당/NNG
▁지구대/NNG
▁지니어스/NNP
▁지리학/NNG
▁지원자/NNG
▁지호/NNP
▁진위/NNG
▁진해/NNP
▁짱/NNG
▁척추동물/NNG
▁청렴/NNG
▁최단/NNG
▁최유기/NNP
▁출진/NNG
▁충실히/MAG
▁츠바사/NNP
▁치매/NNG
▁친히/MAG
▁카우보이/NNG
▁케이티/NNP
▁코무나/NNP
▁클리프/NNP
▁키요미/NNG
▁키쿠치/NNG
▁타이밍/NNG
▁토노/NNG
▁통지/NNG
▁통학/NNG
▁특산물/NNG
▁틈새/NNG
▁포자/NNG
▁푸딩/NNG
▁프로펠러/NNG
▁프리즈/NNP
▁플레이트/NNG
▁피츠제럴드/NNP
▁한겨레/NNP
▁한데/MAG
▁함경도/NNP
▁합성수/NNP
▁핵연료/NNG
▁헤럴드/NNP
▁헤비급/NNG
▁현안/NNG
▁홍진/NNG
▁후난위성텔레비전/NNP
▁후신/NNG
▁흘러나오/VV
▁히데/NNP
○○/SW
書房/SH
朝鮮/SH
고봉/NNG
고향/NNG
공학부/NNG
공휴일/NNG
그라드/NNP
다양/NNG
단종/NNP
데이터베이스/NNG
도리/NNG
도장/NNG
레드/NNG
만들/VV
문/NNP
문화어/NNP
보급/NNG
브라질/NNP
비상/NNG
사슬/NNG
사자/NNG
산림/NNG
서울대학교/NNP
여/EF
연합군/NNG
영/NNP
오스트리아/NNP
유전학/NNG
인류/NNG
일정/NNG
읽/VV
임관/NNG
장식/NNG
전망/NNG
조화/NNG
주기/NNB
지선/NNG
지회/NNG
지훈/NNP
참가/NNG
참배/NNG
쾌속/NNG
합성/NNG
협동조합/NNG
･/SW
134/SN
1908/SN
2.5/SN
231/SN
350/SN
Set/SL
o/SL
ology./SL
▁12,000/SN
▁1562/SN
▁1644/SN
▁1778/SN
▁1782/SN
▁182/SN
▁1998.02/SN
▁202/SN
▁777/SN
▁AN/SL
▁Audio/SL
▁CG/SL
▁Child/SL
▁Davis/SL
▁ENM/SL
▁HK/SL
▁Il/SL
▁Lost/SL
▁MacOS/SL
▁Mary/SL
▁OFC/SL
▁PRODUCE/SL
▁Pacific/SL
▁Prize/SL
▁Renaissance/SL
▁SHINee/SL
▁Server/SL
▁TO/SL
▁Talk/SL
▁UHF/SL
▁Western/SL
▁When/SL
▁nerve/SL
▁online/SL
▁que/SL
▁각광/NNG
▁간공/NNG
▁감염자/NNG
▁강남역/NNP
▁강동/NNP
▁강우량/NNG
▁강자/NNG
▁강점/NNG
▁갱/NNG
▁검술/NNG
▁게토/NNP
▁격노/NNG
▁경량/NNG
▁고뇌/NNG
▁광합성/NNG
▁교민/NNG
▁군락/NNG
▁궁금/XR
▁금호/NNP
▁금화/NNG
▁기미/NNG
▁기압/NNG
▁김대/NNP
▁노틸러스/NNP
▁늘어지/VV
▁니시테쓰/NNG
▁닛코/NNG
▁다문화/NNG
▁다카마쓰/NNG
▁대덕구/NNP
▁대성/NNP
▁대장균/NNG
▁도자이/NNG
▁도큐/NNP
▁동군/NNP
▁듀보이스/NNG
▁라이트닝/NNP
▁레드불/NNP
▁로페즈/NNP
▁루피/NNG
▁리소스/NNP
▁마력/NNG
▁마쓰모토/NNP
▁마키아벨리/NNP
▁마테오/NNP
▁망고/NNG
▁무솔리니/NNP
▁문물/NNG
▁문하시중/NNP
▁반사율/NNP
▁병수/NNP
▁보비/NNP
▁부소니/NNG
▁부엌/NNG
▁분투/NNG
▁불황/NNG
▁비명/NNG
▁빈약/NNG
▁빛깔/NNG
▁사극/NNG
▁사대부/NNG
▁사민당/NNP
▁사보이아/NNG
▁사상구/NNP
▁사진작가/NNG
▁사체/NNG
▁삼성생명/NNP
▁상쇄/NNG
▁생장/NNG
▁샤워/NNG
▁서안/NNP
▁서예/NNG
▁설득력/NNG
▁섭입/NNP
▁세레스/NNP
▁세스/NNP
▁소방청/NNG
▁송금/NNG
▁수니파/NNP
▁수배/NNG
▁스튜/NNP
▁슬롯/NNG
▁시련/NNG
▁시퀀스/NNG
▁아라키돈/NNP
▁안락사/NNG
▁앙주/NNP
▁야행/NNG
▁어쨌든/MAG
▁에라스무스/NNP
▁엔/NNB
▁연개소문/NNP
▁연마/NNG
▁연사/NNG
▁열거/NNG
▁열혈/NNG
▁영도구/NNP
▁영등포/NNP
▁영수/NNP
▁왕/XPN
▁외동딸/NNG
▁유감/NNG
▁유의미/NNG
▁의료진/NNG
▁의종/NNP
▁의향/NNG
▁이범석/NNP
▁이사벨라/NNP
▁이스마일/NNP
▁이스트우드/NNP
▁인코딩/NNP
▁임오군란/NNP
▁자부심/NNG
▁잡종/NNG
▁장경/NNG
▁장광/NNP
▁장동/NNP
▁전황/NNG
▁정말로/MAG
▁정여립/NNP
▁제비/NNG
▁제일/NNG
▁제패/NNG
▁조커/NNP
▁좌월/NNG
▁직권/NNG
▁차수/NNG
▁차차차/NNG
▁챌린저/NNG
▁천도교/NNG
▁충무공/NNP
▁카에데/NNP
▁카오스/NNG
▁카자흐/NNP
▁카탈로그/NNG
▁쾌락/NNG
▁키무라/NNG
▁탄화수소/NNG
▁택지/NNG
▁테이트/NNP
▁토고/NNP
▁파스타/NNG
▁팩토리/NNP
▁팬택/NNP
▁퍼레이드/NNG
▁펀자브/NNP
▁포리스트/NNP
▁풍월주/NNP
▁프랑/NNB
▁프레스코/NNG
▁플리머스/NNP
▁필라멘트/NNG
▁하녀/NNG
▁하중/NNG
▁한국기원/NNP
▁한림/NNP
▁합성생물학/NNP
▁핫식스/NNP
▁해골/NNG
▁해바라기/NNG
▁해일/NNG
▁호국/NNG
▁홍대/NNP
▁황궁/NNP
▁황위/NNP
▁희/NNP
元/SH
北魏/SH
愛/SH
공룡/NNG
구경/NNG
구이/NNG
느냐/EC
다운/NNG
다큐멘터리/NNG
단/MAG
데/VV
도다/EF
따르/VV
마법/NNG
메이어/NNP
문명/NNG
방문/NNG
부속/NNG
불멸/NNG
수반/NNG
신부/NNG
신입/NNG
싸움/NNG
장성/NNG
제로/NNG
종족/NNG
지침/NNG
진화/NNG
청장/NNG
체인/NNG
추가/NNG
충북/NNP
충전/NNG
치사/NNG
카툰네트워크/NNP
퍼센트/NNB
피터/NNP
학력/NNG
합포/NNP
해양부/NNG
109/SN
114/SN
1912/SN
900/SN
DOS/SL
How/SL
OH/SL
POP/SL
SK/SL
r/SL
ve/SL
́/SW
※/SW
▁1-3/W_SERIAL
▁10000/SN
▁15,000/SN
▁1545/SN
▁1564/SN
▁1580/SN
▁1607/SN
▁1608/SN
▁184/SN
▁189/SN
▁198/SN
▁225/SN
▁3.4/SN
▁4-1/W_SERIAL
▁4.4/SN
▁7000/SN
▁Am/SL
▁Community/SL
▁Economic/SL
▁Five/SL
▁HBO/SL
▁Heaven/SL
▁Kalafina/SL
▁Kingdom/SL
▁Laboratory/SL
▁NHL/SL
▁Natural/SL
▁PL/SL
▁Place/SL
▁Seven/SL
▁Simon/SL
▁Stephen/SL
▁Take/SL
▁Wilson/SL
▁acid/SL
▁am/SL
▁list/SL
▁will/SL
▁こぶし/SW
▁가시와/NNP
▁가정부/NNG
▁가창/NNG
▁각막/NNG
▁거르/VV
▁거지/NNG
▁건드리/VV
▁게이머/NNG
▁겸비/NNG
▁경구/NNG
▁곡률/NNP
▁공직자/NNG
▁관철/NNG
▁광명/NNP
▁구면/NNG
▁국경일/NNG
▁국면/NNG
▁금요드라마/NNG
▁급기야/MAG
▁김문/NNP
▁김신/NNP
▁깃들/VV
▁끓는점/NNG
▁나카노촌/NNG
▁내려놓/VV
▁네덜란드어/NNP
▁노키아/NNP
▁뉴먼/NNP
▁다당/NNG
▁달래/VV
▁대도시권/NNP
▁대종교/NNG
▁데보라/NNP
▁데비/NNP
▁데일/NNP
▁도라/NNP
▁도쿠시마현/NNG
▁두통/NNG
▁디렉터리/NNG
▁디지/NNP
▁딕슨/NNP
▁레옹/NNP
▁레이드/NNP
▁롯데리아/NNP
▁리버스/NNP
▁리스크/NNG
▁리허설/NNG
▁마거릿/NNP
▁마사토시/NNG
▁막사/NNG
▁만회/NNG
▁말소/NNG
▁망각/NNG
▁망치/VV
▁매사추세츠주의/NNG
▁맨션/NNG
▁메이플스토리/NNP
▁면화/NNG
▁목포부/NNP
▁무지/NNG
▁미지/NNG
▁민경/NNP
▁반칙/NNG
▁베드/NNG
▁베어/NNG
▁벤저민/NNP
▁벼/NNG
▁병부/NNG
▁볶/VV
▁부부장/NNG
▁부산교통공사/NNP
▁분구/NNG
▁불발/NNG
▁불사/NNG
▁불순물/NNG
▁브로드/NNP
▁블라인드/NNG
▁비단/NNG
▁비욘세/NNP
▁사드/NNG
▁사라예보/NNP
▁사바나/NNP
▁사부/NNG
▁사카/NNP
▁사흘/NNG
▁산적/NNG
▁살레/NNP
▁삼거리/NNG
▁상하/VV
▁새마을호/NNG
▁서예가/NNG
▁서피스/NNP
▁석호/NNG
▁선거인/NNG
▁성추행/NNG
▁세밀하/VA
▁셔먼/NNP
▁쇠약/NNG
▁쇼치쿠/NNP
▁쇼케이스/NNG
▁수정안/NNG
▁수호이/NNP
▁순직/NNG
▁슈바벤/NNP
▁스플릿/NNG
▁스피노자/NNP
▁시아파/NNG
▁시종/MAG
▁시행령/NNG
▁시효/NNG
▁신궁/NNG
▁아스팔트/NNG
▁아쓰시/NNG
▁아이카/NNP
▁아카시/NNP
▁안무가/NNG
▁애로우/NNP
▁어게인/NNP
▁어서/MAG
▁에메랄드/NNG
▁여고추리반/NNG
▁여주시/NNP
▁연구실/NNG
▁연천/NNP
▁엷/VA
▁오경/NNP
▁오오츠카/NNG
▁온양/NNP
▁온전히/MAG
▁옴니버스/NNG
▁와이파이/NNP
▁완벽히/MAG
▁왕릉/NNG
▁우주국/NNG
▁월성/NNP
▁유성은/NNP
▁유약/NNG
▁유폐/NNG
▁유혈/NNG
▁은둔/NNG
▁은사/NNG
▁의천/NNP
▁이목/NNG
▁이사오/NNP
▁이설/NNG
▁이연/NNP
▁이재용/NNP
▁이정재/NNP
▁이치로/NNP
▁이튿날/NNG
▁인동/NNP
▁인터스코프/NNG
▁자꾸/MAG
▁자석/NNG
▁재고/NNG
▁재수/NNG
▁저널리즘/NNG
▁적시/NNG
▁절제/NNG
▁절충/NNG
▁정치부/NNG
▁젖산/NNG
▁제노아/NNG
▁조선왕조실록/NNP
▁조선족/NNP
▁존스턴/NNP
▁주유소/NNG
▁준말/NNG
▁중첩/NNG
▁지하수/NNG
▁지휘봉/NNG
▁직역/NNG
▁진영/NNP
▁차단제/NNG
▁차량기지/NNP
▁차질/NNG
▁차후/NNG
▁책임감/NNG
▁체급/NNG
▁출정/NNG
▁치중/NNG
▁캐슬/NNP
▁캡처/NNG
▁코딩/NNG
▁코크/NNP
▁콘스탄틴/NNP
▁타디스/NNP
▁타잔/NNP
▁토니상/NNP
▁퇴적암/NNG
▁트레버/NNP
▁트롯/NNG
▁파르티아/NNP
▁편광/NNG
▁폐색/NNG
▁표준어/NNG
▁프랭키/NNP
▁플러그인/NNP
▁플뢰레/NNP
▁피에로/NNP
▁필즈/NNP
▁하프라이프/NNP
▁한국일보/NNP
▁한참/MAG
▁함의/NNG
▁해운대/NNP
▁홀랜드/NNP
▁홍해/NNP
▁화이트삭스/NNP
▁황하/NNP
▁후미오/NNP
▁휘발/NNG
▁휴게소/NNG
▁히로/NNP
▁히로미/NNG
▁히타치/NNP
▁힌두/NNP
き/SW
가면라이더/NNP
강토/NNG
골드윈/NNP
관구/NNG
구청/NNG
기획부/NNG
김해/NNP
농협/NNG
대/VV
대결/NNG
데스크/NNG
랭킹/NNG
로켓/NNG
리얼/NNG
리프트/NNG
마리아/NNP
문고/NNG
바르/VA
배열/NNG
법원장/NNG
변동/NNG
뿔/NNG
산소/NNG
상수/NNG
소비자/NNG
쇼크/NNG
시가지/NNG
신설/NNG
아마추어/NNG
아무/NP
아직/MAG
여고/NNG
예배/NNG
오락/NNG
위생/NNG
육/NNG
음파/NNG
잭/NNP
정맥/NNG
좀/MAG
주체/NNG
지향/NNG
총감/NNG
출마/NNG
출발/NNG
키/VV
테러/NNG
학문/NNG
화상/NNG
횟수/NNG
!?/SF
1889/SN
Die/SL
Joseph/SL
May/SL
bit/SL
int/SL
nm/SL
type/SL
▁159/SN
▁1590/SN
▁1604/SN
▁1722/SN
▁1760/SN
▁2026/SN
▁235/SN
▁Apple/SL
▁Bazooka/SL
▁Bible/SL
▁By/SL
▁CE/SL
▁Centre/SL
▁DDR/SL
▁DREAM/SL
▁Disc/SL
▁El/SL
▁Introduction/SL
▁Jesus/SL
▁Johnson/SL
▁Ma/SL
▁Medical/SL
▁VOCALOID/SL
▁Week/SL
▁im/SL
▁which/SL
▁written/SL
▁간/NNP
▁개경/NNP
▁게이세이/NNG
▁게이한/NNP
▁고세이/NNG
▁고압/NNG
▁고증/NNG
▁과거사/NNG
▁과도기/NNG
▁광양/NNP
▁교황령/NNP
▁구릉지/NNG
▁국민대학교/NNP
▁국빈/NNG
▁국사편찬위원회/NNP
▁군무/NNG
▁궁지/NNG
▁그루/NNB
▁급속도/NNG
▁기/NNB
▁기독/NNG
▁김상현/NNP
▁김선영/NNP
▁김영철/NNP
▁내/MM
▁내버리/VV
▁내쫓/VV
▁넷스케이프/NNP
▁눈물/NNP
▁단기간/NNG
▁단련/NNG
▁당근/NNG
▁당연/NNG
▁델마/NNP
▁도승지/NNP
▁동평/NNP
▁뒤틀리/VV
▁드/NNG
▁디스커버리/NNP
▁로시/NNP
▁록펠러/NNP
▁루/NNG
▁루미/NNP
▁리그전/NNG
▁리들리/NNP
▁만/MM
▁말론/NNP
▁메리트/NNP
▁메이저리그/NNG
▁명랑/NNG
▁명중/NNG
▁목표성향/NNP
▁몰도바의/NNG
▁몰려들/VV
▁밀수/NNG
▁바티/NNP
▁발상지/NNG
▁방랑/NNG
▁방목/NNG
▁병영/NNG
▁병용/NNG
▁보이콧/NNG
▁보통군사법원/NNP
▁봅슬레이/NNG
▁분가/NNG
▁불가피/XR
▁브람스/NNP
▁비단털쥐/NNP
▁빌뉴스/NNP
▁빌바오/NNP
▁사이비/NNG
▁사직/NNP
▁사카구치/NNG
▁상계/NNP
▁상대국/NNG
▁상징물/NNG
▁상향/NNG
▁색슨/NNP
▁생기/NNG
▁생산지/NNG
▁생쥐/NNG
▁샤른호르스/NNG
▁서한/NNG
▁석류/NNG
▁선제골/NNG
▁소노/NNG
▁소진/NNG
▁속죄/NNG
▁쇼미더머니/NNP
▁쇼텐/NNP
▁수구/NNG
▁수송기/NNG
▁수수료/NNG
▁순방/NNG
▁스완/NNP
▁스칼렛/NNP
▁신봉/NNG
▁신익희/NNP
▁아몬드/NNG
▁아이젠하워/NNP
▁안심/NNG
▁알데바/NNG
▁알레르기/NNG
▁앗/IC
▁에드거/NNP
▁에센/NNP
▁여러해살이/NNG
▁연패/NNG
▁영공/NNG
▁영세/NNG
▁오다와라/NNG
▁오디세이/NNP
▁오렌지색/NNG
▁오른팔/NNG
▁오리올스/NNP
▁옹/NNB
▁와이즈/NNP
▁외주/NNG
▁우림/NNG
▁우여곡절/NNG
▁우치다/NNP
▁울리히/NNP
▁워런/NNP
▁웨어/NNG
▁웰스/NNP
▁유니콘/NNP
▁유목민/NNG
▁윤선거/NNP
▁은/NNP
▁은하단/NNG
▁의붓/NNG
▁이광수/NNP
▁이봉/NNP
▁이슬람교도/NNG
▁이아지게스족/NNP
▁이와타/NNG
▁인슐린/NNG
▁일러스트레이터/NNG
▁자루/NNG
▁자주색/NNG
▁전동기/NNG
▁정명훈/NNP
▁정언/NNG
▁정열/NNG
▁정회원/NNG
▁조쉬/NNP
▁죄책감/NNG
▁지요다/NNP
▁집현전/NNP
▁착/MAG
▁찬탈/NNG
▁채찍/NNG
▁철인/NNG
▁체구/NNG
▁체액/NNG
▁초계/NNG
▁총리직/NNG
▁촬영지/NNG
▁추징금/NNG
▁치타/NNG
▁카펜터/NNP
▁칵테일/NNG
▁캄파니아주의/NNG
▁캐롤라인/NNP
▁컴프레서/NNP
▁코르테스/NNP
▁콩팥/NNG
▁쾌적/XR
▁쿡/NNP
▁클레오파트라/NNP
▁탄산/NNG
▁택배/NNG
▁통도사/NNP
▁트랩/NNG
▁트러블/NNG
▁패러데이/NNP
▁평촌/NNP
▁포구/NNG
▁포르투갈령/NNG
▁포세이돈/NNP
▁포탈/NNG
▁폴타바/NNP
▁표하/VV
▁풀백/NNP
▁풍산/NNP
▁플라워/NNP
▁픽스/NNP
▁하드리아누스/NNP
▁하모니카/NNG
▁하향/NNG
▁함축/NNG
▁행성계/NNP
▁허가서/NNG
▁홀딩스/NNG
▁화순/NNP
▁휘트니/NNP
▁히가시/NNG
▁힘차/VA
君/SH
現/SH
遼/SH
강좌/NNG
경전/NNG
계곡/NNG
고층/NNG
국제공항/NNG
남쪽/NNG
냐/EC
논총/NNG
농림/NNG
늑대/NNG
닛폰/NNP
대비/NNG
댁/XSN
던지/VV
득실/NNG
러너/NNG
리틀/NNG
목포/NNP
무적/NNG
발사체/NNG
방송학/NNG
방화동/NNP
분수/NNG
분지/NNG
불능/NNG
사옥/NNG
사촌/NNG
샷/NNG
손자/NNG
송신/NNP
시도/NNG
시점/NNG
아주/MAG
연주회/NNG
유성/NNG
이사장/NNG
장면/NNG
장지산/NNP
적합/NNG
전대/NNG
조연/NNG
조카/NNG
지내/VV
천체/NNG
파출소/NNG
편입/NNG
항만/NNG
헤드/NNG
호점/NNB
홍수/NNG
효종/NNP
127/SN
155/SN
First/SL
H./SL
P./SL
Single/SL
Time/SL
of/SL
▁100,000/SN
▁1413/SN
▁1583/SN
▁1628/SN
▁1745/SN
▁1781/SN
▁188/SN
▁4.3/SN
▁420/SN
▁940/SN
▁AA/SL
▁ACS/SL
▁Albert/SL
▁Arthur/SL
▁BLACK/SL
▁Beautiful/SL
▁Bill/SL
▁CR/SL
▁Call/SL
▁Der/SL
▁Fall/SL
▁February/SL
▁Her/SL
▁ITU/SL
▁Japanese/SL
▁Key/SL
▁MAX/SL
▁Need/SL
▁PK/SL
▁President/SL
▁RB/SL
▁RS/SL
▁Record/SL
▁Source/SL
▁TNT/SL
▁Tân/SL
▁UX/SL
▁가속도/NNG
▁간염/NNG
▁개인주의/NNG
▁게임스/NNG
▁겐타/NNP
▁격돌/NNG
▁격분/NNG
▁경치/NNG
▁고법/NNG
▁곡률/NNG
▁공사관/NNG
▁공생/NNG
▁공양왕/NNP
▁공포증/NNG
▁괴담/NNP
▁구독자/NNG
▁구매자/NNG
▁구문문법/NNP
▁국지전/NNG
▁굶/VV
▁궁인/NNG
▁권위주의/NNG
▁기교/NNG
▁기록물/NNG
▁기만/NNG
▁기와/NNG
▁기흥구/NNP
▁김도연/NNP
▁김정호/NNP
▁나나/NNP
▁나아지/VV
▁나츠키/NNG
▁남군/NNG
▁남짓/NNB
▁내과/NNG
▁노르딕/NNP
▁니코/NNP
▁니키타/NNP
▁단골/NNG
▁단념/NNG
▁대개/NNG
▁대전시/NNP
▁덧셈/NNG
▁델라/NNG
▁도감/NNG
▁도시락/NNG
▁동강댐/NNP
▁동두천시/NNP
▁뒤쫓/VV
▁뒷심/NNG
▁드래건스/NNG
▁득점자/NNG
▁디어즈/NNG
▁레이먼드/NNP
▁로건/NNP
▁로그인/NNG
▁로렌초/NNG
▁로지/NNP
▁루디/NNP
▁룩/NNG
▁마땅히/MAG
▁맞대결/NNG
▁맞춤법/NNG
▁매달/VV
▁매료/NNG
▁머스크/NNP
▁머시/NNP
▁메디아/NNP
▁멕시코인/NNG
▁멜라니/NNP
▁모로/MAG
▁모험가/NNG
▁물들/VV
▁미노루/NNG
▁미치코/NNP
▁바둑왕전/NNG
▁발행인/NNG
▁벌집/NNG
▁베어링/NNG
▁보고타/NNP
▁보카/NNP
▁본진/NNG
▁부딪치/VV
▁부원/NNG
▁부조/NNG
▁불확실/NNG
▁브라/NNP
▁빨치산/NNG
▁뿜/VV
▁사가현/NNG
▁사랑채/NNG
▁사모/NNG
▁산학/NNG
▁삼국유사/NNP
▁삼한/NNP
▁서양식/NNG
▁서현/NNP
▁선거법/NNG
▁성교/NNG
▁성현/NNG
▁셰일/NNP
▁소요기/NNG
▁속초시/NNP
▁쇼팽/NNP
▁쉐보레/NNP
▁시해/NNG
▁식료품/NNG
▁신경외과/NNG
▁쑤저우/NNP
▁씨네21/NNP
▁아키오/NNP
▁알랭/NNP
▁압승/NNG
▁애스턴/NNP
▁양재/NNP
▁어나더/NNG
▁에마/NNP
▁에코/NNP
▁연대장/NNG
▁염곡동/NNG
▁영연방/NNP
▁오만/NNG
▁오쿠보/NNG
▁요나라/NNP
▁용수/NNP
▁우화/NNG
▁웨스/NNP
▁웨일즈/NNP
▁윙스/NNP
▁유리카/NNP
▁유쾌/NNG
▁육로/NNG
▁육박/NNG
▁윤희/NNP
▁음란/NNG
▁음서/NNP
▁음식물/NNG
▁의열단/NNP
▁이웃집/NNG
▁장시간/NNG
▁장전/NNG
▁재치/NNG
▁저작물/NNG
▁전북대학교/NNP
▁전용기/NNG
▁정유정/NNP
▁조광조/NNP
▁조국/NNG
▁조음/NNG
▁주방/NNG
▁주치의/NNG
▁중/XR
▁중진/NNG
▁중합체/NNP
▁지구인/NNG
▁지크프리트/NNP
▁진언/NNG
▁천민/NNG
▁천안함/NNP
▁첨부/NNG
▁청부/NNG
▁최준/NNP
▁추종/NNG
▁추진력/NNG
▁출발점/NNG
▁침실/NNG
▁칭화/NNG
▁카봇/NNG
▁콘도/NNG
▁큐슈여객철도의/NNG
▁큐어/NNP
▁크/IC
▁크라임/NNG
▁클라우디아/NNP
▁타히티/NNP
▁탄환/NNG
▁테이/NNP
▁통신망/NNG
▁통찰력/NNG
▁투척/NNG
▁트랜잭션/NNP
▁트빌리시/NNP
▁티모시/NNP
▁페니키아/NNP
▁편/XR
▁평신도/NNP
▁평안/NNP
▁프로방스/NNP
▁피격/NNG
▁필름스/NNG
▁하야/NNG
▁학생회/NNG
▁한명회/NNP
▁함안/NNP
▁허셜/NNP
▁허정/NNP
▁험하/VA
▁헬스/NNG
▁현세/NNG
▁화원/NNG
▁후지모토/NNG
▁훔볼트/NNP
▁휠러/NNP
♪/SW
そよぎ/SW
子/SH
曲目/SH
淸/SH
王/SH
遠野/SH
간행물/NNG
거부/NNG
공로/NNG
공연장/NNG
광주광역시/NNP
납/NNG
따/VV
로프/NNG
모바일/NNG
모형/NNG
범/XPN
부서/NNG
빨갛/VA-I
수상하/VA
스웨덴/NNP
스프링/NNG
식사/NNG
아일랜드/NNP
약칭/NNG
약품/NNG
여왕/NNG
연산군/NNP
오사카부/NNP
우루스/NNP
원자력/NNG
유출/NNG
유튜브/NNP
잡/NNG
장편/NNG
주머니/NNG
주파/NNG
진흥청/NNG
찰나/NNG
채용/NNG
체결/NNG
최종/NNG
친/XPN
포화/NNG
하부/NNG
흡수/NNG
1891/SN
212/SN
BA/SL
Nominated/SL
Promotion/SL
Show/SL
T./SL
ch/SL
cm./SL
j/SL
˙/SW
─/SS
▁1,400/SN
▁1536/SN
▁1589/SN
▁1650/SN
▁2000-01/W_SERIAL
▁204/SN
▁212/SN
▁221/SN
▁2:0/W_SERIAL
▁ARM/SL
▁ASEM/SL
▁Arabic/SL
▁Bell/SL
▁Better/SL
▁Body/SL
▁Building/SL
▁CNN/SL
▁CoE/SL
▁Draw/SL
▁EAFF/SL
▁England/SL
▁Evolution/SL
▁Freedom/SL
▁Gallery/SL
▁Head/SL
▁IRA/SL
▁Index/SL
▁Jack/SL
▁MOU/SL
▁Mr/SL
▁October/SL
▁Physics/SL
▁Plus/SL
▁RX/SL
▁Rights/SL
▁SNK/SL
▁Six/SL
▁Taylor/SL
▁Things/SL
▁UD/SL
▁Universe/SL
▁Was/SL
▁Washington/SL
▁end/SL
▁language/SL
▁γ/SW
▁ㄴ/SW
▁가선대부/NNG
▁가시마/NNP
▁가전/NNG
▁가환/NNG
▁가환환/NNP
▁간에이/NNP
▁갈아타/VV
▁감히/MAG
▁게슈타포/NNP
▁견주/VV
▁결실/NNG
▁경산/NNP
▁고작/MAG
▁고치/NNG
▁공평/NNG
▁관사/NNG
▁광부/NNG
▁교신/NNG
▁국악인/NNG
▁권력자/NNG
▁극화/NNG
▁김성주/NNP
▁꼬이/VV
▁낙인/NNG
▁난쟁이/NNG
▁남로당/NNP
▁남북한/NNP
▁남아공/NNP
▁냉장고/NNG
▁노팅엄/NNP
▁닉네임/NNG
▁다섯째/NR
▁단정/NNG
▁대관령/NNP
▁도미티아누스/NNP
▁돗토리현/NNG
▁디저트/NNG
▁라이징/NNG
▁레퀴엠/NNP
▁로타르/NNG
▁롬바르디아/NNP
▁루니/NNP
▁리오넬/NNP
▁마라도나/NNP
▁만년필/NNG
▁말초/NNG
▁맥과이어/NNP
▁메스/NNG
▁메이스/NNP
▁면접/NNG
▁명창/NNG
▁모더니즘/NNG
▁모스트/NNP
▁문학사/NNG
▁물리학과/NNG
▁미움/NNG
▁미처/MAG
▁밑면/NNG
▁박순/NNP
▁반포/NNG
▁발상/NNG
▁백현/NNP
▁법무관/NNG
▁베네딕트/NNP
▁베이커리/NNP
▁베트남어/NNP
▁병들/VV
▁보답/NNG
▁보은/NNP
▁보일러/NNG
▁보츠와나/NNP
▁봄바디어/NNP
▁봉헌/NNG
▁부산물/NNG
▁분당선/NNP
▁불멸/NNG
▁블랑/NNP
▁비서실/NNG
▁비지니스/NNG
▁빈스/NNG
▁빗대/VV
▁산책로/NNG
▁생부/NNG
▁생제르맹은/NNG
▁서울공연예술고등학교/NNP
▁선샤인/NNP
▁세포질/NNG
▁셜리/NNP
▁셰프/NNG
▁소부/NNP
▁속주/NNG
▁손수/MAG
▁수유/NNP
▁스맥다운/NNG
▁스웨덴인/NNP
▁스키장/NNG
▁시노/NNP
▁식/VV
▁식수/NNG
▁신격/NNG
▁신디/NNP
▁신리/NNP
▁신춘문예/NNG
▁싹/NNG
▁아래턱/NNG
▁암자/NNG
▁양녀/NNG
▁양복/NNG
▁어니스트/NNP
▁엄격히/MAG
▁엘렌/NNP
▁연골/NNG
▁영산강/NNP
▁영해/NNG
▁예견/NNG
▁오리엔트/NNP
▁오스본/NNG
▁와일드카드/NNP
▁요셉/NNP
▁용인대학교/NNP
▁우마/NNP
▁우메다/NNP
▁위도우/NNG
▁유행어/NNG
▁은밀하/VA
▁이기/NNG
▁인/NNP
▁인디아나/NNP
▁인피니트/NNP
▁자본금/NNG
▁전문점/NNG
▁전시관/NNG
▁절도/NNG
▁접목/NNG
▁정량/NNG
▁정역/NNG
▁제후국/NNG
▁조선/NNG
▁조제프/NNP
▁좌찬성/NNP
▁좡족/NNP
▁주청/NNG
▁중일전쟁/NNP
▁쥐라기/NNP
▁즉석/NNG
▁지표면/NNG
▁진의/NNG
▁진폭/NNG
▁집무실/NNG
▁차이나타운/NNG
▁참되/VA
▁참봉/NNG
▁처우/NNG
▁청취/NNG
▁청하/NNP
▁출병/NNG
▁칭다오/NNP
▁카네기/NNP
▁캉/NNG
▁컬트/NNG
▁케어/NNG
▁코로나바이러스 감염증/NNP
▁코우/NNG
▁타임라인/NNP
▁탐라/NNP
▁태극/NNG
▁태양열/NNG
▁태화/NNP
▁테오/NNP
▁템플릿/NNP
▁통곡/NNG
▁통일민주당/NNP
▁특무/NNG
▁패퇴/NNG
▁포섭/NNG
▁포스코/NNP
▁표지판/NNG
▁풀럼/NNP
▁풍기/VV
▁프레이/NNP
▁프렌드/NNG
▁프로이트/NNP
▁피어슨/NNP
▁하로프/NNG
▁한자어/NNG
▁할레/NNP
▁함안군/NNP
▁핵산/NNG
▁허각/NNP
▁현수/NNP
▁형수/NNG
▁혼수/NNG
▁화염/NNG
▁황해남도/NNP
▁효모/NNG
▁히라노/NNP
ノ/SW
武内宿禰/SH
洞/SH
공로상/NNG
관/NNB
관리청/NNG
광복군/NNG
교체/NNG
구축/NNG
근정/NNG
금낭화로/NNP
꼬마/NNG
나마/JX
냐고/EF
너무/MAG
더러/JKB
마크/NNP
북쪽/NNG
블루/NNG
빛나/VV
사냥/NNG
세자/NNG
시범/NNG
시상식/NNG
실리/NNG
얼굴/NNG
용기/NNG
윌리엄/NNP
이스라엘/NNP
주목/NNG
중략/NNG
진입/NNG
채권/NNG
최후/NNG
출전/NNG
칼빈/NNP
커버/NNG
평야/NNG
포칼/NNP
하키/NNG
한신/NNP
해병/NNG
현대/NNP
화해/NNG
135/SN
1895/SN
BSD/SL
CH/SL
English/SL
GM/SL
IV/SL
Life/SL
TV조선/NNP
pizza/SL
ᆫ가요/EF
▁1392/SN
▁1613/SN
▁1619/SN
▁166/SN
▁1730/SN
▁1780/SN
▁2002-03/W_SERIAL
▁215/SN
▁232/SN
▁239/SN
▁262/SN
▁343/SN
▁3:1/W_SERIAL
▁4-2/W_SERIAL
▁5.1/SN
▁640/SN
▁7.0/SN
▁ACE/SL
▁AK/SL
▁As/SL
▁Asian/SL
▁Chapter/SL
▁Defense/SL
▁Edge/SL
▁Express/SL
▁IR/SL
▁Jazz/SL
▁Mini/SL
▁NK/SL
▁Nation/SL
▁OECD/SL
▁OK/SL
▁Order/SL
▁PAL/SL
▁Point/SL
▁Revolution/SL
▁See/SL
▁Tree/SL
▁cell/SL
▁night/SL
▁number/SL
▁our/SL
▁single/SL
▁가드너/NNP
▁각인/NNG
▁간청/NNG
▁간행물/NNG
▁감자튀김/NNG
▁감탄/NNG
▁개회/NNG
▁건축과/NNG
▁게/IC
▁경남고등학교/NNP
▁골든디스크/NNG
▁관아/NNG
▁광무/NNP
▁교도관/NNG
▁구이/NNG
▁국방위원회/NNP
▁귀납/NNG
▁금리/NNG
▁김덕/NNP
▁꾸란/NNP
▁나/NNP
▁나르/VV
▁나탈리아/NNG
▁남서울/NNP
▁네드/NNP
▁네트워킹/NNG
▁녹차/NNG
▁높이뛰기/NNG
▁니체/NNP
▁다이너마이트/NNG
▁다치카와/NNG
▁단짝/NNG
▁대간/NNP
▁덩샤오핑/NNP
▁델라웨어/NNP
▁도금/NNG
▁도미니크/NNP
▁도전자/NNG
▁따라잡/VV-R
▁랭스/NNP
▁레이몬드/NNG
▁레이코/NNG
▁로고송/NNG
▁리버티/NNP
▁리스터/NNG
▁리지/NNP
▁마귀/NNG
▁마린스/NNG
▁마이너스/NNG
▁만기/NNG
▁만수/NNP
▁만약/NNG
▁만행/NNG
▁말라위/NNP
▁매크로/NNP
▁맨틀/NNG
▁먀오족/NNP
▁메이어/NNP
▁명맥/NNG
▁모피/NNG
▁무예/NNG
▁무토/NNG
▁문부/NNG
▁문정/NNP
▁미궁/NNG
▁미노/NNP
▁미로/NNP
▁민스크/NNP
▁바실리/NNP
▁바실리오스/NNG
▁반열/NNG
▁방계/NNG
▁배심원/NNG
▁베냉/NNP
▁보두앵/NNP
▁보이저/NNG
▁봉분/NNG
▁부쿠레슈티/NNP
▁부풀리/VV
▁분쇄/NNG
▁분실/NNG
▁분절/NNG
▁불운/NNG
▁브라이트/NNG
▁비약/NNG
▁빠져나오/VV
▁뼈대/NNG
▁사업체/NNG
▁산술/NNG
▁살포/NNG
▁삼미/NNP
▁삼별초/NNP
▁서력/NNG
▁선덕여왕/NNP
▁선분/NNG
▁섭동/NNP
▁세자르/NNP
▁소급/NNG
▁속임수/NNG
▁쇼헤이/NNP
▁숍/NNG
▁숙의/NNG
▁스스무/NNG
▁슬릿/NNG
▁시에라/NNP
▁시찰/NNG
▁시판/NNG
▁시흥/NNP
▁신상/NNG
▁신예/NNG
▁아리/VA
▁아사/NNG
▁아소/NNG
▁아우디/NNP
▁아이언맨/NNP
▁아퀴나스/NNP
▁아흐메드/NNP
▁액정/NNG
▁양말/NNG
▁어폰/NNG
▁에게/JKB
▁에인절/NNP
▁에치젠/NNP
▁에탄올/NNG
▁연하/NNG
▁영암/NNP
▁영흥/NNP
▁옅/VA
▁예보/NNG
▁오리건주/NNP
▁오백/NR
▁오스카르/NNG
▁와해/NNG
▁왕당파/NNG
▁외무대신/NNP
▁외세/NNG
▁우뚝/MAG
▁워릭/NNP
▁원동력/NNG
▁원사/NNG
▁윌킨스/NNG
▁유망주/NNG
▁유주/NNP
▁유치/XR
▁육/NNG
▁은유/NNG
▁은희/NNP
▁음양/NNG
▁이덕형/NNP
▁이블/NNP
▁이선희/NNP
▁이세좌/NNP
▁이와사키/NNG
▁이회창/NNP
▁일례/NNG
▁입적/NNG
▁자연주의/NNG
▁장수왕/NNP
▁점액/NNG
▁조르/VV
▁조제/NNG
▁조현/NNP
▁종일/NNG
▁주술/NNG
▁준공식/NNG
▁지배인/NNG
▁직장인/NNG
▁진성/NNP
▁징/NNG
▁차내/NNG
▁차수/NNP
▁찬가/NNG
▁찬미/NNG
▁찬반/NNG
▁찬송가/NNG
▁초은하단/NNP
▁총합/NNG
▁충절/NNG
▁층쿠/NNG
▁침략자/NNG
▁카밀라/NNP
▁카오루/NNG
▁캐피털/NNP
▁커넥터/NNG
▁컨셉트/NNG
▁코롤라/NNG
▁큐슈/NNP
▁클로즈/NNG
▁킬로/NNB
▁탈/NNG
▁태인/NNP
▁톈안먼/NNP
▁토시/NNG
▁틀리/VA
▁티아지드/NNG
▁판시/NNG
▁포교/NNG
▁포우하탄/NNP
▁폴란드어/NNP
▁푸리에/NNP
▁풀백/NNG
▁품위/NNG
▁플래닛/NNG
▁피에몬테/NNG
▁하드코어/NNG
▁하마다/NNG
▁하수/NNG
▁한국민주당/NNP
▁함몰/NNG
▁핵미사일/NNG
▁헤엄치/VV
▁헤이스/NNP
▁효시/NNG
▁희미/XR
う/SW
全州/SH
가입/NNG
경선/NNG
고위/NNG
관현악단/NNG
광무/NNP
교정/NNG
구도/NNG
국보/NNG
군대/NNG
근로/NNG
기념일/NNG
냐고/EC
니가타/NNP
닌텐도/NNP
대기/NNG
대우/NNG
도록/EF
등록금/NNG
디즈니/NNP
띠/NNG
레이/NNP
레이스/NNG
린스/NNG
매매/NNG
문법/NNG
문집/NNG
밉/VA-I
박근혜/NNP
반장/NNG
버터/NNG
베르/NNG
병합/NNG
부처/NNG
분데스리가/NNP
석방/NNG
신한은행/NNP
실시/NNG
아저씨/NNG
안녕/IC
애국/NNG
어요/EC
오바/NNG
외국인/NNG
요건/NNG
용의/NNG
이렇/VA-I
인용/NNG
재즈/NNG
정찰/NNG
정치인/NNG
존/NNP
중기/NNG
친화/NNG
코트/NNG
크기/NNG
크리스/NNP
태자/NNG
포항/NNP
플라이/NNG
학적/NNG
환승/NNG
후반/NNG
히로시마/NNP
108/SN
151/SN
1905/SN
1906/SN
ISBN/SL
King/SL
Korea/SL
Take/SL
WOWOW/SL
▁1588/SN
▁1629/SN
▁1648/SN
▁1689/SN
▁1823/SN
▁196/SN
▁1993./SN
▁1997./SN
▁208/SN
▁238/SN
▁5.2/SN
▁8.1/SN
▁Artist/SL
▁Bay/SL
▁Complete/SL
▁DA/SL
▁GPL/SL
▁Gone/SL
▁Greatest/SL
▁Harvard/SL
▁Hell/SL
▁Hi/SL
▁ITV/SL
▁LTE/SL
▁MOVIE/SL
▁Next/SL
▁Off/SL
▁Other/SL
▁Right/SL
▁Seminary/SL
▁September/SL
▁Tonight/SL
▁gecko/SL
▁type/SL
▁ㄱ/SW
▁가/VX
▁가용/NNG
▁간이/NNG
▁강서/NNP
▁강판/NNG
▁강현/NNP
▁객사/NNG
▁게이츠/NNP
▁경기력/NNG
▁경도/NNG
▁계산기/NNG
▁계엄령/NNG
▁고생물학자/NNG
▁고이치/NNP
▁고택/NNG
▁공격자/NNG
▁교토부/NNP
▁국민회의/NNP
▁국밥/NNG
▁국세/NNG
▁군사사/NNP
▁굴리/VV
▁궁핍/NNG
▁권속/NNG
▁그레그/NNP
▁그리워하/VV
▁근해/NNG
▁금방/MAG
▁기본법/NNG
▁기생충/NNG
▁김동현/NNP
▁김태훈/NNP
▁끝없/VA
▁나미비아/NNP
▁난폭/NNG
▁남수단/NNP
▁노년/NNG
▁노동부/NNG
▁뉴어크/NNP
▁다이애나/NNP
▁대관/NNG
▁대명/NNP
▁대문/NNG
▁대미/NNG
▁도안/NNG
▁돌봄/NNG
▁동포/NNG
▁되살리/VV
▁들려주/VV
▁라이츠/NNP
▁라인하르트/NNP
▁라자/NNP
▁라치오/NNG
▁라치오주의/NNG
▁램지/NNP
▁레슨/NNG
▁롤러코스터/NNG
▁루퍼트/NNP
▁멧돼지/NNG
▁모녀/NNG
▁모유/NNG
▁모티프/NNG
▁무릅쓰/VV
▁무쓰/NNG
▁무코다/NNG
▁무하마드/NNP
▁문관/NNG
▁미나토구/NNG
▁미시마/NNP
▁민의원/NNG
▁밀교/NNG
▁바니/NNP
▁바이로이트/NNP
▁배송/NNG
▁뱅/NNG
▁법조/NNG
▁변론/NNG
▁병참/NNG
▁복고/NNG
▁볼프/NNP
▁부산고등학교/NNP
▁부주석/NNG
▁부활절/NNG
▁북극점/NNP
▁불량배/NNG
▁불모산/NNP
▁불문/NNG
▁브라보/NNG
▁블러/NNP
▁사멸/NNG
▁사색/NNG
▁산기슭/NNG
▁삼손/NNP
▁상표명/NNG
▁생합성/NNP
▁생활비/NNG
▁샹피오나/NNG
▁서바이버/NNP
▁서북부/NNG
▁서투르/VA
▁서해안고속도로/NNP
▁선녀/NNG
▁선지/NNG
▁설리번/NNP
▁설일체유부의/NNG
▁성왕/NNP
▁성충/NNP
▁셀틱/NNP
▁소라/NNG
▁소란/NNG
▁수목미니시리즈/NNG
▁수자원/NNG
▁수화/NNP
▁숙고/NNG
▁순종/NNP
▁슈에이샤/NNP
▁슈테판/NNP
▁스타더스트/NNP
▁스포티파이/NNP
▁시/VA
▁시마/NNG
▁식당차/NNP
▁심취/NNG
▁쌍방/NNG
▁쓰촨/NNP
▁아디다스/NNP
▁아름다움/NNG
▁아메바/NNG
▁아미타불/NNG
▁아야코/NNP
▁아이러니/NNG
▁아호/NNG
▁안보리/NNG
▁알현/NNG
▁암반/NNG
▁암트랙/NNP
▁애완동물/NNG
▁양양군/NNP
▁양천/NNP
▁어간/NNG
▁억만장자/NNP
▁엘런/NNG
▁여주군/NNP
▁연어/NNG
▁열람실/NNG
▁오름/NNG
▁오비폴드/NNP
▁외로움/NNG
▁요술/NNG
▁요코스카/NNG
▁용품/NNG
▁우노/NNP
▁우성/NNP
▁욱일대수장/NNG
▁운전대/NNG
▁울음/NNG
▁윌리암/NNP
▁유도체/NNP
▁유임/NNG
▁육사/NNP
▁육식성/NNP
▁은총/NNG
▁은행나무/NNG
▁응모/NNG
▁이상훈/NNP
▁자객/NNG
▁재량/NNG
▁전남대학교/NNP
▁전완/NNG
▁전체주의/NNG
▁점원/NNG
▁정몽주/NNP
▁조난/NNG
▁조력/NNG
▁족장/NNG
▁종수/NNP
▁줄기세포/NNG
▁중공군/NNG
▁중앙유럽/NNP
▁진핵생물/NNP
▁쭉/MAG
▁찢어지/VV
▁참여연대/NNP
▁창안/NNG
▁창춘/NNP
▁초본/NNG
▁촉/NNP
▁총신/NNG
▁출제/NNG
▁칼란다리시빌리/NNG
▁코사인/NNG
▁코트디부아르의/NNG
▁퀘이사/NNP
▁타이엔다네기/NNP
▁태상/NNP
▁태세/NNG
▁테쿰세/NNP
▁튀르키예어/NNG
▁트랜싯/NNP
▁트러스트/NNP
▁파괴력/NNG
▁파이팅/IC
▁판문점/NNP
▁페라라/NNP
▁페레스/NNP
▁포천군/NNP
▁폴라/NNP
▁플래그/NNP
▁학예/NNG
▁한눈/NNG
▁합기도/NNG
▁핫토리/NNP
▁항생제/NNG
▁해리어/NNP
▁호박/NNG
▁호전/NNG
▁황교안/NNP
▁흉터/NNG
▁히구치/NNG
개그/NNG
건대/EC
고속도로/NNG
공인/NNG
관념/NNG
관리원/NNG
괘/NNG
교과서/NNG
교대/NNG
국민당/NNP
내부/NNG
단/MAJ
대손/NNG
동료/NNG
동포/NNG
미리/MAG
미치/VV
법학/NNG
상법/NNG
생각/NNG
소식/NNG
수수/NNG
야/IC
열리/VV
유령/NNG
의료원/NNG
인재/NNG
일대/NNG
재배/NNG
저/IC
종료/NNG
종착역/NNG
죽이/VV
지주/NNG
천억/NR
총무/NNG
팔/VV
프로그래밍/NNG
피스/NNG
해안/NNG
햄/NNG
형무소/NNG
후방/NNG
125/SN
144/SN
1904/SN
1913/SN
310/SN
AM/SL
DB/SL
EU/SL
KT/SL
Saint/SL
height/SL
ᆯ랑/JX
″/SW
▁1018/SN
▁1567/SN
▁1614/SN
▁1623/SN
▁1662/SN
▁1703/SN
▁1757/SN
▁1763/SN
▁1774/SN
▁1787/SN
▁199/SN
▁19:00/W_SERIAL
▁3.6/SN
▁4.7/SN
▁6.2/SN
▁Beyond/SL
▁CO/SL
▁Chamber/SL
▁December/SL
▁Dragon/SL
▁FE/SL
▁Frank/SL
▁Lake/SL
▁Late/SL
▁MY/SL
▁NAMCO/SL
▁NGO/SL
▁NXT/SL
▁Princeton/SL
▁VII/SL
▁WCG/SL
▁group/SL
▁point/SL
▁가이우스/NNP
▁간택/NNG
▁감바/NNG
▁감사패/NNG
▁갑오/NNG
▁갑오개혁/NNP
▁강경/NNP
▁강주/NNP
▁거물/NNG
▁거주민/NNG
▁걸어가/VV
▁검정고시/NNG
▁게코/NNP
▁견과/NNG
▁경건/XR
▁경찰청장/NNG
▁계림/NNP
▁골반/NNG
▁교수직/NNG
▁구독/NNG
▁국립현대미술관/NNP
▁군내면/NNP
▁굴뚝/NNG
▁굿모닝/NNP
▁규약/NNG
▁글로벌선진학교/NNP
▁글루코스/NNP
▁금난새/NNP
▁금천구/NNP
▁기뢰/NNG
▁기미가요/NNG
▁기아스/NNP
▁김기태/NNP
▁김윤환/NNP
▁김태균/NNP
▁내밀/VV
▁넘겨받/VV-R
▁네안데르탈인/NNG
▁네이처/NNP
▁넥슨/NNP
▁노스웨스트/NNP
▁노파/NNG
▁논픽션/NNG
▁누각/NNG
▁능력자/NNG
▁니시노/NNG
▁다마/NNP
▁다이라노/NNG
▁단발/NNG
▁달려오/VV
▁당군/NNG
▁대남/NNG
▁대덕/NNP
▁대머리/NNG
▁덤프/NNG
▁돌진/NNG
▁동구의회/NNG
▁동봉/NNG
▁디노/NNP
▁디바/NNG
▁디바이스/NNG
▁디아스포라/NNP
▁라이크/NNG
▁레인지/NNG
▁로메로/NNP
▁로사/NNP
▁마운드/NNG
▁만능/NNG
▁말콤/NNP
▁맞먹/VV
▁모닝구무스/NNG
▁모회사/NNG
▁무코다/NNP
▁문중/NNG
▁물의/NNG
▁미그/NNP
▁바늘/NNG
▁반원/NNG
▁발렌타인/NNP
▁방형/NNG
▁배상금/NNG
▁배지/NNG
▁백부/NNG
▁번외/NNG
▁범어사/NNP
▁베티스/NNG
▁변위/NNP
▁별/NNP
▁분석가/NNG
▁불복/NNG
▁불허/NNG
▁붕당/NNG
▁브레이킹/NNG
▁빈민/NNG
▁사마의/NNP
▁사마천/NNP
▁사문/NNG
▁사별/NNG
▁사생아/NNG
▁사저/NNG
▁산내면/NNP
▁새/VV
▁생명력/NNG
▁생산물/NNG
▁샤아/NNG
▁샬케/NNG
▁서크/NNG
▁선미/NNG
▁섬진강/NNP
▁성녀/NNG
▁성매매/NNG
▁성물/NNG
▁성직/NNG
▁성형/NNG
▁소양/NNG
▁숏/NNG
▁수강/NNG
▁수행원/NNG
▁숙모/NNG
▁순경/NNG
▁순응/NNG
▁스나이더/NNP
▁스무/MM
▁스코트/NNP
▁스푸트니크/NNP
▁스프링필드/NNP
▁시녀/NNG
▁시발/NNG
▁실력자/NNG
▁아사미/NNG
▁아사카/NNP
▁아시아나항공/NNP
▁악인/NNG
▁안토니우스/NNP
▁알버트/NNP
▁야쿠자/NNP
▁어메이징/NNP
▁어필/NNG
▁엄지/NNP
▁에리다누스/NNP
▁에이전시/NNP
▁에콜/NNP
▁에테르/NNG
▁여야/NNG
▁역사관/NNG
▁연기력/NNG
▁연우/NNP
▁연화/NNP
▁열반/NNG
▁오두막/NNG
▁오브라이언/NNG
▁와카야마/NNP
▁완주/NNG
▁왜적/NNG
▁요산/NNG
▁용인/NNG
▁우애/NNG
▁운문/NNG
▁웨이터/NNG
▁유파/NNG
▁유표/NNP
▁육안/NNG
▁은어/NNG
▁이재명/NNP
▁이쪽/NP
▁인본주의/NNG
▁일산동구/NNP
▁일어서/VV
▁자코바이트/NNG
▁장국영/NNP
▁장덕수/NNP
▁장화/NNP
▁재래/NNG
▁저스트/NNP
▁전국구/NNG
▁전자기파/NNG
▁전자책/NNG
▁전주곡/NNG
▁전주대학교/NNP
▁제/NNG
▁제임스타운/NNP
▁조서/NNG
▁조운/NNG
▁조효소/NNG
▁죄목/NNG
▁주니오르/NNG
▁즙/NNG
▁진원/NNG
▁창세기/NNP
▁처인구/NNP
▁청원군/NNP
▁초인/NNG
▁총살/NNG
▁캐치/NNG
▁캐치프레이즈/NNG
▁캘거리/NNP
▁쿄코/NNG
▁크레타/NNP
▁크리스티앙/NNP
▁타국/NNG
▁텃밭/NNG
▁톨/NNB
▁파라다이스/NNP
▁파멸/NNG
▁파우스트/NNP
▁패튼/NNP
▁펍지/NNG
▁평년/NNG
▁푸른색/NNG
▁프랑/NNG
▁플라스마/NNP
▁필리포스/NNP
▁하루키/NNP
▁한국도로공사/NNP
▁한수/NNP
▁할랄/NNP
▁해탈/NNG
▁핸들/NNG
▁행선지/NNG
▁행차/NNG
▁헨더슨/NNP
▁헬무트/NNP
▁현무암/NNG
▁화성/NNP
▁획/NNG
▁후쿠야마/NNP
▁히다카/NNP
▁힐스/NNP
心/SH
町/SH
가면/NNG
가속기/NNG
간이역/NNG
거나/JX
고정/NNG
공예/NNG
관리소/NNG
그리스도/NNP
기념관/NNG
남용/NNG
누/NNG
느냐는/ETM
는다/EC
댄서/NNG
도입/NNG
돌리/VV
동계/NNG
동일/NNG
드라마시티/NNP
랜/NNG
롯데/NNP
멕시코/NNP
배차/NNG
뱀/NNG
불가/NNG
블록/NNG
비행단/NNG
사과/NNG
서장/NNG
선정/NNG
시각/NNG
안토니오/NNP
어웨이/NNG
언급/NNG
여학교/NNG
역전/NNG
영화상/NNG
온/MM
은지/EC
이바라키현/NNP
인기/NNG
자치구/NNG
전승/NNG
조모/NNG
주인공/NNG
증거/NNG
지급/NNG
지원청/NNG
지형/NNG
책자/NNG
추적/NNG
충돌/NNG
침해/NNG
통상부/NNG
포함/NNG
필리핀/NNP
한인/NNG
해피/NNG
협의/NNG
화이트/NNG
황성제/NNP
1.5/SN
1868/SN
1897/SN
BPG/SL
European/SL
Go/SL
Henry/SL
Louis/SL
Open/SL
Royal/SL
That/SL
▁0.6/SN
▁141/SN
▁1457/SN
▁1558/SN
▁1601/SN
▁161/SN
▁1624/SN
▁1635/SN
▁1786/SN
▁1794/SN
▁194/SN
▁1991./SN
▁218/SN
▁6.0/SN
▁AE/SL
▁Agency/SL
▁Area/SL
▁COVID/SL
▁Championship/SL
▁En/SL
▁Friends/SL
▁Government/SL
▁HDMI/SL
▁Hey/SL
▁Kong/SL
▁Professional/SL
▁SSC/SL
▁Scott/SL
▁Security/SL
▁Stadium/SL
▁Tokyo/SL
▁Vision/SL
▁_/SW
▁back/SL
▁data/SL
▁day/SL
▁no./SL
▁가압/NNG
▁간간히/MAG
▁간소/XR
▁갈망/NNG
▁강석/NNP
▁검도/NNG
▁고려대/NNP
▁고산/NNG
▁공대/NNG
▁광둥어/NNP
▁광무제/NNP
▁교묘하/VA
▁교회법/NNG
▁굶주리/VV
▁규소/NNG
▁그레고리력/NNG
▁기네스/NNP
▁기복/NNG
▁길가/NNG
▁김학/NNP
▁김호/NNP
▁깨뜨리/VV
▁난입/NNG
▁날아다니/VV
▁내사/NNG
▁누출/NNG
▁뉴타운/NNP
▁다포체/NNP
▁단테/NNP
▁당선인/NNG
▁대계/NNG
▁대권/NNG
▁대림/NNP
▁대목/NNG
▁대종/NNG
▁대통합민주신당/NNP
▁대한체육회/NNP
▁덜/VV
▁데비안/NNP
▁도네츠크/NNP
▁도이체/NNP
▁도조/NNP
▁독단/NNG
▁뒤편/NNG
▁등교/NNG
▁디렉토리/NNG
▁디스트릭트/NNG
▁라그랑주/NNG
▁런던/NNG
▁레터/NNG
▁로망스/NNG
▁루 팡/NNP
▁리노/NNP
▁마사시/NNG
▁마스터스/NNG
▁마저/MAG
▁마크업/NNG
▁말엽/NNG
▁매뉴얼/NNG
▁멋대로/MAG
▁모리타/NNP
▁몰살/NNG
▁무례/NNG
▁무안/NNP
▁무인기/NNG
▁무척추동물/NNP
▁물음/NNG
▁미국식/NNG
▁미네랄/NNG
▁미들/NNG
▁미팅/NNG
▁민담/NNG
▁민주당원/NNG
▁받침돌/NNG
▁발암/NNG
▁밝/VV
▁배당/NNG
▁배설/NNG
▁버뮤다/NNP
▁법당/NNG
▁벨파스트/NNP
▁병점/NNP
▁보조정리/NNP
▁브리트니/NNP
▁비대/NNG
▁사가라/NNP
▁사간/NNG
▁산프레체/NNG
▁살상/NNG
▁삼겹살/NNG
▁서곡/NNG
▁서천/NNP
▁선곡/NNG
▁선적/NNG
▁성빈센트병원/NNG
▁세심/XR
▁세종시/NNP
▁셀/NNG
▁수색/NNP
▁수없이/MAG
▁수에즈/NNP
▁수집가/NNG
▁수험/NNG
▁스키너/NNP
▁스파크/NNG
▁승하/NNG
▁시료/NNG
▁시리우스/NNP
▁신륵사/NNP
▁신촌/NNP
▁실물/NNG
▁실존주의/NNG
▁악사/NNG
▁악영향/NNG
▁안정감/NNG
▁알아채/VV
▁애니멀/NNG
▁애로/NNG
▁어의/NNG
▁업/VV-R
▁에르미트/NNP
▁에어로시티/NNG
▁에이브러햄/NNP
▁엘라/NNP
▁연장선/NNG
▁연해주/NNP
▁영동고속도로/NNP
▁오븐/NNG
▁오슈/NNP
▁완봉/NNP
▁외장/NNG
▁요시노리/NNP
▁요안니스/NNG
▁워터스/NNG
▁원가/NNG
▁원군/NNG
▁위세/NNG
▁유관순/NNP
▁유기물/NNG
▁유방/NNG
▁유승/NNP
▁유품/NNG
▁윤원형/NNP
▁이대로/MAG
▁이방원/NNP
▁이색/NNP
▁이시하라/NNP
▁이항복/NNP
▁일개미/NNG
▁일절/MAG
▁입교/NNG
▁자아내/VV
▁재야/NNG
▁전사자/NNG
▁전처/NNG
▁전출/NNG
▁접두어/NNG
▁정가/NNG
▁정수형/NNP
▁정찰기/NNG
▁제너레이션/NNG
▁제호/NNG
▁젠/NNG
▁조형/NNG
▁좀처럼/MAG
▁주간지/NNG
▁준위/NNG
▁중생/NNG
▁중임/NNG
▁지오그래픽/NNG
▁지휘부/NNG
▁진수/NNG
▁질감/NNG
▁천태종/NNG
▁철갑/NNG
▁청량리/NNP
▁체신/NNG
▁촌장/NNG
▁치솟/VV-R
▁카세트/NNG
▁캐리비안/NNP
▁케니/NNP
▁콜롬보/NNP
▁콜트/NNP
▁키지코스/NNG
▁탄광/NNG
▁태위/NNP
▁텔레그래프/NNP
▁템플/NNP
▁트립/NNG
▁파머/NNP
▁파탄/NNG
▁파평/NNG
▁판교/NNP
▁판매자/NNG
▁팔공산/NNP
▁페넌트/NNG
▁펠레/NNP
▁평방/NNG
▁평시/NNG
▁폐포/NNP
▁포춘/NNP
▁포환던지기/NNP
▁프롤로그/NNG
▁피지/NNP
▁하급자/NNG
▁헤아리/VV
▁현대그룹/NNP
▁현대식/NNG
▁현도/NNG
▁협재/NNG
▁호놀룰루/NNP
▁혼용/NNG
▁화이/NNG
▁화학과/NNG
▁회합/NNG
▁후루카와/NNG
▁후식/NNG
▁후유증/NNG
▁휴고/NNP
▁흡입/NNG
▁히로아키/NNG
く/SW
㎾/SW
世界/SH
慶州/SH
갤러리/NNG
기적/NNG
네트/NNG
놈/NNB
단/MM
대/VX
더빙/NNG
디/EC
라이브/NNG
런던/NNP
만드/VV
배경/NNG
법안/NNG
벤츠/NNP
별/MM
복식/NNG
부여/NNG
붐/NNG
비치/NNG
사기/NNG
새벽/NNG
성자/NNG
센트/NNB
소설가/NNG
쇄/NNG
수군/NNG
수용소/NNG
쉬/VV
스킬/NNG
예산처/NNG
예수교/NNG
요금/NNG
원군/NNG
으니까/EC
응/IC
이성/NNG
인정/NNG
일/NNP
잠수함/NNG
처장/NNG
첨단/NNG
초판/NNG
탁구/NNG
터키/NNP
테스트/NNG
특급/NNG
파리/NNP
파이/NNG
파인/NNG
편의/NNG
폐지/NNG
폭스/NNP
한/NNP
해상/NNG
훗날/NNG
희/VA
..../SF
129/SN
131/SN
18:00/W_SERIAL
1911/SN
BC/SL
FC/SL
To/SL
color/SL
tions./SL
▁1080/SN
▁1519/SN
▁1591/SN
▁1655/SN
▁1670/SN
▁1723/SN
▁1741/SN
▁1762/SN
▁1773/SN
▁1785/SN
▁179/SN
▁1998-99/W_SERIAL
▁2003-04/W_SERIAL
▁2006.07/SN
▁410/SN
▁520/SN
▁747/SN
▁950/SN
▁Advanced/SL
▁Alexander/SL
▁Ancient/SL
▁Angels/SL
▁Another/SL
▁Bank/SL
▁CU/SL
▁Civil/SL
▁Court/SL
▁Episode/SL
▁FN/SL
▁Face/SL
▁Feel/SL
▁Four/SL
▁Genève/SL
▁Have/SL
▁KAIST/SL
▁LPG/SL
▁LS/SL
▁Lewis/SL
▁Los/SL
▁Map/SL
▁Picture/SL
▁Pictures/SL
▁STAR/SL
▁Virtual/SL
▁WWF/SL
▁Want/SL
▁XI/SL
▁\/SW
▁biography/SL
▁go/SL
▁have/SL
▁other/SL
▁part/SL
▁their/SL
▁△/SW
▁가라오케/NNG
▁가스통/NNG
▁가오루/NNP
▁각계/NNG
▁각섬석/NNP
▁간파/NNG
▁강인하/VA
▁개혁안/NNG
▁갯가재/NNP
▁거푸집/NNG
▁건널목/NNG
▁경작지/NNG
▁계비/NNG
▁고질라/NNP
▁골목/NNG
▁공언/NNG
▁광주제일고등학교/NNP
▁굽/VA-R
▁귀부/NNG
▁그야말로/MAG
▁금주/NNG
▁급사/NNG
▁기입/NNG
▁김채하/NNP
▁김홍도/NNP
▁껍데기/NNG
▁끼/NNG
▁나이츠/NNG
▁낙향/NNG
▁남다르/VA
▁남부로/NNP
▁남양주/NNP
▁남위/NNP
▁남유럽/NNP
▁내한/NNG
▁노자/NNP
▁뉴델리/NNP
▁니컬러스/NNP
▁단검/NNG
▁당분간/MAG
▁당파/NNG
▁대도/NNG
▁대로/NNG
▁대프랑스/NNG
▁더구나/MAG
▁데카/NNP
▁도정/NNG
▁독감/NNG
▁뒤떨어지/VV
▁디펜스/NNP
▁라벤나/NNP
▁렘수면/NNG
▁로드리고/NNP
▁로렌츠/NNP
▁로마노프/NNP
▁로치/NNP
▁로프트/NNP
▁루키우스/NNP
▁리바이벌/NNG
▁리처즈/NNG
▁리카르도/NNP
▁리턴/NNP
▁마사유키/NNG
▁마인츠/NNP
▁망설이/VV
▁매화/NNG
▁메사/NNP
▁멸/XR
▁모닝/NNP
▁모닝구무스/NNP
▁모면/NNG
▁몸매/NNG
▁무코/NNG
▁무협/NNG
▁미카와/NNG
▁미혼/NNG
▁민속문화재/NNP
▁바순/NNP
▁바스/NNP
▁바트/NNP
▁발화/NNG
▁배영/NNG
▁백합/NNG
▁뱅가드/NNP
▁베니토/NNG
▁보스케/NNG
▁볼륨/NNG
▁분권/NNG
▁분리주의/NNP
▁브라가/NNP
▁브라운/NNG
▁브레인/NNG
▁비야레알/NNP
▁비잔틴/NNP
▁비참/NNG
▁비핵/NNG
▁빙하기/NNG
▁뺨/NNG
▁사림/NNG
▁사학자/NNG
▁삼국사기/NNP
▁상회/NNG
▁새터/NNP
▁생강/NNG
▁생후/NNG
▁서남아시아/NNP
▁서던캘리포니아/NNG
▁석현/NNP
▁석회/NNG
▁성장기/NNG
▁성폭력/NNG
▁세도/NNG
▁셀러/NNG
▁소명/NNG
▁소비량/NNG
▁송정리/NNP
▁쇼지/NNP
▁쇼타/NNP
▁수계/NNG
▁수당/NNG
▁수생/NNG
▁수열/NNG
▁수정주의/NNG
▁스가/NNP
▁스미/VV
▁스피어스/NNP
▁승급/NNG
▁시뮬레이터/NNG
▁시저/NNP
▁신변/NNG
▁쓰루오카/NNG
▁아가마/NNP
▁아담스/NNP
▁아우크스부르크/NNP
▁악령/NNG
▁안티오코스/NNP
▁알릭스/NNG
▁알츠하이머/NNG
▁압록강/NNP
▁약재/NNG
▁약혼자/NNG
▁어벤져스/NNP
▁엄/NNP
▁에히메/NNP
▁엘라다/NNP
▁여산/NNP
▁역사책/NNG
▁예매/NNG
▁오윤/NNP
▁오호/IC
▁완충/NNG
▁외양/NNG
▁외할머니/NNG
▁용이/NNG
▁용접/NNG
▁우승국/NNG
▁웃돌/VV
▁원양/NNG
▁웨스트햄/NNP
▁유람선/NNG
▁유례/NNG
▁유예/NNG
▁육군사관학교/NNP
▁윤달/NNG
▁의리/NNG
▁의전/NNG
▁이따금/MAG
▁이르쿠츠크/NNP
▁이변/NNG
▁이춘/NNP
▁인라인/NNG
▁인류학자/NNG
▁일지/NNG
▁일차/NNG
▁입방/NNG
▁작별/NNG
▁장로회/NNG
▁저승/NNG
▁전환점/NNG
▁전횡/NNG
▁정의역/NNP
▁제3자/NNG
▁조감독/NNG
▁조력자/NNG
▁조언자/NNG
▁조폭/NNG
▁존재감/NNG
▁주군/NNG
▁지난해/NNG
▁집대성/NNG
▁차라리/MAG
▁차례차례/MAG
▁차태현/NNP
▁찰나/NNG
▁체카/NNP
▁초성/NNG
▁총대주교/NNP
▁최문순/NNP
▁출혈열/NNG
▁취입/NNG
▁치히로/NNP
▁카메론/NNP
▁카사블랑카/NNP
▁카이저/NNP
▁카츠/NNP
▁카트린/NNP
▁코르도바/NNP
▁코칭스태프/NNG
▁코헨/NNP
▁콜먼/NNP
▁키보디스트/NNP
▁타츠야/NNG
▁타케우치/NNG
▁탁자/NNG
▁토레스/NNP
▁토마/NNP
▁토번/NNP
▁토이보넨/NNG
▁통일부/NNG
▁트레일러/NNG
▁트롬본/NNP
▁특례/NNG
▁특임/NNG
▁티투스/NNP
▁파나티나이코스/NNG
▁파파/NNP
▁퍼텐셜/NNP
▁페놀/NNG
▁편도/NNG
▁푸앵카레/NNP
▁하이패스/NNP
▁하청/NNG
▁한국산업은행/NNP
▁한서/NNP
▁해충/NNG
▁현명/NNG
▁혈액형/NNG
▁홀든/NNP
▁화보/NNG
▁화성암/NNG
▁횃불/NNG
▁힉스/NNP
▁힘러/NNP
▁󰡔/SW
お/SW
太祖/SH
新/SH
각형/NNG
경시청/NNG
계산/NNG
국어/NNG
권리/NNG
기전/NNG
기획원/NNG
김포/NNP
노르웨이/NNP
농도/NNG
들어가/VV
랩/NNG
렛/NNG
만세/NNG
먼지/NNG
묘지/NNG
미키/NNP
반경/NNG
발/XSN
병마/NNG
봉사단/NNG
불명/NNG
상호/NNG
수록/NNG
수산물/NNG
수원/NNP
식당/NNG
아기/NNG
와인/NNG
요/EC
용역/NNG
윤/NNP
은지/EF
이미지/NNG
이벤트/NNG
장사/NNG
점수/NNG
제기/NNG
지로/NNG
지옥/NNG
지위/NNG
총리/NNG
총칙/NNG
캐럿/NNG
탈/XPN
트레이드/NNG
특성/NNG
피리/NNG
해발/NNG
해외/NNG
홈피/NNG
화랑/NNG
휴게소/NNG
󰡕/SW
121/SN
3.5/SN
AIDS/SL
An/SL
Children/SL
Dr./SL
ER/SL
Global/SL
IC/SL
Long/SL
Paris/SL
SM/SL
When/SL
ml/SL
▁1.9/SN
▁1270/SN
▁1651/SN
▁1715/SN
▁177/SN
▁1772/SN
▁1997-98/W_SERIAL
▁2001-02/W_SERIAL
▁203/SN
▁206/SN
▁3-4/W_SERIAL
▁3.8/SN
▁371/SN
▁475/SN
▁560/SN
▁8.0/SN
▁8.3/SN
▁AESA/SL
▁AL/SL
▁Africa/SL
▁Authority/SL
▁BY/SL
▁Committee/SL
▁DSP/SL
▁Electric/SL
▁FR/SL
▁Fantasy/SL
▁GE/SL
▁HTV/SL
▁Hotel/SL
▁Letter/SL
▁Masters/SL
▁Miller/SL
▁NH/SL
▁OZ/SL
▁RAM/SL
▁Rap/SL
▁Shock/SL
▁Spring/SL
▁Tome/SL
▁True/SL
▁Under/SL
▁VLS/SL
▁View/SL
▁Wolf/SL
▁char/SL
▁code/SL
▁disorder/SL
▁line/SL
▁pages/SL
▁texts/SL
▁é/SL
▁現/SH
▁가니메데/NNP
▁각오/NNG
▁강박/NNG
▁강북/NNP
▁개선문/NNP
▁개혁가/NNG
▁건축학/NNG
▁게양/NNG
▁경복고등학교/NNP
▁경주마/NNP
▁계책/NNG
▁고봉/NNG
▁고비/NNG
▁고아원/NNG
▁고환/NNG
▁고흐/NNP
▁궁녀/NNG
▁궁합/NNG
▁그란데/MAJ
▁근현대/NNG
▁기침/NNG
▁기타공공기관/NNP
▁김순/NNP
▁김종수/NNP
▁김창룡/NNP
▁김충/NNP
▁꿇/VV
▁나방/NNG
▁남자부/NNG
▁남종/NNP
▁남진/NNP
▁남해고속도로/NNP
▁넘나들/VV
▁노부유키/NNG
▁논설위원/NNG
▁누나부트/NNG
▁뉴사우스웨일스/NNG
▁다무라/NNP
▁다이치/NNP
▁다정/NNG
▁당면/NNG
▁대립교황/NNG
▁데그리외/NNG
▁데미지/NNP
▁동서울/NNP
▁동수/NNP
▁동아방송예술대학교/NNP
▁둔화/NNG
▁둘러보/VV
▁드래그/NNG
▁딜러/NNG
▁따라오/VV
▁땅볼/NNG
▁떼/NNG
▁락까/NNP
▁럭셔리/NNG
▁레반트/NNP
▁레체/NNP
▁리에주/NNP
▁마사미/NNG
▁마스다/NNG
▁마쓰나가/NNG
▁막바지/NNG
▁맞은편/NNG
▁매듭/NNG
▁매일신보/NNP
▁메들리/NNG
▁메이오/NNP
▁명륜당/NNP
▁모악산/NNP
▁몽블랑/NNP
▁무방/XR
▁무성/XR
▁문란/NNG
▁미드나잇/NNP
▁미약/XR
▁미하엘/NNP
▁바닐라/NNP
▁바리톤/NNG
▁박명수/NNP
▁발견자/NNG
▁배아/NNG
▁백호/NNP
▁버릇/NNG
▁베이컨/NNG
▁벤틀리/NNP
▁변조/NNG
▁변태/NNG
▁병법/NNG
▁보디가드/NNG
▁봉황/NNG
▁부검/NNG
▁부전/NNG
▁불명확하/VA
▁뷰티풀/NNP
▁브라더/NNP
▁브레시아/NNP
▁브리핑/NNG
▁비스포스포네이트/NNG
▁빙의/NNG
▁사상/NNP
▁사직서/NNG
▁산모/NNG
▁산호세/NNP
▁상암동/NNP
▁색조/NNG
▁생화학자/NNG
▁석비/NNP
▁선화/NNP
▁성년/NNG
▁성하/VA
▁세이버/NNG
▁솔라/NNP
▁쇼니/NNP
▁수공업/NNG
▁스캇/NNP
▁시간/NNB
▁시끄럽/VA-I
▁시아버지/NNG
▁시오리/NNP
▁식년시/NNG
▁식물학/NNG
▁신뢰도/NNG
▁아르곤/NNP
▁아스트라/NNP
▁아프로디테/NNP
▁안제/NNP
▁안중근/NNP
▁앞바다/NNG
▁양모/NNG
▁양아버지/NNG
▁양자장론/NNP
▁양재역/NNP
▁어족/NNG
▁언리얼/NNG
▁에드가/NNP
▁에이프릴/NNP
▁여기저기/NNG
▁여느/MM
▁여비서/NNG
▁염기성/NNG
▁예스/NNG
▁오기/NNG
▁오레오/NNP
▁오메/IC
▁오스트리아인/NNP
▁온전/XR
▁올/NNP
▁우변/NNG
▁우승컵/NNG
▁우표/NNG
▁월간지/NNG
▁유배지/NNG
▁육영재단/NNP
▁윤임/NNP
▁윤주/NNP
▁융기/NNG
▁은하수/NNG
▁의탁/NNG
▁이면/NNG
▁이와테/NNP
▁이와테현의/NNG
▁인비테이셔널/NNG
▁인삼/NNG
▁잉어/NNG
▁자매결연/NNG
▁장수/NNP
▁장엄/NNG
▁장차/MAG
▁장항선/NNP
▁재래식/NNG
▁적십자/NNP
▁전업/NNG
▁점령군/NNG
▁점막/NNG
▁접/NNG
▁접합부/NNG
▁정남/NNG
▁정보국/NNG
▁정산/NNG
▁제이콥/NNP
▁제작소/NNG
▁제타/NNP
▁제향/NNG
▁조그맣/VA-I
▁조앤/NNP
▁좌완/NNG
▁주택지/NNG
▁준거/NNG
▁중견/NNG
▁즉흥/NNG
▁지극/XR
▁지리학자/NNG
▁짝짓기/NNG
▁처가/NNG
▁청소년기/NNG
▁청탁/NNG
▁체르노빌/NNP
▁체형/NNG
▁초구/NNG
▁총리대신/NNG
▁총명/NNG
▁총무처/NNG
▁총탄/NNG
▁출고/NNG
▁친화력/NNG
▁침전/NNG
▁카스미/NNG
▁카스트로/NNP
▁컵위너스/NNP
▁콜럼비아/NNP
▁쿠살라/NNG
▁크로스비/NNP
▁클리닉/NNG
▁키넥트/NNP
▁키리시/NNP
▁키워드/NNG
▁타오르/VV
▁타쿠야/NNG
▁테디/NNP
▁테베/NNP
▁튕기/VV
▁트라이아스/NNP
▁트라키아/NNP
▁트리폴리/NNP
▁특징짓/VV-I
▁파르크/NNG
▁파브닐/NNG
▁파이크/NNP
▁파이터스/NNP
▁패주/NNG
▁팩트/NNG
▁평화민주당/NNP
▁포고/NNG
▁프라이버시/NNG
▁프레스턴/NNP
▁프레이저/NNP
▁프로그래머블/NNG
▁하체/NNG
▁한복/NNG
▁함흥/NNP
▁항등식/NNG
▁해법/NNG
▁해치백/NNP
▁핵폭탄/NNG
▁행정구/NNG
▁헤르타/NNG
▁홀리데이/NNP
▁화서역/NNP
▁환각/NNG
▁황금기/NNG
▁황도대/NNP
▁황무지/NNG
▁황소자리/NNG
▁휘그당/NNP
▁흥신소/NNP
▁히로시마시/NNG
善/SH
夢/SH
宮本/SH
紳士/SH
美/SH
개조/NNB
경영학/NNG
경쟁력/NNG
고개/NNG
공경/NNG
공양/NNG
공해/NNG
군청/NNG
귀신/NNG
그때/NNG
기존/NNG
낮/NNG
능력자/NNG
다섯/NR
단독/NNG
담당관실/NNG
대대장/NNG
더블/NNG
동네/NNG
동산/NNG
등판/NNG
리엘/NNG
머신/NNG
멜/NNG
몽골/NNP
밀리/NNB
배속/NNG
버지니아/NNP
변환/NNG
본인/NNG
부대표/NNG
비판/NNG
사암/NNG
사제/NNG
산책/NNG
상장/NNG
소라/NNG
스턴/NNP
시공/NNG
아마/MAG
안전처/NNG
야전/NNG
어둠/NNG
엑스/NNG
연구관/NNG
영문학/NNG
영재/NNG
영화과/NNG
예요/EF
오리지널/NNG
요청/NNG
운명/NNG
웃/VV-R
원숭이/NNG
유수/NNG
음대/NNG
이별/NNG
인도/NNG
일리노이주/NNP
잃어버리/VV
장/NNP
전제/NNG
정수/NNG
조선민주주의인민공화국/NNP
주임/NNG
지기/NNG
진료소/NNG
짐/NNG
초등/NNG
취소/NNG
탈락/NNG
토기/NNG
토마스/NNP
편지/NNG
평일/NNG
표기/NNG
프리/NNG
후한서/NNP
히/NNG
#1/W_HASHTAG
128/SN
132/SN
1871/SN
202/SN
205/SN
3000/SN
Big/SL
Hz/SL
Korean/SL
Mary/SL
S./SL
Super/SL
Sweet/SL
US/SL
set/SL
▁1,600/SN
▁1525/SN
▁1560/SN
▁1587/SN
▁1615/SN
▁1622/SN
▁1685/SN
▁1738/SN
▁1743/SN
▁1746/SN
▁191/SN
▁224/SN
▁263/SN
▁30,000/SN
▁325/SN
▁4.6/SN
▁50,000/SN
▁7.5/SN
▁AAA/SL
▁CH/SL
▁DMB/SL
▁EVER/SL
▁Europe/SL
▁GABA/SL
▁Garden/SL
▁HDR/SL
▁Hello/SL
▁Heritage/SL
▁Hordeum/SL
▁Howard/SL
▁ICE/SL
▁Johannes/SL
▁Lady/SL
▁Mission/SL
▁NHN/SL
▁PIF/SL
▁Psychology/SL
▁RTMP/SL
▁SH/SL
▁SPC/SL
▁Stay/SL
▁TIME/SL
▁Texas/SL
▁Today/SL
▁Universal/SL
▁Valley/SL
▁Williams/SL
▁Wrestling/SL
▁dans/SL
▁e./SL
▁ext/SL
▁original/SL
▁pour/SL
▁set/SL
▁solid/SL
▁translation/SL
▁us/SL
▁④/SW
▁ㅈ/SW
▁가락/NNG
▁가부키/NNP
▁가펑클/NNG
▁가평/NNP
▁갑판/NNG
▁객/NNG
▁건설업/NNG
▁건안/NNP
▁결부/NNG
▁경리/NNG
▁경직/NNG
▁계명/NNG
▁계약서/NNG
▁고등부/NNG
▁고르바초프/NNP
▁고치현/NNG
▁공급자/NNG
▁공실/NNG
▁관대/XR
▁관동군/NNP
▁관전/NNG
▁구울/NNG
▁군소/NNG
▁귀퉁이/NNG
▁근거리/NNG
▁근동/NNG
▁기공식/NNG
▁기관포/NNG
▁기시/NNP
▁기예르모/NNG
▁김영주/NNP
▁꽝/MAG
▁나가토/NNP
▁나니와/NNP
▁낙천/NNG
▁납작하/VA
▁노령/NNG
▁노비타/NNG
▁노하우/NNG
▁눈길/NNG
▁니아/NNP
▁니케아/NNP
▁다르크/NNP
▁다항식/NNP
▁당상관/NNG
▁대수학/NNG
▁덕산/NNP
▁도도부현/NNP
▁도마/NNG
▁독립기념관/NNP
▁동질/NNG
▁뒤덮이/VV
▁듀이/NNP
▁디럭스/NNG
▁디스코/NNG
▁디즈니랜드/NNP
▁라이토/NNG
▁로드스터/NNP
▁로빈스/NNP
▁루벤/NNP
▁루즈벨트/NNP
▁리퍼블릭/NNG
▁마르티노/NNP
▁마이어스/NNP
▁마중/NNG
▁막내딸/NNG
▁만주족/NNP
▁망포역/NNP
▁매카시/NNP
▁멘/NNG
▁명작/NNG
▁모리셔스/NNP
▁모에/NNP
▁모음곡/NNP
▁모자/NNP
▁모퉁이/NNG
▁몽키/NNG
▁무도회/NNG
▁무수/XR
▁무역로/NNP
▁물량/NNG
▁물리량/NNP
▁미달/NNG
▁미스테리/NNG
▁밀리언/NNG
▁밑바닥/NNG
▁바클리즈/NNG
▁반년/NNG
▁발성/NNG
▁발주/NNG
▁벤츠/NNP
▁벨린저/NNP
▁보육원/NNG
▁보이드/NNP
▁부녀/NNG
▁부정부패/NNG
▁부천군/NNP
▁북베트남/NNP
▁북제/NNP
▁분분/XR
▁분자운/NNP
▁블레셋/NNP
▁사담/NNP
▁사범학교/NNG
▁산청/NNP
▁삼중/NNG
▁상수도/NNG
▁서머힐/NNP
▁서인도/NNP
▁선덜랜드/NNP
▁성비/NNG
▁성신/NNG
▁소사이어티/NNP
▁속씨식물/NNP
▁솔저/NNP
▁솥/NNG
▁수영구/NNP
▁순진/XR
▁스리/NNG
▁스모/NNP
▁승화/NNG
▁시스터/NNP
▁신봉자/NNG
▁신타로/NNP
▁신토/NNP
▁아라키/NNG
▁아르테미스/NNP
▁아이자와/NNG
▁아인트라흐트/NNG
▁아케치/NNG
▁악천후/NNG
▁안창호/NNP
▁애매/NNG
▁액세서리/NNG
▁양광/NNP
▁양성애자/NNG
▁에버렛/NNP
▁여원/NNP
▁영덕/NNP
▁영양소/NNG
▁오비탈/NNP
▁오수/NNG
▁온도계/NNG
▁올림피아/NNP
▁외야/NNG
▁원더러스/NNG
▁웨일/NNP
▁위엄/NNG
▁윌리스/NNP
▁유러피안/NNG
▁유성/NNP
▁유세/NNG
▁유속/NNG
▁유토피아/NNG
▁육신/NNG
▁의석수/NNG
▁이롭/VA-I
▁이순/NNG
▁이스/NNP
▁이종욱/NNP
▁이주민/NNG
▁이화학당/NNP
▁인민당/NNP
▁일간/MAG
▁일단락/NNG
▁일렉트/NNG
▁일약/MAG
▁입상자/NNG
▁자책골/NNG
▁자폐증/NNG
▁잡혀가/VV
▁장기수/NNG
▁저기압/NNP
▁적대/XR
▁적성/NNG
▁전광/NNG
▁전령/NNG
▁전면전/NNG
▁전임자/NNG
▁전폭/NNG
▁정명/NNG
▁정무직/NNG
▁정석/NNP
▁정설/NNG
▁정전기/NNG
▁정찬/NNG
▁정치국/NNG
▁조기어류/NNP
▁조선공산당/NNP
▁졸업장/NNG
▁좇/VV
▁주루/NNP
▁주리/NNP
▁지원군/NNG
▁진평왕/NNP
▁짜이/VV
▁째/VV
▁찐/NNG
▁창덕궁/NNP
▁척/MAG
▁척/NNG
▁청계천/NNP
▁청춘/NNP
▁체질/NNG
▁첼/NNG
▁초식/NNG
▁추력/NNP
▁출소/NNG
▁치바/NNG
▁칠보/NNG
▁카린/NNP
▁카이/NNP
▁컬럼/NNG
▁케이틀린/NNG
▁코마츠/NNG
▁코스닥/NNG
▁쿠모/NNG
▁쿨루프/NNG
▁크메르/NNP
▁킥/MAG
▁타계/NNG
▁탈락자/NNG
▁태평로/NNP
▁털어놓/VV
▁테러리즘/NNG
▁텐센트/NNP
▁통/MAG
▁퇴학/NNG
▁트라오레/NNP
▁특보/NNG
▁파드리스/NNP
▁파라콤팩트/NNG
▁펑/MAG
▁펑후/NNP
▁페스트/NNP
▁폐하/VV
▁퓨/NNG
▁피시/NNG
▁핀치/NNP
▁필모그래피/NNG
▁하우메아/NNP
▁하이델베르크/NNP
▁하태경/NNP
▁한국교육방송공사/NNP
▁한국방송대상/NNP
▁한영/NNP
▁허물/VV
▁혈연/NNG
▁형부/NNG
▁형평/NNG
▁호/NNP
▁호남선/NNP
▁호에이/NNP
▁홀드/NNP
▁홍길동/NNP
▁화천군/NNP
▁회의장/NNG
▁효수/NNG
▁후미코/NNP
▁휴양/NNG
▁흑자/NNG
▁히라/NNG
▁히스/NNP
▁히피/NNG
不淨/SH
八/SH
星/SH
高宗/SH
교육학/NNG
기종/NNG
기획관/NNG
나고야/NNP
년/NNG
대교/NNP
래퍼/NNP
로스트/NNG
메시지/NNG
모터쇼/NNG
무비/NNG
무술/NNG
바디/NNG
밴/NNG
버튼/NNG
벤/NNP
보육/NNG
비행장/NNG
사절단/NNG
상임/NNG
설/XSN
성명/NNG
세무서/NNG
스코틀랜드/NNP
스페셜/NNP
시사/NNG
아이치현/NNP
아키텍처/NNG
어/IC
업계/NNG
여래/NNG
여론/NNG
연산/NNG
예능/NNG
우울증/NNG
윙/NNG
유전자/NNG
율리우스력/NNP
이리/MAG
이자/NNG
인성/NNG
자형/NNG
전담/NNG
전서/NNG
전술/NNG
전함/NNG
정글/NNG
지름/NNG
컴퍼니/NNG
쿨/NNG
크리스마스/NNG
판관/NNG
폼/NNG
헌장/NNG
호빵맨과/NNG
후쿠오카/NNP
///SP
000/SN
162/SN
1909/SN
2022.05/SN
EC/SL
For/SL
dance./SL
mol/SL
q/SL
ᆫ들/EC
ᆯ래요/EF
ᆷ/Z_CODA
▁"/SS
▁10.1/SN
▁1561/SN
▁1595/SN
▁1640/SN
▁1641/SN
▁1645/SN
▁1728/SN
▁1764/SN
▁1811/SN
▁207/SN
▁2100/SN
▁227/SN
▁530/SN
▁7.2/SN
▁ADP/SL
▁Alice/SL
▁Breeze/SL
▁CI/SL
▁Congress/SL
▁Da/SL
▁Food/SL
▁GHz/SL
▁GeV/SL
▁Harris/SL
▁Hong/SL
▁Hưng/SL
▁KOTOKO/SL
▁Mac/SL
▁Making/SL
▁Number/SL
▁Organization/SL
▁SU/SL
▁Sammi/SL
▁Santa/SL
▁TF/SL
▁Tales/SL
▁Thanh/SL
▁Trade/SL
▁USC/SL
▁VEVO/SL
▁Verlag/SL
▁Zealand/SL
▁co/SL
▁interview/SL
▁model/SL
▁power/SL
▁top/SL
▁trấn/SL
▁un/SL
▁video/SL
▁www/SL
▁간결/XR
▁간통/NNG
▁감격/NNG
▁강국/NNG
▁개전/NNG
▁격렬하/VA
▁경영난/NNG
▁계몽주의/NNG
▁계양/NNP
▁고구마/NNG
▁고래자리/NNP
▁고려사/NNP
▁고로/NNP
▁곧장/MAG
▁골드버그/NNP
▁골든이글스/NNG
▁곰팡이/NNG
▁공덕/NNG
▁공백기/NNG
▁공작자리/NNP
▁과격/XR
▁과부/NNG
▁관음/NNG
▁괴링/NNP
▁교육장/NNG
▁구스/NNP
▁국가어항/NNG
▁국가인권위원회/NNP
▁군기/NNG
▁군축/NNG
▁권위자/NNG
▁귄터/NNP
▁그레이트브리튼/NNG
▁그린/NNP
▁그린시티/NNG
▁김연수/NNP
▁김현철/NNP
▁깨우/VV
▁꿀벌/NNG
▁나뭇잎/NNG
▁나일론/NNG
▁나혜석/NNP
▁낙하산/NNG
▁남아프리카공화국/NNP
▁내의원/NNP
▁네오지오/NNP
▁네트/NNG
▁능지/NNP
▁니제르/NNP
▁다니/NNP
▁다름없/VA
▁다리우스/NNP
▁다우/NNP
▁단추/NNG
▁달빛/NNG
▁당간지주/NNP
▁당직/NNG
▁대교/NNG
▁대식/NNG
▁대천/NNP
▁더럽/VA-I
▁덤/NNG
▁덩굴/NNG
▁도킹/NNG
▁독고/NNP
▁독립국/NNG
▁독촉/NNG
▁득/NNG
▁라스 베가스/NNP
▁로어/NNP
▁루마니아인/NNP
▁리디아/NNP
▁리스타/NNP
▁마유/NNP
▁마취/NNG
▁망상/NNG
▁매핑/NNP
▁맨유/NNP
▁먹/NNG
▁메흐메트/NNG
▁멜빈/NNG
▁모국/NNG
▁모리오카/NNP
▁무르시아/NNP
▁무안/NNG
▁무종/NNP
▁묵시록/NNP
▁미끄러지/VV
▁미스트/NNP
▁미야자와/NNP
▁미흡/NNG
▁믹타/NNG
▁밀고/NNG
▁바디우/NNP
▁바운드/NNP
▁박스오피스/NNP
▁박연차/NNP
▁박윤/NNP
▁배틀필드/NNP
▁벌목/NNG
▁베네벤토/NNP
▁봉사자/NNG
▁봉토/NNG
▁부원장/NNG
▁불가사의/NNG
▁불길/NNG
▁브렛/NNP
▁브릿지/NNG
▁블록버스터/NNG
▁비닐/NNG
▁비도시/NNG
▁비토리오/NNP
▁빅뱅/NNP
▁사이클로트/NNG
▁삭스/NNP
▁산화제/NNG
▁상대역/NNG
▁상리/NNG
▁서울시청/NNP
▁서울지방경찰청/NNP
▁서초/NNP
▁석양/NNG
▁선산/NNG
▁성가대/NNG
▁성제/NNP
▁세종대학교/NNP
▁소노자키/NNG
▁소작농/NNG
▁송구/NNG
▁수빈/NNP
▁수산업/NNG
▁수족관/NNG
▁수호신/NNG
▁스커트/NNG
▁스피어/NNP
▁슬립/NNG
▁시리얼/NNP
▁시원/XR
▁신부전/NNP
▁실레시아/NNP
▁실직/NNG
▁심볼/NNG
▁쑨원/NNP
▁아라타/NNP
▁아마노/NNG
▁아인슈텔룽/NNG
▁안식/NNG
▁알사드/NNG
▁앙코르/NNP
▁애기박쥐/NNG
▁야노/NNG
▁약정/NNG
▁양립/NNG
▁양방향/NNG
▁양치기/NNG
▁어퍼/NNG
▁얽매이/VV
▁에비스/NNP
▁에히메/NNG
▁역모/NNG
▁염분/NNG
▁영류왕/NNP
▁영양분/NNG
▁예테보리/NNP
▁오/NNG
▁온/NNG
▁올버니/NNP
▁외무성/NNG
▁요시오/NNG
▁우도/NNP
▁우스/NNP
▁욱/MAG
▁움베르토/NNP
▁워프/NNP
▁유니/NNP
▁유럽연합/NNP
▁유상/NNG
▁을미사변/NNG
▁의정서/NNG
▁이고르/NNP
▁이완용/NNP
▁인디아/NNP
▁인스턴트/NNG
▁인양/NNG
▁인천대학교/NNP
▁자작곡/NNG
▁자폭/NNG
▁작곡자/NNG
▁장타율/NNP
▁쟁탈전/NNG
▁적색거성/NNP
▁전시실/NNG
▁절대로/MAG
▁절터/NNG
▁정근우/NNP
▁정답/NNG
▁정유미/NNP
▁제닝스/NNP
▁제보/NNG
▁제이드/NNP
▁조직신학/NNP
▁존엄/NNG
▁주당/NNG
▁중공/NNP
▁중심가/NNG
▁중후반/NNG
▁지원병/NNG
▁지하실/NNG
▁진주만/NNP
▁차마/MAG
▁차분하/VA
▁채광/NNG
▁철새/NNG
▁총신대학교/NNP
▁총파업/NNG
▁측천무후/NNP
▁치마/NNG
▁친모/NNG
▁친박/NNP
▁카논/NNP
▁카슨/NNP
▁카운트다운/NNP
▁커닝햄/NNP
▁커미셔너/NNG
▁켄타/NNP
▁코페르니쿠스/NNP
▁콘웨이/NNP
▁크라이스트/NNG
▁크리드/NNP
▁킷/NNG
▁탄탄/XR
▁태동/NNG
▁태스크/NNG
▁테오도시우스/NNP
▁통정/NNG
▁투영/NNG
▁트랴피친/NNG
▁특촬물/NNP
▁티빙/NNP
▁티아라/NNP
▁파벨/NNG
▁파비오/NNP
▁판독/NNG
▁페르소나/NNP
▁페름기/NNP
▁페이즈/NNG
▁페퍼/NNP
▁펜실베니아/NNP
▁평산/NNP
▁폭도/NNG
▁풍미/NNG
▁풍화/NNG
▁프로스트/NNP
▁플로렌스/NNP
▁플린트/NNP
▁필러/NNP
▁한도/NNG
▁한시/NNG
▁해롤드/NNP
▁행인/NNG
▁혈압/NNG
▁형광/NNG
▁황갈색/NNG
▁횡성/NNP
▁효성/NNP
▁휘어지/VV
▁휴/NNP
▁휴양지/NNG
▁히데아키/NNG
▁히라타/NNG
▁히로미/NNP
▁히타이트/NNP
へ/SW
大/SH
故/SH
강원도/NNP
개방/NNG
경제부/NNG
고객/NNG
고조/NNG
공부/NNG
공세/NNG
교도소/NNG
국방/NNG
그라운드/NNG
금고/NNG
김일성/NNP
날짜/NNG
네요/EF
누르/VV
뉴욕주/NNP
느냐고/EC
대면/NNG
대출/NNG
돌기/NNG
동작/NNG
뜨겁/VA-I
리/EP
마켓/NNG
방송사/NNG
뱅크/NNG
벌레/NNG
베/NNG
부스/NNG
부지사/NNG
부활전/NNG
북/NNP
불상/NNG
붕/NNG
사막/NNG
사토/NNP
스카이/NNP
슬기/NNG
아가씨/NNG
어야만/EC
여인/NNG
요미우리/NNP
워/NNG
원제/NNP
웨이트/NNG
위탁/NNG
유로/NNB
의존/NNG
이모/NNG
이야말로/JX
자체/NNG
전주/NNP
정보학/NNG
정사/NNG
제주/NNP
존재/NNG
진료/NNG
채취/NNG
척/NNG
첩보/NNG
케라톱스/NNP
콩쿠르/NNG
타인/NNG
탤런트/NNG
투/NNB
표범/NNG
프랑스어/NNP
플랫폼/NNG
피시/NNG
피아노/NNG
필수/NNG
합동/NNG
항쟁/NNG
효고현/NNP
122/SN
126/SN
157/SN
166/SN
1886/SN
1900/SN
1901/SN
211/SN
380/SN
750/SN
Fe/SL
Free/SL
If/SL
Japanese/SL
KIA/SL
L./SL
McCartney/SL
NO/SL
Smith/SL
Thị/SL
Travaux/SL
Zondervan/SL
br/SL
humanisme/SL
▁#/SW
▁0-0/W_SERIAL
▁1/4/W_SERIAL
▁1453/SN
▁15./SB
▁1510/SN
▁1512/SN
▁1576/SN
▁1596/SN
▁1602/SN
▁1612/SN
▁1627/SN
▁1712/SN
▁1779/SN
▁1996-97/W_SERIAL
▁219/SN
▁390/SN
▁470/SN
▁5-0/W_SERIAL
▁730/SN
▁737/SN
▁930/SN
▁ARIA/SL
▁Affairs/SL
▁Alliance/SL
▁Alone/SL
▁Angel/SL
▁Animation/SL
[...]
